#version: 0.2 - Trained by `huggingface/tokenizers`
Ġ Ġ
ĠĠ ĠĠ
; \
i n
r e
Ġ *
ĠĠ Ġ
ĠĠĠĠ ĠĠĠĠ
* *
s t
Ġ 0
Ġ =
e r
Ġ (
a t
) ;\
Ġ t
- >
d e
o n
0 0
s e
e n
- -
Ġ c
i f
, \
o r
a r
a l
** **
l e
h e
i t
{ \
c t
in t
a n
\ \
Ġ s
} \
) \
/ *
/ \
Ġ p
Ġ f
u r
Ġ* /\
m e
Ġ b
i c
Ġ re
Ġt he
l o
Ġ a
ĠĠĠĠ ĠĠĠ
-- --
u n
i s
st r
ĠĠĠĠĠĠĠĠ ĠĠĠĠĠĠĠĠ
Ġ {\
Ġ "
e d
u t
Ġ o
Ġ 1
= =
i d
i on
r o
ĠĠĠĠ Ġ
Ġ n
**** ****
a d
Ġ if
ur n
e t
t r
Ġ &
Ġ w
e l
_ _
t urn
st at
m p
I N
c k
Ġ d
Ġ m
in g
f f
e x
i g
c h
e s
Ġ S
Ġ /*
\ '
L L
t if
Ġ N
R E
c o
Ġ v
E R
i z
a g
Ġ in
Ġ int
Ġ -
Ġ T
u ct
a me
a s
Ġ l
p e
str uct
iz e
o t
Ġ <
an d
Ġ }\
Ġ P
a se
t re
Ġ C
Ġt o
de f
u l
00 00
se t
a b
---- ----
Ġ i
u e
c l
3 2
Ġ A
U LL
en t
u s
" ,
Ġ= =
i l
Ġ F
o p
c e
at a
Ġ g
a p
er r
== ==
Ġ +
o de
Ġ 2
i le
u m
de v
D E
. \
Ġ {
O N
t h
S T
O R
Ġre turn
c on
ĠĠĠĠĠĠĠĠ ĠĠĠ
stat ic
Ġo f
p r
i v
o id
in e
Ġ }
o l
ĠN ULL
S E
i st
b u
: \
I T
Ġ |
Ġ is
Ġ \
******** ********
Ġ I
u p
Ġ h
Ġc on
Ġt h
n static
at e
) )
en d
f o
ex t
Ġf or
s s
n t
A T
y pe
Ġc h
tre turn
d r
E N
Ġ r
A L
A R
Ġ M
a m
t s
it e
a k
1 6
el se
Ġ !
Ġ u
ab le
ar g
v al
a y
Ġ G
ig n
t e
) ,
lo ck
i r
l en
d ata
i p
cl u
o f
Ġ L
Ġ R
or t
clu de
L E
e ct
/ /
Ġ %
Ġ __
Ġ O
u b
n ame
i m
at ion
p y
m a
t c
Ġ D
Ġ and
) );\
lo c
i b
( "
M A
Ġ* \
re e
in clude
t o
Ġ \'
F F
s ize
re ak
a ck
Ġch ar
v e
Ġ! =
al l
1 0
Ġ e
i o
+ +
ul t
in fo
s c
ag e
A N
o w
Ġ E
Ġb e
ĠĠĠĠ ĠĠ
Ġ B
s ign
Ġ >
-------- --------
" \
( &
t er
6 4
o ut
v oid
" );\
a c
i x
C T
b j
S I
1 1
Ġc o
Ġ& &
Ġ 3
t ype
ct ion
ĠĠĠĠĠĠĠĠ ĠĠĠĠĠĠĠ
t p
Ġ else
==== ====
v er
ar t
l ag
Ġs ize
s p
g et
bu f
Ġ W
def ine
sign ed
e w
ĠĠĠĠĠĠĠĠĠĠĠĠĠĠĠĠ ĠĠĠĠĠĠĠĠĠĠĠĠĠĠĠĠ
a re
Ġ( (
pr int
me m
1 2
un signed
ic e
M E
err or
S S
Ġ st
Ġ 4
Ġ x
Ġ struct
it h
f or
U T
stat e
ig h
Ġ de
t b
A D
o d
m s
00 0
C H
Ġv oid
p ut
Ġ se
re g
Ġc ase
ff er
L O
re ad
7 7
R O
U N
p l
k e
un t
x f
2 4
n d
m m
Ġ )
} ,\
re s
" ,\
i me
( (
r c
Ġ} ,\
Ġ it
Ġcon st
on g
x e
p tr
F I
Ġp ro
a ce
IN T
Ġ on
Ġ( !
2 0
C E
> \
py x
P E
I n
ĠĠĠĠĠĠĠĠ Ġ
ch ar
p o
end if
I D
ER R
) )\
s er
Ġn ot
p ro
] ;\
Ġ or
G E
Ġv al
Ġth is
lag s
T R
Ġ* )
t w
U S
Ġb y
d d
er s
r ite
] .
8 0
Ġ an
Ġ| |
ff set
in d
co de
un d
**************** ****************
Ġ H
t a
p ar
2 5
C O
p t
igh t
/* \
ke y
T I
de x
M P
ad dr
t ext
Ġ );\
f d
Ġw ith
q u
al loc
bj ect
print f
E D
C K
ro m
l y
tc ase
Ġw h
m ent
Ġ y
t struct
I S
Ġb u
u re
ot o
f ile
L A
l ist
in it
d b
Ġb reak
R e
x b
n c
n o
Ġ ex
) ,\
2 3
Ġ 5
tr y
E X
Ġw e
stat us
q ue
c c
n um
Ġ _
a st
9 9
p er
p re
t x
Ġth at
s y
T Y
an g
0 1
m d
Ġ j
q l
p ort
ct x
lo w
t int
es s
Ġd o
V AL
iv e
B U
Ġ str
l in
Ġ 8
m ap
or d
i de
a ve
Ġu se
* /\
x d
s h
i al
1 3
b o
Ġs o
I O
Ġ U
Ġ en
A B
ar r
t g
t y
r r
Ġ \\
he ck
c p
s o
g th
RE G
O P
1 5
dev ice
< <
x ff
mp le
f ree
as k
at h
IN G
Ġs h
Ġf ile
Ġt r
3 77
4 0
Ġsize of
Ġl en
e m
l ine
Ġp o
Ġ )\
( );\
x c
Ġ V
t u
tb reak
f s
Ġo ut
ĠT he
L IT
val ue
ql ite
c ur
Ġ+ =
ib ut
Ġd ata
m at
. .
1 4
] ,
il l
h is
f lags
__ _
e v
Ġ< <
p c
re nt
b er
as s
un ction
op y
ad d
C ON
) ;
o re
as h
N O
ar d
b it
Ġ :
Ġ al
ion s
5 0
Ġa re
3 0
Ġre s
m b
he ad
Ġ at
re ss
x a
con st
TY PE
on e
Ġ 6
Ġ //
S t
g r
Ġa s
Ġre g
an n
int er
m o
i re
pr iv
======== ========
T H
e e
Ġ def
t d
c r
f ig
) (
U E
Ġ set
Ġ @
m ode
f r
ĠT his
n ext
a ct
A P
D R
lo g
e st
Ġ X
Ġ k
an s
bu ffer
co unt
a il
V E
U L
SE T
u st
or y
OR T
C on
Ġp r
L I
Ġf rom
m l
n g
en er
o st
Ġl ong
Z E
Ġ unsigned
Ġ z
ĠĠĠĠĠĠĠĠĠĠĠĠĠĠĠĠ ĠĠĠ
Ġre t
f e
o k
Ġ arg
arr ay
S C
0000 0000
n void
---------------- ----------------
Ġ error
and le
N E
a x
n ode
3 6
Ġs qlite
1 8
Ġ* *
w rite
u se
Ġval ue
( )
ST AT
0 2
e g
st art
D I
U R
1 9
M O
b y
1 7
ic en
ul l
if def
p h
Ġn um
2 2
a ult
a v
it y
t ime
SI ZE
icen se
Ġ mem
l l
} ;\
N U
n ew
f ix
A S
H E
ac he
Ġ1 6
P R
un c
u x
m t
t es
P y
l i
P C
Ġ /
8 6
str ing
re am
ERR OR
Ġn ame
BU G
pe c
5 5
C o
t m
ar y
0 4
d o
IN VAL
re t
ĠĠĠĠĠĠĠĠ ĠĠĠĠĠ
A ME
er n
* /
ĠP y
in dex
Ġ ro
ist er
Ġ us
% %
at tr
par am
Ġ 7
Ġc ur
Ġ le
o ffset
Ġg et
N ULL
** \
ĠĠĠĠĠĠĠĠ ĠĠĠĠ
A M
Ġp ar
Ġ me
++ ;\
t mp
o und
ur ce
l d
t f
Ġ un
of tw
oftw are
it ch
t able
Ġ* /
ms g
Ġc ode
d i
c i
Ġn ew
ul d
EN T
ub l
n int
E rr
Ġ IN
I P
F A
b ase
er t
DE BUG
u le
T E
t l
Ġo p
Ġa dd
s a
in ed
0 8
x B
2 8
e c
x E
O bject
S P
C L
ĠA N
at ed
U P
t else
Ġf unction
Ġ ?
ann el
ir st
u int
Ġc an
Ġb it
2 6
s rc
r ight
Ġ 9
op t
co l
i es
O K
e p
3 4
Ġ( *
w itch
Ġs y
que st
t for
ST R
Ġ| =
tg oto
ĠĠĠĠĠĠĠĠ ĠĠ
P O
i el
2 7
ĠO P
Ġ> >
5 6
o u
I ON
n s
b ack
LIT E
Ġg oto
ma x
t ro
G et
IN E
Q LITE
re ate
t v
iel d
Ġ err
ĠI f
I G
l f
S H
an t
V I
\' ,
ĠL icense
str ibut
ang e
a in
Ġ\\ \
Ġ> =
++ )
Ġ" \\
po s
8 8
S tr
9 0
A C
P ORT
co mp
b lock
9 6
ĠC ON
tre e
t in
Ġt mp
m in
] );\
A LL
F O
P RO
V ER
re q
Ġa ss
en try
AL SE
for m
D ata
x x
3 3
s k
bu g
st d
Ġt ype
Ġl ist
5 4
Ġa d
I C
P ar
Ġs c
r it
9 7
AT E
p p
il d
s ub
Ġres ult
a w
or k
ack et
Ġw ill
C h
Ġre ad
Ġh ave
s n
Ġ} ,
B A
In fo
V al
Ġbu ffer
Ġ [
8 4
id th
len gth
} ,
Ġo ffset
Ġ1 0
Ġp re
E x
ĠF T
Ġan y
FF FF
O L
ak e
S Y
ow n
P I
3 7
f il
D B
c md
Ġ lo
o uld
d is
MA X
Ġ OR
lo at
st ream
Ġd is
ĠĠĠĠĠĠĠĠĠĠĠĠĠĠĠĠ ĠĠĠĠĠĠĠ
O T
s ion
Ġ state
con n
t k
Ġco mp
o s
g e
U n
e le
arg et
Ġu int
opy right
Ġbu f
Ġ up
ĠO F
c s
C I
c ess
ro up
EX T
Ġ he
AB LE
E T
F T
co mm
Ġwh ile
n et
C R
Ġ 32
Ġ end
ĠĠĠĠĠĠĠĠ ĠĠĠĠĠĠ
head er
b e
m ask
p s
Ġn o
T ype
ir q
K E
at ch
[ ]
cp u
p i
O UT
ers ion
L o
Ġm od
Ġ array
de sc
p ath
v ent
con fig
* )
F LA
de d
3 5
o m
Ġc all
x C
9 4
GE T
re d
iv er
t t
Ġf ree
Ġr c
Ġ .
B u
lo se
8 7
Ġ #
e f
x F
S et
u d
im er
P tr
I nt
I L
AT A
c mp
S R
ubl ic
th er
ut ex
ĠI n
S K
6 0
e mp
Ġf r
Ġpr int
Ġo pt
ar ch
m od
ol d
) ->
R F
id x
ind ow
Ġ all
Err or
l ay
DE F
gr am
Ġt ime
c b
loc al
fr ame
f ace
v el
d st
P RE
FI G
us h
x A
le an
N ame
ĠG ener
Ġ( "
6 6
Ġa v
ub le
Ġ q
I M
2 9
Ġt able
4 4
i stribut
tro l
5 7
it ion
le d
t en
d ate
ĠT R
lin k
B IT
ip t
S U
um ent
ile d
at or
P A
Ġn e
i ent
Ġ J
f unc
0 3
0 7
v ar
Ġ key
ser t
ĠG NU
U SE
lin ux
Ġc heck
S N
] [
and l
Ġm ode
b l
con text
T O
d ir
C P
M S
******************************** ********************************
Ġuse d
Ġc l
que ue
Ġ< =
fix ed
W R
s g
AN D
he d
h w
a ch
Ġb ut
t unsigned
f l
Ġnum ber
p en
lo b
6 8
EN D
L ist
ME M
ev ent
( *
val id
Ġb lock
Ġ" %
an ce
ĠP ublic
M D
2 1
al se
Ġst art
un k
us er
t n
o bj
c a
ma in
P ro
re f
Ġv ersion
Ġdef ined
te mp
RE AD
O C
3 1
S A
Ġsh ould
Ġp er
ic h
Ġ status
Ġ) {\
a iled
FLA G
Ġm ust
x D
u mp
ro w
c py
G L
Ġ Y
ĠF ALSE
N AME
ĠGener al
ta in
el l
if y
LO CK
w ord
ite m
RE F
IT E
en ame
M B
Ġf lags
ame ter
M L
3 8
tre t
f t
te st
ire ct
a it
l ib
Ġin dex
STAT US
pl ay
l at
op en
Ġs pec
h ash
IN FO
F S
Ġass ert
L EN
c all
res ult
Ġlen gth
c f
Ġs p
Ġco unt
Ġ dev
D O
AR R
Val ue
lo ad
bit s
mb ol
9 8
5 8
++ )\
Ġs ub
ut h
0000 000
cur rent
Ġin it
mo ve
( __
o bject
N T
Ġ2 00
Ġm ax
arg s
C C
er o
6 7
" ;\
b r
ĠA R
u es
Ġ device
ĠAN Y
F ile
Ġco mm
S ize
MA SK
p a
Ġs rc
D ATA
KE Y
ON E
s i
Ġw rite
Ġ= \
ic k
h andle
Ġcur rent
ut e
ss ion
4 8
Ġ K
P AR
h ost
D L
St ate
CO DE
c ache
ĠT HE
L INE
se lf
ĠC opyright
ect or
Ġin fo
po int
de bug
s r
0 5
Ġc opy
s l
ot e
ar k
) {\
andl er
Ġt est
ss age
LO G
se d
Ġon ly
are nt
h dr
r l
d er
I LIT
9 5
r x
CH E
c heck
Ġf irst
Ġ 64
ol low
Ġc ol
ILIT Y
\\ \
ct l
Ġx ml
B L
Ġn ode
le ar
Ġh as
Ġon e
G P
4 7
ĠM A
================ ================
INVAL C
I X
Ġstr ing
Ġ ~
size of
I F
im it
c d
e ad
* \
I d
in k
o ol
f p
Ġs oftware
I R
Ġd r
et urn
Con text
<< <<
cc ess
L D
I B
Ġ ;\
AR T
Ġ\' \\
0 6
w idth
ĠĠĠĠĠĠĠĠĠĠĠĠĠĠĠĠ Ġ
Ġv ar
en v
def ault
c ap
ĠS QLITE
th read
RE E
FI X
Ġpro gram
Ġf ollow
all y
T A
SS L
f c
ce pt
h er
err up
cl ass
tin ue
ch annel
op s
ver t
Ġn ext
sy s
5 3
i ed
Ġa p
Ġ alloc
MO DE
/ **\
on t
A dd
s d
CH AN
# #
Ġ&& \
ĠS oftware
reg s
Ġ ,
Ġy ou
e y
Ġc p
Ġt er
ix el
Ġby tes
by te
2 11
ĠTR UE
B O
U RE
m it
cl ient
E n
Ġ RE
**************************************************************** ********
re c
1 00
SI ON
ĠF ree
u LL
Ġ US
k en
con d
y p
CE SS
Str ing
%% %%
Ġdef ault
i se
Ġwith out
OR D
CT ION
F R
Ġne ed
Ġprint f
C ol
Ġmem ory
3 9
ic ation
T r
co m
E E
Ġo ther
x ml
s b
8 2
ER N
Ġ| \
t char
TR A
C A
up port
AR G
p age
le ct
Ġd istribut
UL T
so ck
in put
D U
Ġb fd
N G
Ġ DE
Ġs u
t ent
i able
l ast
P r
w ork
Ġ und
u me
o ur
p end
Ġm ay
fe re
l ong
v ide
Ġwh ich
Ġadd ress
0 9
8 5
ER T
p in
Ġm ore
Ġpo int
le ase
Ġin put
t printf
U D
Ġs k
o b
ĠG L
at er
E S
r b
Ġl ine
lo t
u g
2 00
Ġreg ister
Ġ|| \
Ġwh en
M em
AB ILITY
v ed
ĠW e
C F
Ġ $
W A
u a
8 3
out put
t ag
7 4
P H
o y
S O
tr ans
Ġth en
g l
by tes
Q U
sc r
C S
a ction
ĠE X
Py x
g roup
se c
Ġp ng
un lock
i e
Ġa b
6 5
Ġs witch
Ġ__ _
Ġl ast
ĠR eturn
t ing
AD DR
el y
BA SE
r g
Ġo bject
t T
A d
R T
ĠA V
reg ister
x FF
Ġund er
Ġen try
st em
( ___
ĠP RO
h ile
Ġout put
Bu ffer
7 0
L en
ĠF OR
Ġ ext
M T
Ġf alse
B E
t i
8 9
Ġfollow ing
Ġtr ans
= %
H T
s m
S QLITE
i mp
// //
ARR AN
FI LE
en c
USE D
m age
f ield
Ġint o
Ġ mp
ph y
th od
n b
] )
4 3
Ġ Z
t tp
ĠW ARRAN
ta il
H I
for mat
c reate
t ab
9 1
Ġ1 2
Ġb ase
or m
K ey
In it
y y
fil ename
g p
, "
re turn
t mem
re quest
d ing
iv ed
D V
ĠF ound
m utex
9 2
. \\
p ng
le vel
VI CE
o c
Ġ id
print k
an k
ap ter
Ġw rit
t arget
IT H
arg v
I VE
Ġso urce
Ġp art
lob al
er y
Ġ --
d ma
(( (
( \
G R
n ing
Ġp ort
Ġn et
n def
Ġf printf
errup t
0000 00
( !
12 8
ĠFound ation
N um
4 5
E C
Ġt emp
Ġpo s
X X
Ġpo inter
Ġc al
f rom
f n
o ff
8 1
Ġint er
Ġe v
Ġspec if
pe ct
T ER
F UN
f loat
4 9
f lag
tw hile
N ode
f b
ag er
P re
ag es
25 5
ĠS et
P L
4 6
Ġad dr
st ore
ver sion
s or
if t
i ew
ot al
dr iver
se ction
ith er
Par se
I V
b us
co re
S c
Ġd st
TI ON
Ġp age
C ur
Ġs er
it er
CON FIG
conn ect
al e
ĠP AR
A Y
Ġbit s
o g
E M
Ġ& =
" )
ibut e
Ġ- =
std err
Ġh andle
se nd
B y
Ġc tx
R es
ts witch
Ġ static
Ġf ailed
sp ace
F OR
.. .
Ġ2 0
ma c
c lose
O S
ĠPy Object
Ġ" \
6 3
ch ip
Ġf ail
O M
7 5
in al
7 8
se ct
a i
str oy
4 2
O F
ex p
ĠC on
t op
pl y
D C
ab el
ud io
ff ff
9 3
St at
Ġhe re
fo re
t on
ation s
Ġfr ame
m y
im age
if ndef
Ġcon d
us b
en o
Ġo per
Ġtr ue
ĠĠĠĠĠĠĠĠĠĠĠĠĠĠĠĠ ĠĠĠĠĠĠĠĠĠĠĠ
RO M
ow er
Re ad
le ment
Ġ% %
co py
in sn
WR ITE
ex it
a f
Ġ+ +
Ġ Q
Ġopt ion
k t
re en
c nt
he re
\\ "
as sert
n struct
Ġf ield
5 2
ĠĠĠĠĠĠĠĠĠĠĠĠĠĠĠĠ ĠĠĠĠ
R L
mod ule
n ect
Ġre quest
IN IT
r ap
ĠI S
so urce
ĠS H
ĠS T
or s
In dex
DE C
Ġ( &
t P
i er
VAL UE
a mple
Ġl ib
Ġus er
con trol
Ġs ign
Ch ar
de st
Ġ INT
sk b
Ġ ^
T X
E V
f ul
S L
A VE
Ġthe re
PRE FIX
-------------------------------- --------------------------------
o lean
bo x
Ġw as
7 6
N D
,\ '
M M
Ġm o
N ONE
O FF
sh ort
en ce
Ġp acket
Ġy y
m alloc
Ġre ce
MA P
con f
el f
t dev
c ard
ial ize
n ce
U B
R C
Ġ UN
t imer
(" %
r aw
O B
] ;
l p
stat s
F P
ct rl
t tr
C CESS
it ions
se q
ro ot
M AT
Ġm in
Re g
ĠAN D
up le
A n
Ġ lock
s pec
STAT E
t ed
NU M
CHE CK
T able
it s
C B
t err
cl k
! =
b fd
tr ies
Ġ* ,
Ġi mp
pre fixed
" },\
ĠE x
n dr
sp on
m c
Ġ1 5
Ġpar ameter
m is
qu al
O ut
ĠS O
)) )
tr a
ĠI P
w e
UT E
Ġcon fig
Ġdo es
G EN
Ġo ld
Un prefixed
sy m
Ġe vent
ic al
eg er
th is
ĠN O
D ev
ern al
ĠS ee
i a
ĠCON FIG
on ent
Ġby te
4 1
ult ip
r ary
Ġter ms
T L
ĠĠĠĠĠĠĠĠĠĠĠĠĠĠĠĠ ĠĠ
ib le
i or
p acket
BU F
Ġ REG
Ġ log
F N
T o
P ER
O W
D e
ĠC o
Ġcomm and
t S
f er
Ġso ck
Ġw ork
et h
SS ERT
d p
po ol
Ġval ues
5 9
j ect
Ġf il
Ġat tr
are d
\' :\
ter n
Ġso me
en able
Ġdo uble
pro c
um n
CO MP
Ġt ree
t const
Ġsh ort
Ġcp u
se nt
ĠĠĠĠĠĠĠĠĠĠĠĠĠĠĠĠĠĠĠĠĠĠĠĠĠĠĠĠĠĠĠĠ ĠĠĠĠĠĠĠĠĠĠĠĠĠĠĠĠĠĠĠĠĠĠĠĠĠĠĠĠĠĠĠĠ
ĠR e
Ġro w
ctx t
FA ULT
80 211
ĠW ITH
in ode
C LA
s w
Ġp l
add ress
)) );\
\' ;\
TI C
Ġd at
f irst
ts pin
Ġa ct
S ER
7 2
ic es
as m
u al
Ġm ap
or g
f mt
rr ay
g en
y n
F ree
ON G
use d
C l
priv ate
num ber
mat ch
7 3
at es
M ENT
Ġs nd
1 000
MS G
F D
st ack
Ġstruct ure
s um
Ġop en
t B
EN O
is hed
n p
read y
str cmp
t printk
w w
h y
Ġin st
6 2
SU CCESS
I LE
a a
N ew
)) )\
v m
err no
ĠĠĠĠĠĠĠĠĠĠĠĠĠĠĠĠ ĠĠĠĠĠ
0000 0
Ġ2 4
he ight
__ ,
Ġb ack
per ty
y pt
Ġa f
code c
p ol
n e
Ġ qu
de n
C D
* )(
U INT
c m
d s
ĠS t
ĠG et
ĠE V
6 9
D IS
tu int
re ct
M ode
r ate
p th
STR ING
qu ire
NE SS
Ġe ither
C MD
un ter
( _
Ġn on
Ġo ver
" ));\
/* :
Co mp
if f
Ġre c
ĠT O
Ġs upport
TH ER
ser ver
7 9
, -
PO SE
ĠI nc
LO C
form ation
Ġfor mat
o urce
w indow
S D
Ġro ut
6 1
Ġm ask
Ġc md
F E
tc p
comm and
IN SN
w ay
bu ff
s qlite
Ġ header
Ġf ound
Q I
ĠF IT
Ġmod ify
r q
pre v
S UP
Ġ( );\
n own
sa mple
UR POSE
Ġpro cess
Ġf loat
************************************************************************ ****
Ġb o
i ct
ch an
t con
p d
param s
a mp
ER CHAN
re l
CON T
UL AR
ĠL I
op er
{ "
ĠMA X
b d
Ġt arget
mo v
S h
p arent
5 1
xf e
Ġvar iable
PR INT
h o
ĠX ML
Ġth an
CT L
PREFIX ED
T ABILITY
ĠFIT NESS
cf g
ERCHAN TABILITY
up date
Ġcon tain
F or
Ġ/* \
E P
ĠP CI
b a
SI G
O p
s ave
Ġst ream
TI ME
TR IB
se s
Ġpro vide
Ġsy mbol
ĠP URPOSE
Ġ1 3
f low
) .
Ġp ath
Ġ1 99
Ġch annel
s ing
$ {
li ent
O D
me di
Ġ ar
p ing
Ġm sg
B Y
W ORD
TIC ULAR
NO T
INVAL ID
ĠPAR TICULAR
Ġ} ;\
DU LE
pc i
Ġ{ "
t N
w in
ĠC heck
M C
Ġarg ument
Ex pr
A G
do uble
opt ions
id get
bo olean
iv ate
50 9
h andler
Py Object
to ken
DE V
r t
BIT S
me ssage
en u
ial iz
Ġ1 4
ĠM ERCHANTABILITY
c es
P UT
Ġ1 1
T K
fil ter
Ġh o
v ice
Ġh ash
A A
Ġcon text
Ġev en
ab ase
ern el
s v
Ġle vel
de l
Ġc or
R X
lat ive
) \\
A rg
Ġcond itions
F ALSE
bo ve
E CT
mple ment
ut il
Ġin clude
Ġf ind
d c
a uth
v ol
in st
E G
w ait
ok up
scr ipt
R D
Ġ ->
le ft
Ġm ake
Ġa bove
Ġme ssage
ĠP ro
Ġl ink
Ġm atch
ĠT r
ĠU SE
AD D
fere nce
Ġ local
Ġde st
Ġi p
P age
col or
U M
n r
23 8
cr ipt
Ġcal led
)) ,\
sy nc
T ime
RE CT
ĠT H
Ġse nd
Ġn ow
ut o
is h
in ary
par se
MO DULE
7 1
Ġse e
db e
, ___
Ġwrit ten
ic s
\' )
s u
at ive
ĠF or
SY S
ĠĠĠĠĠĠĠĠĠĠĠĠĠĠĠĠ ĠĠĠĠĠĠĠĠĠĠĠĠĠĠĠ
t default
DE VICE
Dev ice
VER SION
se ssion
b s
g le
EN ABLE
GP IO
in es
n ow
CT RL
Ġp tr
Ġaf ter
u id
Ġd one
Ġl ater
co der
i i
A l
CH AR
Ġg ener
ty p
P T
ĠR ed
Ġrece ived
WA RE
Ġd on
F r
co ding
Ġ `
Ġt w
ĠA T
S B
d up
l ate
M IN
c an
Ġdistribut ed
Stat us
ad apter
r d
Ġo ff
de nt
ur ation
RE T
K ERN
v b
tail s
Ġval id
AP I
Ġstr len
N C
W rite
Ġe ach
( ),
Ġcon nect
Ġf l
b p
A V
A CK
Ġs ame
' /*\
p ass
Ġo bj
c re
f unction
Ġcon tinue
p ed
M I
MA GE
F C
sc an
comm on
C ode
t D
ĠU n
TRA CE
k ely
nc ase
S W
se g
me thod
d l
( )\
orm al
Ġbe fore
qu ence
S y
m ark
Ġj ust
Ġd irect
par ser
ĠĠĠĠĠĠĠĠĠĠĠĠĠĠĠĠ ĠĠĠĠĠĠ
Ġz ero
] \
re set
te m
p ush
ĠĠĠĠĠĠĠĠĠĠĠĠĠĠĠĠ ĠĠĠĠĠĠĠĠ
OB J
cept ion
Ġi o
dr v
Ġy our
at ure
Ġpre v
MA C
Ġh ost
E L
ve c
lean up
FA IL
igh ts
Ġf lag
( -
Ġal ready
Co unt
f ind
ts ize
Pre fixed
E INVAL
Ġus ing
next ern
tf printf
de stroy
Ġc r
W IN
di stribut
Ġg o
OR Y
W N
Ġ(! (
LO AD
f ail
Ġd b
p m
un def
RE S
ĠUS B
b b
- \
l s
Ġbe en
t M
Ġf d
: %
Ġp ubl
io us
AT ION
ĠA D
A GE
Ġchar act
) .\
ch ild
PRO C
Ġp ut
ĠWITH OUT
Ġnot ice
w are
z ero
cr ypt
LI ST
Ġdo c
le te
p ixel
g er
CO L
en um
/ /\
ch unk
sy mbol
Ġ(( (
D b
D ef
iv en
Ġc reate
NE L
UT F
RE Q
ĠA l
A ttr
Ġc ache
25 6
CL UD
Ġre distribut
CLUD ING
d iv
A UT
ĠL O
Ġ1 7
Ġt ext
Ġ define
Add ress
Ġr un
tcon tinue
W AR
En try
is ion
- +
C ALL
t R
Ġit s
set up
loc ation
" ))
f g
U X
Ġ* (
tre s
ord er
Co mm
de lay
A SSERT
n ot
d uct
Ġex it
ee e
ail able
p art
Ġg r
DB G
%%%% %%%%
: :
p dev
-- ;\
w ar
Bu f
Ġth read
DE X
p w
H andle
Ġw idth
ST ART
ĠN OT
re lative
}, {
ĠS DL
u i
PR IV
Ġc opyright
; }\
Ġprovide d
A SE
ele ment
mem ory
Ġsp ace
p b
d u
FT WARE
def ined
al ign
m an
w rit
w ise
p ack
Ġde tails
pe ed
Ġen able
li kely
Q L
Ġb l
ĠĠĠĠĠĠĠĠĠĠĠĠĠĠĠĠ ĠĠĠĠĠĠĠĠĠ
xc el
ss l
li ed
BU FF
ĠY ou
Ġp c
ĠP R
he ma
Ġst ore
m ote
ma ch
Ġ" ,
d im
f a
DE SC
Ġfunction s
LO W
Ġa c
ĠWARRAN TY
pc m
c ase
Ġst ack
am s
BY TE
Ġ ent
E nd
Ġ stat
Ġg en
h ttp
Ġredistribut e
} },\
de c
ĠSO FTWARE
ab s
Ġse lf
w ir
Ġarg s
time out
SUP PORT
ĠI D
as ic
re move
A CT
Ġpro to
Ġsu ccess
ĠG ET
P U
xcel Value
E vent
ann ot
a h
Ġlo op
Ġex p
Ġpubl ished
c le
D sp
s z
UN D
ug h
s ig
act ive
] =
ĠA ll
Ġf f
Ġa g
rr or
x y
u res
Ġimp lied
Ġdr iver
Ġarg v
F B
c al
tre g
gp io
d at
P ath
. ,
Ġi mage
HE AD
ĠC O
FFFF FFFF
he s
G B
Lo ck
cl a
D is
nt ype
Ġe lement
b c
ur face
CF G
to ut
spon se
Ġ( %
N S
in ce
ĠTH IS
] ,\
00 1
H ead
ĠI nt
p g
CT X
m on
ang ed
Ġuse ful
Con fig
AT H
re loc
v ector
TR Y
st er
ĠH AVE
ĠRed istribut
ly ph
S e
pro to
xff ff
L Y
r ange
LA Y
D MA
ip her
IG HT
Ġl ua
A rray
<<<< <<<<
de pth
te ct
call back
v iew
Ġp ci
f in
SU B
Ġm an
n al
pro cess
A CE
l abel
pect ed
g h
TI ES
st op
I FT
C M
lo op
Ġdat abase
US B
{ {
Ġin d
D es
ĠS TR
Ġw arr
t data
T ab
res h
S rc
l imit
Ġw indow
n a
Ġi mplement
pre ssion
PC I
Ġle ft
at tern
m i
t free
ĠĠĠĠĠĠĠĠĠĠĠĠĠĠĠĠ ĠĠĠĠĠĠĠĠĠĠ
] ->
b i
Ġco mple
bl k
P S
I tem
t str
po inter
tif y
attr ibute
de cl
Ġmod ule
Ġint errupt
Ġtw o
l c
ee ded
r ing
Ġ DEBUG
in s
Len gth
p id
)) ->
g ener
d own
C UR
T REE
Ġin formation
V dbe
Ġus b
* (
ĠI t
_ ,
ntype def
ALL OC
//// ////
ĠWARRAN TIES
Ġ ed
tre am
re v
Ġa cc
r ix
SH IFT
ca use
INT ER
> >
" ),
I ST
F unc
an ty
ĠD A
Ġg tk
Y PE
V AR
p C
co mple
Ġse ction
Ġlo ad
B B
---------------------------------------------------------------- --------
O pen
ĠF LA
s lot
Ġwarr anty
Ġlib rary
c lear
il ity
e ff
S M
at ing
ĠI MP
ĠIn it
F rom
BUFF ER
CP U
Ġr b
ĠR T
pre fix
t he
S G
o se
ĠO UT
Ġ ;
w d
DI R
Ġ idx
TE ST
ĠC H
ast er
Ġ( _
Ġre set
AR D
Ġen v
OFF SET
ot h
Ġreturn ed
Ġ* __
ĠP NG
Ġb ool
I s
r un
t len
Ġho pe
Ġm ultip
ro ugh
od y
PRIV ATE
db g
B LOCK
Ġr ange
ut ton
n l
O ffset
a use
T ext
Ġin line
ĠC h
ip s
: //
MB OL
Ġa x
VI DE
ch r
pl ace
MA CH
t C
Ġw here
way s
ic ate
typ es
fere nc
h s
se lect
y cle
Num ber
D SP
\' )\
ex pr
mode l
N o
By te
str ide
O ST
H AND
Ġg roup
Ġp ass
tro ll
WAR N
Ġal ong
UR N
v c
CL K
mis sion
UN USED
PAR AM
re al
Ġw ord
Ġdoc ument
Re f
Ġal low
CLA SS
ab fd
desc r
SR C
FUN C
Ġg iven
Ġ1 00
ĠF R
sc ale
ĠĠĠĠĠĠĠĠĠĠĠĠĠĠĠĠ ĠĠĠĠĠĠĠĠĠĠĠĠĠ
Ġor der
Ġinter face
or ig
Ġ low
Ġm y
ĠM PI
Ġcon trol
tmem cpy
c at
ok en
ĠT E
s id
un likely
ĠA C
ĠO pen
Ġg l
ver y
d a
Ġb inary
Ġ :\
tb l
LI B
36 2
P ager
W I
le m
EX PORT
RE D
Ġw ait
e k
ĠI R
Ġ1 9
ph a
P D
im um
Ġde bug
a int
tr act
ro p
Ġre ser
Ġin sn
Ġre quire
Ġbe cause
AT TR
Ġfor m
Ġrout ine
o ver
TA G
FUN CTION
con tent
ing le
IR Q
Ġl imit
t PORT
L AN
re lease
TR UE
r a
OP EN
AR GET
ter m
Ġm ain
F L
ĠReturn s
Ġde script
ur b
Ġt ag
Ġse g
M od
, &
19 2
o urn
DE FAULT
opt ion
LI C
a udio
g lobal
t ask
l an
ĠE xcelValue
Ġre f
M X
Ġarg c
th ing
' /*
H AS
ar m
d irect
P IO
T S
or ts
p ix
ig ger
LI ED
struct ion
Ġch unk
ist ers
ĠD MA
P TR
xf d
Ġal so
n SQLITE
le ss
ourn al
( %
t G
D ST
ex ec
Ġm ac
xf c
S er
For mat
g n
) [
t status
Ġs l
name s
IN DEX
D A
-+ -+
gle w
sock et
Ġc lose
Ġse lect
IM IT
Fr ame
Ġspecif ied
ĠDA MAGE
Ġme thod
Ġs m
ap i
P os
Ġreturn s
c g
sign al
OBJ ECT
2 24
o int
B US
it or
b ind
m ul
AR Y
pro perty
Ġav ailable
yp to
Ġf ix
Ġor ig
ĠIMP LIED
Ġc lient
Ġd ir
Ġen um
St art
P P
B lock
S tream
Lo g
ele ct
and ard
d ump
t info
ĠA dd
UN K
sh ow
I mage
} [
ĠĠĠĠĠĠĠĠĠĠĠĠĠĠĠĠ ĠĠĠĠĠĠĠĠĠĠĠĠĠĠ
p kt
Ġto ken
i an
1 10
troll er
d one
SY MBOL
h as
Ġex ist
Ġs ample
mp ty
inter nal
Ġb us
C heck
[ (
BA CK
Ġmem cpy
G OT
IN K
t un
Ġse cond
DI RECT
EX P
PH Y
dis play
ult i
p Parse
qu ery
F MT
RE L
Ġm at
er m
Ġv ol
Ġth rough
Ġmod if
" ),\
in c
B R
ur l
sh ift
Ġm alloc
Ġ et
il y
Ġr ight
t set
Ġ4 0
N V
Ġ1 8
ĠL IMIT
ot her
lin eno
Ġtr y
b io
TI M
Ġup date
Ġs n
ide o
C AP
n er
W indow
tr c
ac es
IT Y
S PE
Ġrec ord
DEC REF
T ABLE
CO M
F REE
Ġ\' ,\'
h i
tr ace
ign ore
y te
Cl ass
j ust
w ard
Ġi m
ul ts
v p
N ext
---- --
MP LE
Ġre q
u c
ĠĠĠĠĠĠĠĠĠĠĠĠĠĠĠĠ ĠĠĠĠĠĠĠĠĠĠĠĠ
L ong
.. ..
Ġb et
Ġin ode
w r
UN PREFIXED
Ġr ights
Ġser ver
FOR MAT
IT S
Ġint eger
em u
d ig
eg in
tmem set
Ġm ark
M ap
Ġcl ass
OP ER
Ġsk ip
td o
Ġi rq
ENO MEM
Ġco st
ĠS C
IN D
NE T
ck et
do main
c el
B ase
E LE
P Y
Ġcon tent
pro p
w h
a de
Ġparameter s
d m
Ch annel
ĠC L
G TH
t otal
at ile
t j
] )\
Ġs up
t pr
ĠSH A
G A
an sp
bu ild
// !
s ide
Head er
op code
(" \\
oper and
ĠF IX
SIG N
Ġ( __
emp ty
fr ag
se m
Ġ queue
k nown
24 7
f x
Ġv ir
u ff
H W
Pro c
Ġv ec
L BL
O ID
C all
Ġcall back
O bj
di ct
EV ENT
Ġreser ved
ap pend
st ep
o inter
B it
Ġ ...
n v
EN TRY
25 4
Ġh f
r am
Ġo ur
yn am
\' ,\'
Ġc lock
av ed
ĠD B
sy stem
ĠB UT
c ul
= (
Ġa buf
Ġro ot
Ġ item
Ġspecif ic
================================ ================================
r v
)) ,
Re c
Ġch ange
Ġsy stem
lat form
Id x
H ash
Ġc re
h p
Ġa uth
Ġpr iv
h ci
ta ch
g o
res ol
Ad dr
t z
S ub
fl ush
ĠN o
Ġs ave
E LD
ting s
VE L
ang es
Ġp arent
ment s
t ROM
pend ing
0000000 1
Ġ\' %
Ġa ccess
ynam ic
2 64
pro be
L ONG
B C
l x
P er
t error
T P
ĠD IS
ĠR ead
arg c
bo ol
h al
Ġ" );\
AS N
no un
Ġsc an
ro und
n T
as on
xf b
Ġt otal
Ġpar se
f ont
h d
xb d
le g
dis able
ON LY
Ġcharact er
xe c
um my
## ##
Ġ ERR
ibut es
ĠP H
n on
Ġdis able
F lags
AN GE
g b
if o
Ġ/ /\
NO DE
Ġb r
FR AME
Ġto o
vide o
in eno
Ġc lear
Ġp s
Ġdis cla
Ġs ure
pi pe
le ep
Mem ory
Ġex ec
ĠLI ABILITY
Ġ* );\
R A
s on
LEN GTH
ĠCON ST
Ġmem set
bo ard
ĠT I
x dd
Ġdistribut ion
ess age
en sion
v o
Ġcol or
OP T
end ing
ĠLIMIT ED
i mple
at om
lo okup
Ġthe m
t st
t ty
enc y
ret val
Ġ2 55
Ġs ingle
f req
c lock
do c
ĠL o
pre sent
TRIB UTE
PA GE
Ġp ixel
Ġd if
as y
act or
ĠC PU
P ort
p date
UR CE
AT IVE
ic ode
ĠS Y
io d
Ġs w
/ ****************************************************************************
tu al
CO UN
Str uct
ĠC A
tr l
il ter
s up
ch ange
cl i
ĠP G
v t
p io
T h
w idget
re n
SH A
ĠA SN
b h
SE D
le x
g x
P ATH
D o
RE AM
" :
LE VEL
ĠUS A
lay er
s of
Ġt x
n x
b in
pl ication
h a
ut f
tm utex
Ġ*) __
Ġpro duct
OR S
e b
ARG S
Ġ" /
l u
Ġs ince
N A
Ġv a
Ġw ant
m v
I I
Ġhe ight
Ġch ild
reg ion
Ġl i
an e
ai ro
Ġh old
C reate
se arch
c hes
t buf
ĠC R
ĠP ar
IN C
3 00
RO L
Ġ3 0
Ġpar ser
Tr ans
ic y
de code
ser ial
r s
O RE
s ions
Ġt p
et ch
un it
Ġpr ior
4 00
Ġpo ss
min or
) *
Ġf ull
Ġdocument ation
MP L
ĠS SL
ay load
++ ]
Ġn eeded
EE E
de lete
en tries
t tmp
p ower
xb e
std io
ele m
ĠY Y
Ġto p
Int er
Ġfile s
ĠĠĠĠĠĠĠĠĠĠĠĠĠĠĠĠĠĠĠĠĠĠĠĠĠĠĠĠĠĠĠĠ ĠĠĠ
** */\
Ġc info
ĠC UR
Ġif mt
3 12
IG N
T uple
Ġinit ializ
k ernel
ĠB Y
Sc hema
t q
M sg
Ġv ector
24 0
ĠN ote
ĠF ILE
io ctl
Ġbe ing
Ġopt ions
xb f
ĠIR Q
00000000 00000000
Ġs lot
Pr int
Ġs printf
Ġin valid
ou gh
3 13
v ma
Ġtime out
t X
Ġo b
le ction
K ER
Ġal ways
ĠG PIO
h f
P M
Ġalloc ate
ang le
ĠRedistribut ions
t val
av ctx
al k
Ġsign al
Ġo cc
a e
b ad
ac cess
iz ed
Ġ*) &
n const
Ġfield s
Ġ+ \
and om
l ing
AUT H
Ġfil ter
p ace
Ġde l
rap h
yp es
c x
Ġdiscla imer
t list
2 000
Ġal ign
= \
ĠC RC
U CT
Ġconnect ion
channel s
arg e
xx xx
ww w
SUPPORT ED
n MODULE
__ __
B AD
T oken
FAIL URE
M ax
Ġthe y
ĠS QL
o v
y le
or age
\\ \\
Ġ{ __
se l
O f
SO URCE
O r
Ġ1 28
ĠE n
US H
ĠCo mp
fl ash
pos ition
Ġrequire d
ĠTE ST
str len
re store
c info
/ **
OP TION
ĠO n
ĠS I
inter face
ĠW HE
Ġh w
dr aw
Ġen tries
AR B
tv b
ard ware
ĠS ET
comp ress
Ġerr no
i as
V ar
d n
Ġh ttp
Ġs um
c ed
ĠO THER
M AR
E TH
TRA CT
ĠT h
res ource
Ġp ol
f ull
descr ipt
V M
ke ep
block s
id s
Ġdirect ory
ĠT YPE
" )\
LO B
in ation
ol ute
Ġf re
int errupt
cl ineno
P FN
ur i
Ġm m
ĠR eg
Ġ3 1
tif ier
Ġ el
8 0000000
Ġp ix
d t
t NULL
Ġre l
g c
Ġp hy
< /
Ġre al
Ġsy m
b utton
36 1
Ġit er
v ir
xe b
lin es
ĠD I
Ġ2 5
sc reen
ic on
FLAG S
Ġt imer
pl at
r ad
Ġ2 8
\' :
SC AL
a z
ts k
LOC AL
FI ELD
am ily
u f
ent er
in sert
i S
tk free
ial og
Ġsock et
CONT ROL
IN CLUDING
ĠĠĠĠĠĠĠĠĠĠĠĠĠĠĠĠĠĠĠĠĠĠĠĠĠĠĠĠĠĠĠĠ Ġ
i pe
)) ;
ĠB FD
Ġbu ild
Q u
ĠS U
Ġalloc ated
10 1
ARR AY
Ġm ach
Ġn gx
Ġsh ift
to m
u ally
ag ic
c ell
P K
Ġret val
e red
Ġint ernal
Ġsk b
arch ive
are a
Ġ\' ,
Ġe mpty
er ge
__ );\
at al
Ġcol umn
Ġ4 8
ost on
12 3
V ED
* ,
Ġag ain
Ġdis play
q p
ĠS o
w ith
t W
T EXT
ST REAM
Ġwh at
O pt
ĠF LD
j ob
p ad
im m
R IP
o ot
ITE M
w l
Ġname s
so c
Pr ivate
Ġreg isters
HAND LE
d f
ĠF A
Ġpro b
Ġco uld
\' \\
G TK
val ues
Ġf p
t A
m enu
g ress
Ġh igh
t V
ĠB oston
ert ex
Ġlo ok
R ow
Ġh andler
CK ET
Ġprev ious
ang u
RE SS
Ġp e
ĠD e
ĠF F
al t
Ġfr a
Ġ EN
OR M
se ek
n ull
QU EN
+ =
Ġg lobal
T emp
w c
Ġb ad
Ġ\\ "
OL D
Ġ*) (
Ġf e
ĠD is
a ff
Ġst d
D P
+ \
s f
ial s
Col or
Ġc annot
Ġ elf
) :
H andler
l it
st mt
Ġp a
Ġcontain s
L ine
gr ap
Ġs v
i ef
Ġ2 2
sp i
Ġco unter
ĠS y
Ġthe se
e ar
MA LL
re ply
D S
Ġv er
Ġab out
ele te
Ġc op
** /\
t io
ĠUN USED
ferenc ed
Ġl icense
connect ion
Ġ head
nt mp
X IS
NE M
Ġre tain
Ġfil ename
Ġi eee
OPER AND
Ġs ig
ĠR es
ĠL es
) &
nb reak
> =
In put
an ch
rec v
it le
ME TH
Ġr x
*/ /*:
v is
} }
ĠLes ser
Ġ\',\' ,
t new
R IGHT
ĠB E
p B
E lement
++) {\
rec ord
ĠU INT
ĠN T
G RO
ffff ff
Ġcon vert
pe er
__ ;
ĠD o
s ure
RET URN
p atch
Ġc ap
SE C
ĠM P
Ġ2 3
Ġ KEY
re sponse
Ġl p
h t
TR AN
, /*
cur sor
Ġpos ition
L C
Ġother wise
T est
ameter s
Ġ2 56
ĠT IM
s urface
Ġw ould
Ġ VALUE
fo und
t state
phy s
pe g
WARN ING
RE SET
COUN T
sc hed
CON F
Ġ5 1
m ux
xe f
t ad
M essage
Comm and
ut ion
angu age
n char
br ief
ĠC OP
CA ST
! \\
D st
C RE
a pe
grap h
unt ime
CO RE
Ġ ON
pp end
E nt
Ġ( -
Ġd ist
SE L
mo unt
tres ult
A F
h igh
s in
ma ster
ERN AL
co unter
Ġd er
ire ction
Ġn eg
W ID
ĠF unction
n EXPORT
o ci
Ġ ul
AN T
ĠD ATA
ĠS PE
Ġre loc
UL TI
Ġc ycle
f ill
h c
xb b
r p
, %
field s
ch ain
t assert
ĠM NEM
tx t
b asic
) ==
o ve
Ġin sert
Ġde cl
ĠM O
str aint
ĠT e
pro m
Ġch ip
ir m
r m
ite ms
b f
ev el
mit ted
DR V
Ġoper ation
r ank
ok ie
Ġoper and
r tx
Ġm ight
ERR UP
ACT IVE
R B
t ion
Ġd ig
p ages
t I
he ther
cp i
Ġp as
M ask
ĠS W
AME TER
gener ic
b ody
ts c
Ġc airo
PC M
8 000
ĠI F
v id
ĠCOP Y
Ġ" -
w m
Ġ2 6
pl ic
we en
c or
xf a
en code
2 25
st e
var iable
PRO TO
b and
Ġ DEF
ff ect
C ell
g g
8 00
ER O
Ġ ]
I MP
Par am
unt il
Ġsy s
re p
tr ack
2 20
ts nd
) ((
Ġ: :
T C
Ġp latform
PE G
Ġcor rect
) -
p k
G LE
Ġ2 1
Ġ\' [
ing s
du ce
ĠN DR
b ers
Ġattr ibute
Ġ es
Ġo s
t DEBUG
ex tra
Ġ\' ]
AN K
Ġse arch
, (
Re quest
Ġdoes n
m r
inst ance
CON ST
ĠĠĠĠĠĠĠĠĠĠĠĠĠĠĠĠĠĠĠĠĠĠĠĠĠĠĠĠĠĠĠĠ ĠĠ
Ġst op
T x
ver se
Ġ& (
Ġc ard
po st
u v
TH READ
Ġ ignore
Ġd own
er ved
Ġw in
Comp onent
I E
ser vice
m ake
B F
ĠW rite
in valid
fe rent
so le
X ML
e a
ĠS UB
S DL
ĠC reate
ĠN um
Par ser
g ot
p R
at t
t ure
METH OD
cur r
99 99
Ġr t
Res ult
Ġop code
id ge
D F
) ",
ĠEV ENT
Q UE
By tes
mach ine
SE QUEN
C md
Ġ$ {
D T
it a
t L
Ġm is
st amp
c leanup
Ġper mission
Ġs d
upport ed
D oc
80 2
ul ar
ĠW h
v s
res sed
f i
t uple
MO D
il tin
n eg
S elect
Ġb oth
I AL
g a
a ded
Cur sor
t void
Ġd iv
M ac
Ġposs ible
l m
ĠS N
lo or
ĠA F
sc al
TRIB UT
ST ACK
EG ER
PO INT
C ache
) +
SY NC
H e
12 0
PFN GL
bo ot
LO AT
Mod ule
bit map
ĠT L
tN DR
Ġpre fix
on ly
US ER
Ġm d
l ua
RE A
Ġfail ure
po se
IP H
Ġbet ween
Ġre ference
Ġsupport ed
al et
Ġh ap
L INK
f w
s peed
KER NEL
to k
( ))
int eger
Ġf ill
NO WN
j s
R M
G O
Ġmo v
HEAD ER
ss ize
ĠDAMAGE S
Ġse c
Ġt ask
std lib
co pe
str dup
ĠD es
i ro
errup ts
tw rite
se quence
Y P
Ġab ort
Ġ1 000
ent s
sk ip
if ic
ac c
ĠAR G
at ures
ĠR L
Ġconfig uration
Ġre move
Ġ2 7
C LE
b ig
own er
loc ate
++ ,
node s
ĠM AC
Ġn dr
Ġw hether
Ġse ct
u ch
Ġset up
D M
11 1
ĠĠĠĠĠĠĠĠĠĠĠĠĠĠĠĠĠĠĠĠĠĠĠĠĠĠĠĠĠĠĠĠ ĠĠĠĠĠĠĠ
o us
ay er
xe a
tc ur
medi a
Ġ5 9
ĠĠĠĠĠĠĠĠĠĠĠĠĠĠĠĠĠĠĠĠĠĠĠĠĠĠĠĠĠĠĠĠ ĠĠĠĠ
S F
ĠG FP
plat form
F ailed
) |
Ġk rb
per cap
percap ita
g or
Ġ( ;
ad er
CI AL
PI X
m ultip
ĠN one
\' );\
MAT CH
bo und
NE W
MAR K
ag ick
Ġf s
dis k
Ġspec ial
N one
Ġex tra
l er
CA CHE
DI P
N et
Ġs a
ab ility
Ġin struction
o x
DE CL
ur ing
p f
Ġpo ol
TI AL
Ġ_ ("
resol ve
Ġcur sor
In valid
Ġcost percapita
m id
Ġsu ch
Ġw ay
ĠX XX
it ies
Ġh ow
-> _
Ġde code
Cur rent
tr ue
av a
< \
tw pa
ĠN E
MEM ORY
AL IGN
s ql
Ġa uto
( ));\
ar ning
Ġme ans
Ġp h
F ilter
Ġ< <<<<<<<<
re rror
ĠAT TRIBUTE
T ARGET
xa a
Ġ<<<<<<<<< <<<<
Ġ<<<<<<<<<<<<< <\
FA CE
Ġocc ur
EN SE
D ir
- */\
c n
Ġp ower
Ġctx t
ĠJ S
Ġ ..
Ġdif ferent
Ġex pression
RE C
Ġbe g
p Ad
ap p
M UX
Ġd im
*/ =
5 00
xb c
key s
d sp
ĠT X
ĠP r
Ġass oci
STR UCT
Ġf ace
V ertex
Ġb ound
f ailed
n if
ĠIN CLUDING
p ic
ĠT cl
b ot
******** ****
point s
Ġ~ (
LI M
P t
ĠA L
: \\
ro ll
ansp ort
x cc
ug in
) /
P acket
Ġ until
Ġde c
RE LOC
ition al
ro ut
IM M
Ġpoint s
COL OR
h ow
E A
%%%%%%%% %%%%%%%%
x FFFFFFFF
ire d
Ġdescript or
Ġimplement ation
us age
Ġ\'[ \',
t ot
sect or
en ded
d iff
Ġl abel
a que
av ail
Ġargument s
b ar
R ATE
Ġre lease
t static
tp ro
ĠInit ialize
ĠI O
ub yte
tp ci
ĠFLA SH
Ġcon n
AS K
Ġ\'] \',
t id
B S
Ġp ack
p fn
sw ap
Ġe very
Ġpar am
t le
GP L
Ġact ive
Ġsh ow
IG H
" \\
SER VED
op ts
ĠV al
H ost
*/ ;\
Ġm ater
AT CH
ec ess
R GB
ĠT K
to ol
Ġm on
ĠA XIS
ĠEX PRE
d ist
ĠA UT
l ace
cs i
F unction
B I
R ST
no tify
D D
end or
I ME
ĠD ata
ch o
n i
cre ment
1 16
p orts
ef t
alet te
cript ion
T he
Ġg imp
ĠC l
Ġmac ro
pre ss
IS ING
Ġa ction
pol l
Ġsock addr
WA IT
f ifo
s nd
col umn
ĠAR R
te ms
p are
ss id
pr i
ide nt
file s
ad c
Ġk now
ax is
ĠP ORT
Con trol
V R
H OST
Ġa void
I ter
te p
Ġ! (
ĠPRO VIDE
Ġfr ag
IST ER
ĠS ER
Ġd ma
Ġmo ve
eth od
sc si
Ġg ot
Ġk ernel
AP P
nc mp
o in
Ġo w
I CT
EN SION
~ ~
ex ception
p op
c ipher
abs olute
AR CH
B IO
Ġg int
P IN
nt ax
De bug
ĠA n
L ink
mp eg
x ed
5 12
Ġc ell
e ver
a uto
Ġch anged
Out put
comple te
Ġblock s
Ġd i
Ġ5 6
Ġinst ance
Ġn ull
IP S
U ser
Ġt cg
resh old
ca iro
t is
ĠSH ALL
ĠP er
net dev
Ġ5 0
W M
Ġli ke
ĠO MX
PAR AMETER
)-> _
ĠPROVIDE D
ĠARR AY
SY M
PO W
ĠR X
T his
o i
LE TE
H z
n out
del ta
UNK NOWN
Ġr tx
p ull
b lob
L evel
Ġf in
Ġtrans fer
if ied
IN PUT
6 00
al in
se ns
cur ity
) :\
O n
n m
d h
SP ACE
t im
ĠS EM
Ġter min
" ))\
Ġp thread
Ġvariable s
MA ND
Ġr ate
Ġcon f
M utex
w rap
PRINT F
ĠGL ubyte
st a
Ġv is
p attern
b reak
Ġmach ine
b t
Z ERO
In st
ĠM EM
e qual
ĠNum ber
Ġ" .
iv ers
row s
c red
Ġbe low
io s
CHAN NEL
2 13
ĠSt at
an y
war ning
G roup
Ġd c
PO S
xF E
ĠM ake
DE NT
REL ATIVE
in ux
p on
Ġf unc
int s
me d
B D
Ġqu ery
d w
Ġst ep
x FFFF
TRIBUT ORS
m ult
xe e
ILE D
gor ith
Ġne ver
GRO UP
t ctx
H AVE
Ġse q
_ (
f inal
< =
p an
ĠCON TRIBUTORS
j or
ĠLI ABLE
Ġse ssion
ĠWHE THER
ĠE rror
25 0
ĠE nd
Ġmater ials
ĠAR ISING
ache d
Ġpas sed
Ġ6 0
Ġse quence
P oint
ĠO ut
pa ir
24 5
t F
Ġle ast
enable d
ĠAC PI
ex pected
xx x
e q
n one
tc md
Ġex pected
Ġstate ment
ut down
SI B
F G
Val id
C G
Ġs z
---------------- --------
ap s
D elete
ior ity
ib rary
ĠA SSERT
G IN
Ġinit ial
B N
Ġc nt
xb a
EV P
r ule
Ġ2 9
**************************************************************** ****
2 16
R S
================================================================ ========
Ġsm all
Ġe p
ĠS IG
G X
ecess ary
ĠH OW
F ield
247 53
Ġc b
Ġc leanup
Ġ* _
AN Y
f amily
Ġhap pen
2 17
R ANGE
r u
Y Y
Ġinit ialize
[ -
RES ULT
Ġn ormal
ĠOP EN
Ġinst ead
val s
Ġass ume
ĠS D
Ġmodif ication
to s
Ġbase d
000 1
FI L
H DR
Ġd g
d v
Ġed ge
t ip
Ġst ill
main ing
Ġtrans action
z ip
ch anged
int r
Ġstore d
Ġ ERROR
11 11
ac y
st yle
10 9
ĠB O
ĠA rray
Ġp ages
re mote
ĠCON TRACT
11 2
ME DI
HAS H
tp ar
ĠB US
us pend
se cond
Ġp p
CO PY
ĠT REE
P ixel
Ġ endif
FI LL
il er
Ġ10 24
Ġw r
DO WN
se mb
N EXT
ĠS u
P F
al pha
PL Y
TL S
map ping
s mb
ĠC HE
EX IT
x or
g lyph
l v
atom ic
F LOAT
Ġp t
Ġf mt
C LI
ĠC al
( \'
IS C
of t
CO MM
P LAY
, $
Ġ0 0
ĠEn able
CON NE
t temp
Q ue
n ormal
SI D
iz ation
MA G
H LBL
Ġ keep
AR M
SA MPLE
re port
n G
Ġcr ypto
E Q
Ġen ough
ĠM B
Ġsh ared
f alse
Ġc c
bo se
PRO M
C opy
En able
10 24
OM IT
MA N
TI FF
Ġe mit
2 23
U ST
p n
Ġwith in
ho ok
*/ (
Ġa udio
ĠB ASE
Ġde pth
Ġdel ta
qu ency
Ġh dr
.. /
//////// ////////
Ġo k
] ));\
TIM ER
ĠCHE CK
ĠS L
UD IO
T ING
Ġneed s
Al loc
25 2
WI SE
irm ware
CT OR
Ġst alin
n unsigned
Ġh ardware
nd er
W idget
11 4
ĠC Y
Ġst andard
UB LE
Ġp g
ĠS V
V OID
io c
L eft
SE LE
Ġap pro
b egin
ĠDIS CLA
in o
con s
t priv
B ool
Th read
Ġ( \
in line
put s
irq restore
ct ure
2 10
ĠI EEE
Ġstr ide
ĠT est
ĠWh en
ĠC ode
I A
T erm
e ach
g ine
AN CE
arg ument
Ġ er
per t
Ġcycle s
act er
g mt
U pdate
xd f
m ix
Ġdis sect
tl s
Ġcharact ers
POW ER
s am
Ġassoci ated
Ġre sponse
ĠEXPRE SS
Con nect
ĠM IN
qu ant
n module
cul ate
U Int
DO W
Ġv ideo
Ġop val
ĠC GEN
Ġex pr
ĠW M
ĠP C
mo ved
] \\
de s
tn dr
Ġ# #
Ġover flow
p S
frame s
en coding
re sp
Ġde lete
bu iltin
Ġmultip le
s ort
g db
PA SS
ĠĠĠĠĠĠĠĠĠĠĠĠĠĠĠĠĠĠĠĠĠĠĠĠĠĠĠĠĠĠĠĠĠĠĠĠĠĠĠĠĠĠĠĠĠĠĠĠĠĠĠĠĠĠĠĠĠĠĠĠĠĠĠĠ ĠĠĠĠĠĠ
D CT
a u
Ġ UTF
N ORM
CO D
Ġm utex
ĠOpen SSL
Ġenable d
(& (
im al
CON D
L ast
a cl
mat rix
12 7
b n
U MP
BUS Y
m x
AC CESS
t db
tr ibut
Ġset ting
Ġcontent s
r f
std out
22 7
Ġdo main
Ġex tract
ĠF UN
r ic
mp i
xff ffffff
Ġcall er
[ %
un s
. ");\
c ert
Ġex cept
r w
fr a
-+-+ -+-+
ĠA LL
Proc Address
ĠM em
1 99
Ġre ferenced
Ġ) ,\
ĠFA IL
T ree
EX PR
Ġseg ment
A E
unk nown
M ethod
10 4
sh ared
** *\
Ġa st
ĠO ther
re spon
l k
n se
ĠĠĠĠĠĠĠĠĠĠĠĠĠĠĠĠĠĠĠĠĠĠĠĠĠĠĠĠĠĠĠĠ ĠĠĠĠĠ
offset s
n n
Ġre source
attr s
ĠOTHER WISE
MP TY
ct r
y s
h ing
Des c
Ġt ak
r pc
ĠA M
cl ip
U I
RO W
Ġuse s
sample s
r iver
sa fe
Ġ3 5
r i
X P
Ġorig inal
*/= /*
Ġs imple
ul ong
Ġen coding
g ing
in f
Sc an
Ġ3 4
TIME OUT
Ġsv n
xf s
Ġn ecessary
ĠT ORT
ic ient
sp tr
Ġap plication
Ġ3 3
ĠSPE CIAL
Ġre present
Ġm b
C LO
AT URE
a ux
ter min
Ġmp i
z one
l per
ta ct
ĠN ame
Ġm s
am ma
um ns
L T
INC REF
i str
ma il
10 2
text ure
Ġme t
VIDE O
un g
y g
n f
SEQUEN TIAL
10 8
Ġn r
ĠTO DO
pl us
_ ("
pixel s
Ġfl ash
Pro cess
de p
ST ORE
Ġ3 6
" );
ER S
Ġj ournal
V iew
b g
ADD RESS
Ġy et
S V
ĠAUT H
pon se
event s
Ġpro c
nd o
tain er
G C
ĠN EG
ĠH W
ĠP AGE
Ġrout ines
s witch
inter p
Ġ 80
Ġbo ard
n ote
A IN
Ġw pa
Ġbl k
h r
ĠE FI
re ce
pert ies
C NT
set tings
Ex ten
D el
INE T
Ġs size
ĠB u
Ġa ck
Ġalloc ation
ĠS EC
SET TING
Ġreg s
UE ST
x t
{ "\
tect ed
Ġcre ated
mem ber
iz es
ĠT o
Ġad ded
error s
t DBG
v a
Ġare a
Ġ1 32
E VER
ĠN ot
15 2
S ign
LE D
Ġ) ;
Ġs im
Ġs mb
ed ge
ĠB U
Ġf all
ud p
INT ERNAL
DE D
ĠThe re
Ġp kt
Ġt vb
Ġa pr
Col umn
1 32
gorith m
VAL ID
> \\
AC PI
Ġg char
STAT IC
Ġi x
ST K
20 4
Read er
SP I
Par ameter
OUT PUT
H IGH
Ġd uring
U ID
Par ams
S eg
f v
g id
*) "
Ġp id
F lag
iz er
ĠPH Y
Ġn b
Ġpre sent
el if
LOB AL
Ġtable s
& &
Ġde lay
ĠU ART
Ġ loc
Ġman y
Dis play
ip h
Ġan other
Ġerror s
ic ro
ex pression
Ġbeg in
ĠC MD
= -
c rc
23 0
U ART
ĠG O
3 90
2 32
10 5
u art
ĠD O
tret val
ĠĠĠĠĠĠĠĠĠĠĠĠĠĠĠĠĠĠĠĠĠĠĠĠĠĠĠĠĠĠĠĠ ĠĠĠĠĠĠ
ĠIN DIRECT
Get ProcAddress
D raw
Ġcall s
ĠB IT
ĠR A
ĠM NG
ĠU se
over flow
at ter
ĠS tr
35 9
pe ar
Ġp in
Ġt s
Ġp m
l ic
L P
ST D
Ġp j
V END
c am
ĠP ointer
n E
ist ory
Ġs ort
Ġinclude s
16 0
Ġt cp
, __
IL D
ag ma
22 1
I DE
ĠB N
our ces
22 2
C lient
RIP TION
Ġsuccess ful
Ġn l
/\ '
Ġax is
F ITS
FI FO
mp t
L F
Ġde sc
ĠP OS
Ġbe st
Ġpar ams
Ġder ived
Ġmax imum
r rc
ST IT
INT EGER
COM MAND
N I
W idth
f h
p ts
24 8
clu ding
un register
Ġg u
con vert
Ġ location
tw rit
asy nc
ĠDI RECT
23 1
m td
Ġ" ",
REG ISTER
tp ut
ĠCON SEQUENTIAL
Ġ ic
Ġper mitted
Ġun it
G S
DI V
to ffset
Ex p
ĠFIX ME
Re lease
ĠTr ue
STIT UTE
xa f
Ġre port
Ġf ts
proto col
Ġreg ion
str ict
ĠStat us
c v
low er
Ġ* =
M R
l ap
C lose
Ġen code
t ick
if ace
Ġi b
le t
C Y
ĠPy Tuple
t add
Ġint errupts
c hed
Ġd ump
an ts
writ ten
01 00
I VER
ĠPRO C
Ġdef init
Ġsc al
z z
ĠPRO FITS
Ġsn printf
FLA SH
Ġr aw
ĠLO SS
00 2
(! __
ĠRE SERVED
) ",\
trans fer
Ġse m
Ġcurrent ly
IT ION
Ġcomple te
V OL
ff f
4 000
B SD
B its
FIL TER
N ot
Ġ eth
sa mp
m f
g ed
I f
p Pager
t ile
U A
MA IN
R el
si mple
read er
Ġt ypes
Ġs peed
Lo c
Ġm ost
ĠD ef
he ll
WID TH
ĠA d
1 77
str ncmp
co st
ĠO K
war n
comp at
word s
__ \
WIN DOW
t H
Ġd id
t exit
iv es
F IN
ĠS h
GEN CE
G ener
Ġfor ms
k rb
Ġh andl
LI GENCE
Call back
V ersion
ĠO p
AT OR
f re
*)( /*
em it
Ġr ule
Ġdest ination
Ġcur r
ts p
ĠNEG LIGENCE
d ay
x ac
/ ************************************************************************
AUT O
Que ue
FFFFFFFF uLL
e re
20 2
SI C
irq save
ĠS PI
d ialog
W OR
pl it
Ġnot hing
ĠSER VICE
ĠReg ister
Ġ:: =
tB IO
l icense
S pace
T V
Ġt m
ur pose
pre c
Ġ ut
A ction
LO T
BO OL
GOT REF
ON T
open ssl
Ġpl ace
T OK
11 5
Ġ*/ ,\
Ġtr ace
he ap
ol l
Ġstr cmp
ĠCon fig
RE NT
ip v
AA AA
t debug
ĠTI FF
E B
Ġ3 7
fe ature
VEND OR
Ġtr ack
Ġg lyph
Ġv m
ĠTR ACE
REQ UEST
vol ume
lo ts
Ġav io
! !
DIS ABLE
Ġstr cpy
ĠC ur
Ġse nt
w s
/ %
ĠSU CH
ĠO r
Ġf ont
14 7
LIM IT
at ely
io v
3 86
g oto
ĠF ind
Ġmultip ly
Ġcon troller
Ġdr m
ta st
A nd
f etch
ST OP
DO UBLE
2 12
22 6
un map
T imer
Ġch ain
t arg
SIB ILITY
sof tc
al g
Ġon ce
Ġrequest ed
Ġ\\" %
un i
t itle
t E
Ġab s
D Y
36 0
3 84
g ain
Ġd p
Ġbit map
Ġact ually
Ġr v
Ġter m
Ġde s
R ate
Ġsc ale
h l
Ġp ending
ĠSt art
Ġproto col
1 80
H dr
ic ast
k ind
Ġav ctx
pB t
s q
Ġro und
ts printf
Ġp attern
Ġp y
ab uf
1 0000
o o
? ?
C an
g es
23 4
Ġo map
ĠI X
MA J
d k
SELE CT
char s
INT R
Ġ6 3
for ce
ĠC C
fin ish
comp are
iter ator
var s
ĠF I
int f
n ic
S end
Reg ister
x ad
g round
Ġ1 29
MP I
O s
iter al
. %
L K
xc f
f name
nc py
Ġv ia
() .\
CONT EXT
Ġco re
Ġ4 6
VER T
pol icy
comp onent
ĠCo mm
U C
im ary
H D
R AM
w pa
m agic
Tr ace
Ġn s
Ġl ines
Ġdis k
iff ies
ializ ed
Re q
ĠP lace
Ġsc reen
D est
ĠT ARGET
Ġmode l
if s
t ex
Ġh al
Ġdr aw
A s
twrit el
i eee
FA ILED
Ġwh o
ĠRedistribut ion
T ag
Ġ 99
Ġ3 30
descript or
Ġcomp onent
IO C
l t
Ġr ad
Ġcl k
l ight
St ack
Ġmap ping
x de
20 6
R UN
P G
scr ib
}[ $
ĠOther wise
i op
Ġvir tual
Res ponse
x ab
I Z
VE C
tp tr
ul ator
ĠN ow
Rec ord
******************************** ****************
tad ata
qu i
Re set
BL K
ĠLO G
ne ed
2 15
n u
res ume
Ġf inal
cript or
( );
v f
sing le
S pec
pl an
13 07
IT CH
ĠF ile
ĠA PI
p ayload
AB S
n ess
Ġi i
B tree
Ġq emu
20 7
Ġre ason
MAJ OR
ĠDes cription
Ġsign ed
T ON
Ġact ual
Ġl d
ĠF S
multip ly
content s
ĠF ROM
p ub
Ġelement s
o ice
ĠP T
ust om
U V
al low
if ier
Ġp Parse
EN V
l ash
Ġe ffect
Ġad apter
B T
Ġ>> =
Ġv p
D ATE
it ive
en coder
Ġlo okup
St mt
Ġi den
drv data
ĠF alse
res ses
Lo ad
Ġwe re
Ġc s
fl ate
O per
ĠSu ite
pass word
Ġ2 000
Ġc ause
Ġthe ir
ver ify
ĠC all
Ġbu ff
Ġs imp
t ic
B IG
BE GIN
Ġwrit ing
Ġm v
ĠN UM
lay out
NORM AL
qu ot
ste ms
Ġre pro
t at
7 00
) /*:
Ġs aved
ĠP O
Ġ[ %
Ġbo ot
M ULTI
6 000
", -
inter val
x ce
Ġser ial
URE MENT
ĠSI ZE
Ġap pear
", "
Ġa pp
== =\
Ġfl ush
Ġneg ative
ss ages
\' \'
ure d
Ġread ing
se ss
ĠEX T
l xml
p V
Ġch anges
f ast
k ip
Ġ archive
br idge
Ġb ig
ĠGO OD
S Z
g s
ĠW ORD
ĠM D
pl l
ĠP TR
X T
ct ype
Ġpe er
ĠM V
ĠP J
R N
MAG IC
me ta
E W
ĠC opy
ĠAl locate
H AL
20 1
he lp
t cl
Ġser vice
ĠOPEN SSL
Ġd up
Int ernal
AC C
pro xy
DR AM
Ġcor respon
F ind
ul ate
m er
ĠL OC
t num
J O
Ġp Tab
x db
s fmt
Vdbe Add
Ġxml Char
temp late
th on
sub stream
in et
ul k
Ġ4 5
ĠEx pr
den try
23 6
per iod
co okie
ML S
Init Struct
ĠSTR ICT
at tach
RE SP
ĠI B
xa e
v r
ath er
BO X
v fs
Ġpoint ers
he x
Ġcon s
CONNE CT
Ġre ally
r dev
/* ------------------------------------------------------------------------
CODE C
div ide
ro ute
ĠG C
Ser vice
ST A
g t
Ġin s
Ġe qual
ĠĠĠĠĠĠĠĠĠĠĠĠĠĠĠĠĠĠĠĠĠĠĠĠĠĠĠĠĠĠĠĠ ĠĠĠĠĠĠĠĠĠ
ĠM od
p W
A ct
h cd
Ġde term
ĠL IB
ĠA RE
M in
ĠO S
Ġm id
d ynamic
IME D
al ias
h id
VdbeAdd Op
IPH ER
Def ault
QU I
r tl
Ġ** )
F ULL
E nc
ct et
net work
t addr
ID X
Ġ\' /\'
Ġj ob
Ġex ception
20 3
p or
i us
ĠE TH
ĠEV EN
py buffer
YP TO
O LE
sp f
REG S
p data
ĠTHE ORY
te red
24 4
CLE AR
e ap
en crypt
t usb
d x
Ġ(* (
MB ER
ĠINT ERRUP
E IO
VI SED
d ummy
r and
ĠG TK
pro file
Ġr a
U int
Ġad just
Ġrepro duce
mm u
im g
13 01
ate g
SR MLS
Ġcop ies
ĠAD VISED
ĠSERVICE S
AT ED
Ġw rap
Ġfix ed
( ("
w here
SC AN
20 5
Ġprocess ing
Ġm aster
re ference
ĠL W
23 5
DIP SETTING
medi ate
Ġres ol
b ank
n printf
21 10
comm ent
Ġp ad
Ġup d
cl us
Ġc fg
Ġw arning
Ġo v
CI DENT
Ġb p
ĠT T
ĠPOS SIBILITY
Ġbuffer s
CIDENT AL
t log
Ġl arge
sh a
ĠThe se
e ce
ĠG tk
l b
ĠEX E
ct p
Ġch an
ĠM S
case cmp
ID I
R ange
ĠIN CIDENTAL
t key
dir ty
C lear
C tx
ĠF rank
now led
SE S
G ER
ĠGOOD S
INE SS
if th
ĠS e
2 14
R et
ĠRe set
ENO DEV
Ġframe s
p Data
ĠPROC UREMENT
M V
C trl
ar ation
t INVALC
ĠG IMP
ĠW AY
ĠC lear
Ġind ic
Ġst rerror
C fg
ĠST AT
ĠP PC
M ON
SC II
ĠTe mple
11 7
Ġ ));\
tx ml
Ġun known
Ġ" (
ĠHOW EVER
( ))\
Qu ery
op aque
seg ment
Ġp ipe
res ources
o me
Ġper form
211 1
Ġ200 2
TI F
PO INTER
32 0
ĠT able
tre q
24 6
ĠCA USED
PR I
g no
De stroy
leg al
13 0
ab ort
) */\
MPL ARY
ĠDB G
Ġ1 58
i ant
P LL
B ack
REG ION
ess ion
26 0
ĠN e
ĠN C
ĠEXE MPLARY
ĠP A
F ROM
Ġ(( *
CL U
ĠBUS INESS
R SA
12 4
R R
Ġf b
Ġd ynamic
ĠA DC
Ġvol atile
ĠSUB STITUTE
bu cket
ĠP K
P END
valid ate
() .
Ġrun ning
F W
Ġb asic
t msg
xc b
M alloc
S iS
sp in
t ms
xd c
ĠDISCLA IMED
ad ow
Ġn p
p A
to re
F loat
| |
R ight
n err
Ġsample s
pr agma
F ont
ist ics
M et
25 3
k w
16 4
n try
ĠH T
Con tent
sv c
ĠPro ject
co very
PA CK
] +
E RE
Ġpr ivate
ĠH andle
so und
ac cept
C ap
Inter face
Ġ0 2111
ĠC or
Ġin v
sr v
Ġc d
l ush
Ġdev ices
I o
S ource
st orage
ĠT ype
tsk b
ĠD ev
00 3
d yn
Ġa db
Ġa cpi
Ġe ap
k s
ar c
)( -
R ect
struct ure
ac pi
up per
bo ok
24 2
ĠINTERRUP TION
Ġow n
% \
ĠFrank lin
D ONE
Ġselect ed
or ary
Ġse par
end ian
en sions
MALL OC
ĠW R
G INE
l ang
Ġf n
D N
Ġg db
xf er
lo sure
Ġstr m
Ġj ump
Ġal pha
pro gram
ib ility
add ing
Ġ5 4
R n
trans form
ur ces
N ON
DE LAY
R eturn
ELE M
Ġnet work
ann er
t as
J IT
24 1
ĠF irst
G lobal
f actor
Ġ4 4
Ġ --------------------------------
C nt
Ġp op
t ap
Ġ" ../
pe at
IN S
ĠF loor
9 15
E FAULT
Ġfor ce
pro gress
A uth
17 0
w b
---------------------------------------------------------------- ------
ĠF ifth
ĠEx it
b le
Ġle ss
AN E
gn u
ĠRT C
] ))
Ġ READ
Ġen c
l ain
j ournal
Print f
[ \\"
ern et
dev ices
y m
QU AL
ĠT CP
or ld
f m
MEDI A
CALL BACK
Ġcomm on
ic ally
S OR
Ġt ake
! \
CHAN GE
Ġt ty
c y
Ġm enu
ĠR em
Ġ0 2110
j ava
ĠĠĠĠĠĠĠĠĠĠĠĠĠĠĠĠĠĠĠĠĠĠĠĠĠĠĠĠĠĠĠĠ ĠĠĠĠĠĠĠĠ
I LL
b m
Ġth ose
ĠG LE
ant ed
Ġpo st
m ulti
ĠH FILL
io mem
], ${
id le
QUE UE
dig it
RE EN
ĠD R
me tr
f aces
ĠL ibrary
d y
w ind
23 7
Ġh ton
Ġg boolean
ser v
10 7
of s
Ġd ummy
ĠT SRMLS
o ck
rit er
r untime
Ġl ayer
ST ER
T ex
Col l
26 3
Ġres ults
Ġsect or
cr ypto
man ager
ĠP ort
Ġle t
Ġ** \
k ill
00 4
ver bose
Ġappro pri
Ġgener ate
GEN ER
t ch
cr yp
m gr
ĠĠĠĠĠĠĠĠĠĠĠĠĠĠĠĠĠĠĠĠĠĠĠĠĠĠĠĠĠĠĠĠ ĠĠĠĠĠĠĠĠĠĠĠ
de coder
ĠRE T
Ġsc hed
BL ANK
ĠCOPY RIGHT
Ġconst ant
SS AGE
Ġ` `
10 6
Ġmat rix
l im
s pr
Ġg uint
Ġ200 7
Ġ ath
Ġ? \
Ġre mote
ĠV ersion
Ġbo x
k i
A X
z alloc
ĠM T
EX EC
Inst ance
string s
Ġpro p
pi cture
Ġlow er
v as
t FLAG
SCAL AR
J S
net if
C AN
UT EX
Ġd iff
Ġopt im
Ch ange
FLA C
ist s
Ġass ign
sy n
f printf
Ġallow ed
d ot
ix ed
method s
ĠN ew
r tc
m sp
it es
n an
ĠG F
mm c
z Name
Ġdisable d
vol atile
GL ee
23 3
Ġ END
Ġnet dev
ferenc es
Ġm a
am l
? \
Ġde le
T CP
ĠSN DRV
Ġ200 1
Ġ\' -
Pro perty
t init
sc all
Ġ4 2
Ġsup er
Ġ5 3
dis p
ot ion
Ġre moved
S QL
Ġcomp ress
af ter
tp os
Ġsc si
Ġobject s
ĠU pdate
\' \
Ġax util
Y PT
ĠP M
O VER
str m
R W
er tif
s uspend
Ġpro perty
LE FT
. _
PH A
ts h
S ample
w ire
DI M
Ġcall ing
ĠOut put
Ġ16 1
aff s
res er
Ġat temp
child ren
sl ice
xc a
Ġcomp ute
Ġet c
64 4
ac ed
24 3
MO VE
Ġ200 3
Sy stem
Ġ5 7
Ġr tl
M G
if i
SER VER
P ower
IN LINE
tg l
ab ly
Ġw ell
ĠVal ue
v ision
Ġt urn
Ġ3 9
fd s
ix core
c q
IN V
a ud
b ss
R x
ĠFF mpeg
in v
ENT ER
ts oft
AT T
ĠB IO
par m
Ġsy nc
Ġp ush
ar is
SI M
n el
Ġp Expr
Ġre ply
ĠIn put
Ġm ade
tif ication
Ġcon tribut
1 40
struct or
B UT
x dr
ut ed
alloc ate
IN ED
C SR
G LOBAL
l g
10 3
Ġf low
13 4
Ġinitializ ed
e h
P art
tstr cpy
arr ier
un ts
Ġ^ =
Ġ200 5
M enu
ĠSQL ite
sup er
ĠD et
Ġ200 6
mt ab
xc d
ar p
comm it
W L
] ),
Ġ7 9
C MP
M at
Ġ5 2
Ġpro ject
Ġchannel s
info s
A UDIO
co ff
Ġs b
ĠAR M
ĠA uth
E qual
Ser ver
Ġr ing
] ==
Ġc x
Ġac cept
Ġn fs
X Path
ist ered
v ance
n it
25 7
C IPHER
co ord
Lo cal
__ ((
Ġ5 12
P ointer
ta ined
E F
11 3
P ol
Ġcontain ing
PA CKET
ĠIn dex
ff ix
Ġat oi
ĠC K
Ġis n
Ġcon version
orig in
Ġt c
S ave
00 7
Co ord
mem cpy
ĠP L
Ġre st
rc v
L imit
ĠEx p
ĠS K
so ap
m k
Ġphy s
Ġcomp at
Ġinclude d
t buffer
ST EM
s im
E AP
D ict
A udio
ĠPar se
ĠS ize
t RT
ol ume
Ġs ide
A ll
15 0
t print
TE MP
pr iority
32 7
gr p
Ġ arch
: ;\
Ġg pio
SC SI
Ġp ublic
sp lit
Ġ% \
Ġ9 7
l ass
cryp tsoft
++ ;
back end
Ġ4 7
Ġcase s
Ġexist s
Ġat om
s low
t BUG
is c
D at
j ump
Ġrece ive
v i
w ap
* );\
fr ont
AD C
Ġpacket s
Ġf t
g d
Ġ2 29
Ġp Pager
Ġ= >
ĠPy Err
Ġus age
ORD ER
-- )
RE V
Ġd s
BYTE S
init ialize
em on
U p
ro ma
UL ONG
ir on
r n
Ent ity
Ġw p
val u
Ġm ak
= "
do g
ord ing
ĠM ASK
SE ND
xd a
v endor
SCAL E
{ (
if ication
p thread
14 4
Ch ild
Sy nc
Do main
en s
04 8
pC tx
tl ong
Ġ20 10
Attr ib
Ġext ernal
ĠAD D
t value
ĠR C
G LO
UN LOCK
r andom
#### ####
Ġb ind
t PH
ENABLE D
sn printf
at io
init y
lock ed
ĠE ric
IF Y
J UMP
s aved
Ġc mp
mov q
Ġp W
Ġ8 7
Ġ200 8
Ġstart ing
Ġs cr
Ġv iew
glew GetProcAddress
EN UM
Ġnode s
LO OP
Ġevent s
Ġ3 8
Ġo c
Ġn d
CLI ENT
e ck
aa aa
bl ue
ĠL D
FE ATURE
pro ps
ĠPRO P
attr ibutes
SC R
== \
ER Y
ce ed
Ġv an
ist ent
w p
exp and
char set
DE S
Ġex ample
Ġ2 31
D AT
Ġ\' .
Ġset s
xB F
ho me
ĠB T
Ġ" <
ac ity
pro g
*/ )),
WOR K
dr ive
Ġ6 5
25 1
err ide
NU MBER
g reen
u do
Ġu i
ĠS end
Ġp ers
h old
Ġ* ((
P AD
con v
un used
P KEY
Sh ort
A ss
Ġhandl ing
G F
Ġauth or
w atch
ĠS E
align ed
Ġdistribut e
Ġ200 4
mem cmp
Re port
sens or
N L
Ġup per
st andard
ĠB it
Ġvol ume
Ġattr ibutes
H CI
Ġstring s
SH ORT
GR AM
ee prom
Ġ(_ ("
t count
He ight
we ak
n il
ĠS MB
Ex t
Ġsymbol s
Ġob tain
FI RST
ĠA ss
ĠTr ans
V ector
P PC
Ġcl ause
Pro gram
i ction
pl ugin
++ );\
Ġmodif ied
ĠL oc
ent ity
FOR M
z e
Ġt ab
Ex ception
ĠA P
t max
n ump
te ction
Ġany thing
W in
b at
0 12
ss i
te vent
ĠM ode
F irst
RT C
Ġack nowled
rad io
SI X
Ġp B
s upported
o ung
X DECREF
14 5
Ġr pc
PD F
ĠW indow
ĠDis able
Ġ 77
FFFF FF
Ġp lay
Ġ4 9
pre pare
tb ool
, ("
ng x
n PFNGL
Ġc rc
Ġcode c
ĠD on
se udo
fe atures
ĠIP T
14 6
ad ap
ĠOP T
Ġcond ition
sh utdown
ht ml
************************************************************************ */\
16 8
Open SSL
Ġ4 3
pre d
n xml
ee p
de pen
Ġ{ (
Ġn or
Ġn to
Ġappropri ate
un ist
ĠFR AME
c ent
il ities
BUT TON
ĠM ax
n P
13 6
M ulti
Ġas n
p at
ĠN et
S lot
ĠN GX
con troller
tg tk
ĠNO TE
v l
W ait
M an
tu delay
n L
p x
Ġb and
-- -
H Z
co ver
r y
m u
t SET
Ġsome thing
he lper
SE Q
Ġpro per
Ġd w
Ġwr ong
c u
tr ansport
Ġl arg
ĠEV P
Ġpa ir
N R
EE K
Ġtr igger
27 0
Ġpixel s
ĠD W
Ġc lean
UN IT
D H
8 99
Ġs i
S CHE
Component Private
ed it
QU ERY
Ġme ssages
3 99
** *
Ġ32 4
alloc ated
u char
Ġr d
nd x
DI AN
ĠĠĠĠĠĠĠĠĠĠĠĠĠĠĠĠĠĠĠĠĠĠĠĠĠĠĠĠĠĠĠĠ ĠĠĠĠĠĠĠĠĠĠ
or b
cur s
Co uld
eff ect
SIGN ED
treg ister
G T
mo use
qui res
S ING
OPEN SSL
k control
xE E
F LD
Ġsa fe
ON ENT
PAR M
con tainer
dr m
US R
ST EP
AUTH OR
DE P
EN C
ĠP a
str casecmp
if p
ĠA S
ĠT ime
chr on
BE L
nt o
me s
tr t
OLE AN
B o
wh ich
CH ED
cl ist
clu ster
c id
Ġcode s
se qu
ece re
ĠC OL
unist d
R I
ĠFR V
ĠW IN
tp ort
Ġoffset of
ĠT CL
pl t
ĠP I
Ġt v
Ġr andom
SCALAR S
C U
tr fs
is a
ma jor
Ġdeterm ine
Ġre ct
C N
Ġst uff
p P
) ");\
ĠN ET
Ġ5 8
Ġpro ces
UN I
11 8
SE G
ME SSAGE
Ġap ply
Ġa fs
is ing
Des criptor
Un known
ĠE AP
15 4
An Unprefixed
en gth
Ġhe ap
Ġp i
v sp
ĠLW IP
R ed
Ġ5 5
cap s
ertif icate
t device
Ġin cluding
P N
igh b
c ast
to col
Ġ200 9
ĠV M
mp l
xA A
Ġinitializ ation
M UTEX
c w
Ġ- \
EXT ENSION
= \'
RO P
tl v
ipher al
t name
Ġ32 2
X Y
J ECT
ĠT MP
H S
ar ts
Ġex pect
t SSL
t ol
ĠS A
ĠAV ERROR
I MAGE
Ġsub ject
D AC
UB LIC
operand s
F LOW
un ref
ind irect
ĠC S
w ake
tS DL
ĠS P
LA ST
Ġbut ton
L ER
) ]
Ġexist ing
Ġtest case
A ppend
ĠOn ly
Ġdirect ly
av ing
p alette
Ġin crement
p Expr
] ]
ad just
*) &
writ el
Ġre maining
direct ory
buffer s
co eff
VI RT
ext ent
ĠY oung
res erved
TE CT
Code c
m erge
s cope
t fs
sl ave
M IX
Ġrow s
ap d
use c
Ġtime s
ĠD C
ĠC n
O ff
Ġnot e
SI S
5 50
Ġco eff
Ġgo od
at ype
k p
descript ion
ĠH ow
Ġre location
Set up
Ġ INVALID
ĠK ey
3 10
33 33
9 00
p Tab
Ġb b
LIC ENSE
ĠDE FAULT
=- =-
W D
V T
g tk
P NG
Ġr s
Ġ ),
leg acy
| \
E d
Ġ6 8
Ġcomp lain
H O
Ġsw ap
r sa
96 0
d ns
Ġ(" %
Ġs sl
ĠAUTH OR
F AT
t tx
ase t
ĠO B
util s
pro b
er ic
st and
Se q
_ )\
x AC
td ma
tP IN
I RO
vo ke
n op
t get
ĠE LF
ĠBu ffer
Ġc are
D river
h ave
F ts
w q
Ġoper ations
ĠPro cess
mm ap
Ġf uns
Ġpre c
Ġgener ated
cs r
ĠC OM
ro ss
Ġi desc
Ġfuns io
12 6
Ġm ult
lo ok
t or
PO LL
Ġ& \
Ġb ot
sd p
table s
le ave
ĠA nd
G tk
Ġex act
____ ____
CA SE
DEF INE
CON N
ĠT x
Ġun used
PK CS
ĠE OF
In formation
xF C
.... ....
ĠM ay
Ġt alloc
ext ernal
LA BEL
n S
TR I
t il
GOT O
ĠS ub
Ġw m
license s
' #
li ct
Ġ/ *************************************************************************/\
INT ERRUP
SY STEM
Ġcorrespon ding
td st
Ġr l
Ġ ------------------------------------------------------------------------
ĠL og
dis patch
Ġproduct s
Ġre store
Ġkey s
) ?
Ġco mb
Ġcomp are
HT TP
nd is
re ason
86 0
Ġ(; ;
d irection
xB C
Ġ6 55
rg b
Ġn v
O ver
e lo
CRE ATE
AC CE
tf loat
Ġ4 1
me tadata
IL T
DI G
Ġm uch
Ġadd itional
De cl
n and
15 6
con sole
g imp
) },\
iv ely
dr am
ĠCO MP
= \\"
ĠT AG
SI VE
or se
Ġoper ator
Ġa i
ĠDev ice
r sp
Ġit self
EN DIAN
DEF INED
Ġ9 6
C ARD
Ġ<< =
" ;
ĠCon trol
xB D
Ġs al
n at
tw o
Opt ion
head ers
ĠW ait
] *
par ameters
clus ive
Ġin flate
Ġread y
Ġu v
ĠB AD
R U
L e
Ġ1 27
play er
ust er
Ġ} },\
can cel
ĠF P
Ġcon straint
TOK EN
Ġex press
Ġacc ording
Ġ* */\
IP V
xB E
Ġp S
16 6
ĠP RE
ĠS tre
40 5
Ġ199 9
. ",
Ġc m
Ġext ension
Ġun ix
Ġun ion
j peg
T arget
ĠSY S
Ġwork s
pl ied
pc b
ĠCH AR
le s
tr i
* -
Or der
o unt
Ġi l
Ġstr chr
) !=
GLE W
Tr igger
Gener ic
Ġs r
iv al
sh ot
l sa
t one
@ @
Ġdefinit ion
Ġcommand s
pl ane
ĠAdd ress
Ġat t
i ally
m ath
t up
l icate
tre ad
Ġg ive
U AL
ĠC FG
xB B
T OP
de nd
en gine
CH UNK
ĠH AS
Ġm erge
IS H
t ig
LE X
C ATE
ort ure
mo st
Ġstruct ures
mis c
re alloc
L V
Ġs plit
p v
tsize of
ĠC LA
ĠFI FO
13 7
comple x
DE N
unc ate
er a
ĠR S
ay out
12 5
Ad apter
Ġa ppend
Ġpro mote
Ġ LL
Ġ ig
vert ex
ĠH OST
ĠW LAN
ĠCon vert
W ord
ĠSW IG
spec ific
ĠO MAP
Ġg re
se p
SE NT
ĠB ut
ĠMO DE
re start
Ġpack age
G ON
thread s
s age
ĠM SG
as n
Ġ6 2
j oin
t start
ĠS er
Ġgener ic
d le
Exten sion
Ġde stroy
AL PHA
W ITH
ĠS EEK
t type
f id
Ġprior ity
ĠN D
u ce
Ġword s
n id
ĠWORD INDEX
il ename
\\ ",
end er
CLO SE
ts nprintf
DR IVER
se e
ĠM ULTI
COMP ONENT
ph ase
SA FE
dig est
S PR
Ġd x
Ġcol umns
as ure
D ate
Ġmat ches
bus y
Ġ utf
m ar
par ameter
I nd
Ġ urb
n bool
pw r
ĠCO DEC
n uint
ĠStre et
C txt
ĠS elect
so urces
Ġ{ {{
const ant
sp ca
n z
r ypt
ic mp
Ġhal f
8 25
g m
as ses
S LOT
AL CON
tc lose
p info
36 7
R oot
it tle
ĠL IC
Ġent ire
Char acter
M atch
L M
x AB
Ġnum bers
ĠK IND
ĠC ALL
tout b
INTER FACE
per m
ĠUN IT
Ġtemp orary
C LOCK
E xc
Ġt im
er pc
Un icode
SPE C
n enum
RA W
ĠE E
a ults
group s
Ġc i
e of
Ġre place
Ġde al
Ġ ER
Ġc trl
Ġm td
N OP
Ġsecond s
Ġ* ****************************************************************************
Ġset tings
UP DATE
Ġco m
cr tc
ad b
99 9
R ING
2 77
th w
V C
sh are
Ġp Op
en e
E MPTY
l a
Comm on
ro py
as semb
" .
Ġs s
0 20
Ġ" :
Ġg t
TH IS
an el
INIT IAL
I W
DESC RIPTION
A CTION
ca pe
we ight
i k
Connect ion
ĠR CC
B IN
time stamp
sh ape
ĠA p
ĠC AN
/**************************************************************************** \
ĠS ince
Ġc a
Ġv ery
Ġde coder
trans action
DE ST
Ġco ord
Ġfail s
v cpu
g reg
ĠE P
re r
G IVE
writ er
Ġi dent
r up
S MB
Ġf open
} },
Ġver ify
es c
tlen eck
gdb arch
as soc
e gr
m ips
p M
Ġm x
Ch unk
VI EW
ext ension
ĠSC SI
how to
plic it
Ġcop ied
Ġdist ance
PE D
mix er
26 7
14 1
ĠP F
sof t
l ation
p itch
init ialized
Attr ibute
process or
Ġr tems
~~ ~~
L CD
Ġ7 8
ĠLIC ENSE
Ġ\' :
Ġ ENABLE
IN ST
Comp are
11 9
pol y
EN GINE
reser ve
ĠF r
C OR
Ġmem ber
OPTION AL
.. .\
pl ug
3 64
CR YPT
tB N
Ġagain st
Ġb in
M agick
Ġcontain er
cc b
tR NA
ad ata
DU MP
M IPS
DCT SIZE
26 6
Ġ* ****
" (
co ll
ĠL E
al le
ĠL ine
V ideo
Ġbr anch
Ġl anguage
f lex
Ġoperand s
Ġ1 80
part ition
m ore
STAT S
ĠI s
M F
ide n
Ġmatch ing
) "\
GIVE REF
ĠD T
f ault
x DB
ĠSo me
p ers
O ld
] ))\
n fs
di e
read l
Ġ stats
el t
-- )\
Ġn c
m ng
Ġp ayload
n return
if r
ĠM M
arr y
bot tleneck
a ut
27 6
FA ST
cap ture
ĠIN IT
Ġpart ic
ĠDE SC
big int
Bu ild
struct ions
COD ING
Ġext ern
Ġt re
Ġb ank
)) {\
par ms
db us
Ġp d
b est
Ġp C
Ġv f
le af
un ix
xA F
Ġ( --
IN UX
Ġ= ================================================================
t end
Ġp ic
Ġstr dup
tPIN MUX
D irect
Str ide
Ġf name
Ġs q
L S
o cket
ĠG imp
i w
xB A
Ġ% .
EN U
x mit
Ġ" ");\
ac ing
col s
un ion
36 6
Ġf ast
vir t
ĠCur rent
Ġd irection
ĠPr int
x AD
ĠOr ig
v en
Ġadd resses
IT ER
is p
re try
Ġxml Schema
Ġgr anted
SE M
Ġd rop
l cd
ĠInt er
TA IL
U se
Ġd m
WA Y
37 4
v d
x p
AL I
\' ,\
if orm
19 0
A W
Re al
- %
" %
tl p
Ġe lem
ĠA CTION
N ull
Ġprint k
Ġ* ************************************************************************
ĠRem ove
00 6
t al
Ġn one
mark er
Ġmark er
Un lock
H C
th reshold
tr ap
Ġde scrib
tl ast
t Z
Ġso ap
000 2
Ġi de
() :
AT OM
ĠST ATE
x mm
BO OT
st ick
Ġg c
th dr
Ġun i
A re
Ġalign ment
A t
v es
Ġs pi
Ġoccur s
Ġp k
X EXP
sn ap
R G
Ġre lative
8 0000
c ycle
Ġdescript ion
age ment
Ġ" _
Pre v
ok ed
j mp
ĠF L
Ġre quires
n eeded
0 90
ELE MENT
p Next
t seq
Ġp Data
Ġcomm ent
dis c
ĠP S
RE AL
Ġal gorithm
ĠL CD
RO OT
a fs
Ġz one
Ġ6 6
Ġpart ial
8 00000000
15 7
Ġupd ated
Ġend orse
tern al
Ġd l
__ )
ĠTr y
t flags
w alk
AM S
B LE
ad ing
local e
Ġst orage
mode s
ĠĠĠĠĠĠĠĠĠĠĠĠĠĠĠĠĠĠĠĠĠĠĠĠĠĠĠĠĠĠĠĠĠĠĠĠĠĠĠĠĠĠĠĠĠĠĠĠĠĠĠĠĠĠĠĠĠĠĠĠĠĠĠĠ ĠĠĠĠĠĠĠĠĠĠĠĠ
u ed
AT TRIBUTE
comp ressed
Ġt ile
RE SH
ĠSV N
Ġs f
ĠG E
37 6
B egin
AV A
26 1
ĠIn st
ee k
Mode l
30 7
u dev
MO V
Ġcheck ing
m ii
Ġg fc
ĠUn ivers
\' ;
ON SE
ten um
Ġcheck s
ab ilities
b w
N AM
30 5
Ġde ntry
col ors
ĠR F
mon itor
00 5
p Page
stream s
ĠM E
RO UND
Ġbegin ning
ase s
ĠS pec
se nse
ĠO pt
h z
Ġp File
ent ication
PIX EL
4 20
lines ize
P ULL
me th
ot g
t node
com ing
F alse
16 5
Un able
SO CKET
Ġe qu
Ġcomp ile
Ġc li
S urface
i ke
LI G
pd u
S ig
re place
Ġar ound
37 0
le w
sy ntax
ĠC ol
attr ib
OP C
L ot
co s
for med
ar ly
ro t
ĠFLA G
ro pp
Ġf c
ĠH D
Ġm ail
SHA RED
or ing
it ed
av g
tn v
__ )\
Ġsub st
SING LE
Ġcomp iler
Ġcl ip
Row id
Ġme ta
ĠĠĠĠĠĠĠĠĠĠĠĠĠĠĠĠĠĠĠĠĠĠĠĠĠĠĠĠĠĠĠĠ ĠĠĠĠĠĠĠĠĠĠĠĠĠĠĠ
( ~
Ġ199 8
Ġtrans mit
01 3
BO ARD
map h
tcp u
code s
Ġcheck sum
t alloc
ĠL ED
Ġsy n
Ġb ody
G NU
element s
Ġcal cul
Co unter
p ctxt
tr igger
IS O
56 7
st ub
hr ase
t IN
Ġfor ward
36 5
P ool
16 7
in i
19 5
Ġdo ing
b v
0 10
ff s
reg no
tv a
Ġj s
tin put
Ġhe lp
NO RE
12 9
run ning
ĠFUN CTION
tag s
Ġ*) ((
SCHE MA
B us
ay s
Ġs g
Ġse ns
ĠR O
AN G
t xfs
Ġt d
OP CODE
Ġr C
d ac
I EEE
on d
t local
for ms
p key
ar n
sr s
graph ic
est ed
maph ore
compress ion
t entry
er red
TI FI
ĠP IX
DE LETE
ĠS ANE
AR C
Ġa mount
Ġ* ));\
BO OLEAN
p u
ĠREG B
cor rect
H EX
ĠDE CL
m q
01 4
Ġk nown
CR C
SW AP
ĠĠĠĠĠĠĠĠĠĠĠĠĠĠĠĠĠĠĠĠĠĠĠĠĠĠĠĠĠĠĠĠĠĠĠĠĠĠĠĠĠĠĠĠĠĠĠĠĠĠĠĠĠĠĠĠĠĠĠĠĠĠĠĠ ĠĠĠĠĠĠĠĠ
DIM ENSION
iron ment
17 6
ld ap
Ġper iod
ĠC P
Ġme di
ĠL inux
Ġalign ed
ase d
time s
connect ed
ĠM ETH
al og
ĠO FF
FIX ED
" "
Py Exc
t this
UR L
26 5
s leep
AD AP
lock s
Ġhe ld
ch k
B l
ut able
tPH ALCON
x CE
Ġc def
Ġ7 0
Ġ20 11
se curity
g gle
ĠV dbe
8 50
ĠĠĠĠĠĠĠĠĠĠĠĠĠĠĠĠĠĠĠĠĠĠĠĠĠĠĠĠĠĠĠĠ ĠĠĠĠĠĠĠĠĠĠĠĠĠĠĠĠĠĠĠĠĠĠĠĠ
-- -*/\
sc b
br anch
ad r
CR YPTO
)\ '
ind er
32 4
ĠĠĠĠĠĠĠĠĠĠĠĠĠĠĠĠĠĠĠĠĠĠĠĠĠĠĠĠĠĠĠĠ ĠĠĠĠĠĠĠĠĠĠĠĠ
Ġt ick
ĠC M
ts er
40 4
00000000 0
on s
N ormal
ro adc
Ġhandle d
t next
CT P
ĠA t
ĠD AC
fail ure
30 6
M gr
ex port
ann y
Ġg f
tm od
or iz
Ġad vert
Ġp urpose
xE B
lic it
u ous
xA E
CE P
g amma
def s
ts d
ve red
ect ion
ĠR x
por ation
N s
b x
TRAN S
MI I
Ġ*/ ,/*
Ġh i
Ġw pl
Ġind icate
al en
Ġbe h
td printk
r id
de rer
Ġst yle
A cc
Ġf irmware
Ġro ute
nt l
F ace
Ġlo aded
Ġbet ter
P AL
64 0
co gn
ĠF E
S ql
o h
Ġin dent
Ġsc hema
DIS P
Ġext ent
TH ON
n C
roadc ast
c dev
ver s
ĠCor poration
Ġg cc
---- -
Ġme an
fo o
ĠLo ad
ĠSTAT US
end point
f un
RIP T
Ġg lew
Ġs urface
az y
Ġs cript
> ,
t UINT
mm io
Ġd d
os ite
17 5
in ish
Ġg e
Ġfre ed
SR V
Ġauto mat
ie ve
NO MEM
ĠWHE RE
o om
a ir
Ġar m
o map
t REG
tv ol
h int
Ġi v
CUR RENT
il t
Ġorig in
PRO P
BO SE
Ġexp and
sl ab
Ġh id
ĠN L
M IC
ĠPR INT
VE CTOR
id er
d q
Ġ" #
stat es
Vertex Attrib
ELE CT
el ist
Ġwe ak
a head
Ġ8 9
U GO
30 4
DEC LA
Ġprob lem
Ġimplement ed
ĠRE S
READ Y
y tes
SER VICE
A FF
as sign
Ġh p
A c
Ġwait ing
ĠV AR
ĠM ark
a con
init ial
load er
\' .
ĠSy stem
Ġv ers
B ig
n M
Ġ" ,\
Ġt ail
ĠV ER
Ġ" =
Ġget s
DE ON
r tp
t INIT
RESP ONSE
y ear
ts rc
Par ameters
ed ure
t file
Co mple
S ta
LE ASE
xC C
D ec
Ġp ager
le v
pro t
E xec
Int eger
> <
14 3
b inary
d rop
LA CE
ĠL ist
av es
ĠCh annel
quire d
27 5
19 4
ĠMULTI PLY
Ġh ard
r ates
ĠT CG
Ġfe atures
Ġp P
Ġre try
ir r
MA STER
SPE ED
DE L
Ġqu ot
xE C
mac ro
Ġi w
12 1
ci i
Ġpass word
Ġmis sing
14 8
Ġf actor
ĠFRAME S
ĠUnivers ity
spec ialize
he me
BU ILT
PER M
ten sa
PO OL
Ġ" [
Ġd ict
ver age
x FA
Ġle g
E K
p Src
Sh m
25 8
pan el
arg in
S MALL
Ġsimp ly
ĠP ER
id ate
cur l
in struction
ts ub
en tr
Z ero
Ġin cre
for ward
SN D
Ġignore d
V ID
RE AS
Ġ* )\
HAND LER
gl Get
nE xcelValue
Ġa section
Ġm k
section s
Ġ" "
12 34
N ING
c alloc
Ġv s
16 9
OW ER
A ST
F M
P hy
//! \
t chip
xff f
off s
Ġm ulti
Ġen sure
ĠCOPY ING
set s
vir tual
ID LE
Ġj peg
d B
ĠRes erved
Lo okup
ch roma
log y
t AM
ighb or
Ġt event
int el
Ġ ,\
32 3
18 7
er c
ĠD OT
Sy s
Ġpre vent
b pp
RO LL
ĠT ILE
nump y
19 8
Ġcomm it
ĠS TA
ĠN AME
Ġ items
Ġd ate
ip hy
cache d
Ġl db
tr x
PRO G
/ ********************************************************************
Ġ% [
v lc
us r
a o
4 50
Ġm sm
pybuffer nd
AP H
str iction
30 3
th ost
Ġth ings
13 9
Ġcompress ion
Mat rix
Ġm ips
{\ \
S tep
xE F
Ġm agic
ĠP Y
) >>
Ġtest s
D ig
Ġt un
S ession
U G
A SS
Ġ9 0
Ġd ue
Ġstd err
s ue
Ġr p
sect ors
ome try
E num
ĠInt el
u uid
Ġstd out
ĠH AL
v lan
SW IG
Ġk zalloc
sched ule
SI Z
FAT AL
Ġwho le
/ ****************************************************************
ĠS kip
16 2
xF B
x ED
ĠM II
F ull
66 66
Ġbu g
Dis able
pw m
c map
Ġtr ail
12 2
Ġc t
ĠD V
Ġ1 50
Ref N
io cb
ĠI ORE
*/ ))
Ġw l
ĠS ELECT
J SAMPLE
SET UP
ur ther
, _
ĠG EN
host name
] );
ĠP re
Ġph ase
32 8
T op
End point
ĠIORE SOURCE
T mp
ĠF ts
Ġimp ort
ed ia
W riter
Ġb s
RefN anny
ĠP h
re nder
P B
13 5
E lem
w kt
td is
_ ##
tt alloc
Ġlong er
FO UND
str ip
ĠMem ory
IO CTL
Ġf it
, *
ĠA TA
Ġ0 0000000
mp z
Ġet t
is o
NT STATUS
Con vert
PROTO COL
depen dent
A RE
FL G
C ID
Ġoc fs
h ist
Ġin side
o ss
DO MAIN
ĠS M
19 7
-+-+-+-+ -+-+-+-+
orb is
be fore
H P
[] )\
GE ST
ĠM agick
BO GON
f ter
Node Ptr
Ġt t
act ual
H as
Ġp New
En v
A ccess
DECLA RE
80 8
Ġ9 5
j it
ĠS F
Ġle ave
T MP
27 4
ĠD CT
n get
ĠRET URN
26 2
M on
re m
ci a
PO ST
V P
err msg
er ator
pr t
enc es
Ġfre quency
ĠC an
packet s
PI PE
IR UGO
t Set
ĠL ONG
io addr
TIF Y
Ġu art
ĠHow ever
Ġre spon
sc roll
FL USH
Ġsh are
Ġ ----------------------------------------------------------------
," %
B ad
Pos ition
l w
medi ately
do m
nc y
t ASSERT
SIGN AL
O G
ĠOrig inal
t EVP
ĠWindow s
B ind
TR IG
m nt
Ġ9 2
Ġd h
SER IAL
t dbg
Ġp Src
ĠL P
Ġ9 1
VER IFY
INTERRUP T
fix up
Ġi Db
arg p
t old
Ġ0 000
ĠA rg
ve lo
B ER
h istory
Ġd t
XX XX
Ġm ng
Cur r
st ar
q name
iv ity
re strict
%%%%%%%%%%%%%%%% %%%%%%%%%%%%%%%%
rece ive
" \\\
t to
G lyph
tr b
Ġhe x
oper ations
REG NUM
/ >
mid i
Ġ199 5
Ġopen ed
ĠE INVAL
n w
Ġlua L
tM CFG
as cii
tg pio
Ġtemp late
DI F
TER M
Ġdig it
ĠJ PEG
Ġi r
Ġ ata
t O
ĠSet up
Ġ" ",\
) ];\
Ġa m
F int
pro perties
Ġl inux
Reg ion
+ (
opt arg
15 9
t K
) "
s mp
ĠP LL
CUR SOR
rit ical
Ġd ot
Ġh tab
reloc s
ation al
c lean
build er
A b
ĠT C
Ġrequest s
al c
ĠV ar
Ġqu ant
Ġre d
Ġt e
NE ED
Ġdele ted
m ad
act ivate
ĠR B
E QUAL
Ġprob ably
check sum
SA VE
ĠWR ITE
cl one
ĠN ON
L ib
np te
An Prefixed
sh ader
INS ERT
6 55
ĠP ACK
4 40
t md
ĠDef ault
p ow
Arg s
Ġin et
mis sions
Arg ument
Ġd y
Ġ/ =
an ces
k b
co mb
sy ms
Ġsy ntax
Ġl ittle
ĠB lock
Ġg raph
re ferenced
un pack
Act ive
SY N
Ġp cm
AS M
ateg ory
av ailable
Ġbot tom
i ation
s core
R aw
pl ain
tl b
ĠEE PROM
Ġk ind
h dl
R AD
Ġf req
ĠV IR
t age
tp s
M UL
ĠE lf
6 80
Ġs leep
A K
auth or
PK T
tdo uble
d word
SE CTION
Ġre start
S ort
U sage
11 00
Ġgo ing
z i
p Device
var iant
Ġs ut
e ed
th ers
Sc reen
Ġend point
i ate
lo aded
66 5
xC F
ĠS ave
AG AIN
Ġpro gress
} \\
m tu
Z O
Ġf w
Ġ[ -
Ġlock ing
Opt ions
ir d
Ġen crypt
s lots
Ġpro ced
Ġbound ary
CEP TION
B utton
p pc
Ġun less
tv buff
ĠI W
REAS ON
Ġ*) "
s ip
e ay
20 8
ĠA SCII
St op
CL R
_ )
t ASN
ĠC D
T T
l n
ar ations
ĠL UA
COMP LETE
SK IP
ĠComp ute
N B
Ġin structions
O V
s ol
ĠC lose
SU M
Ġf close
Se arch
ĠA s
DR M
bl ank
35 7
Ent er
ĠStr ing
Ġpro xy
id ual
16 3
map ped
Ġle af
Ġ(( ((
Ġ7 2
ĠGener ated
); /*
dis connect
/ ************************************************
ĠW PA
O THER
AL T
18 4
ĠTL S
n am
Ġ1 152
ĠSTR ING
Ġ1 02
Ġw atch
t ml
ĠUS ART
ix er
F ER
Ġp In
c losure
Ġtime val
co p
Ġbuf len
B ox
inc ip
Ġim mediately
Ġb trfs
Ġs ol
PRO CESS
ĠĠĠĠĠĠĠĠĠĠĠĠĠĠĠĠĠĠĠĠĠĠĠĠĠĠĠĠĠĠĠĠ ĠĠĠĠĠĠĠĠĠĠĠĠĠ
E OF
Ġj iffies
user name
Ġinst all
Ġfin ish
W ith
Ġgre ater
t atomic
ĠL ength
s ut
proc edure
AB ORT
S OC
DEP TH
align ment
Ġpro be
v ty
Ġint el
Ġext ended
U ME
is m
Tr ue
tm ask
g pr
He ap
ĠG PL
ĠM CS
um a
p ip
d ai
34 4
Ġio ctl
f ac
H el
test s
ĠQ u
D ER
ENO ENT
se lection
Ġ que
Y UV
i q
Ġg pointer
st ab
Ġcur l
ĠF D
En coding
r data
O US
ĠS ource
t mode
\' ))
ĠH OLD
O k
list en
ff icient
g ate
Ġmak es
ĠCY G
ĠIn valid
ĠD H
Ġprec ision
SL BL
P ID
TL R
Seg ment
Ġw on
Ġ2 048
rout ine
17 4
Re move
et her
Ġdev elo
IS R
Ġde tect
SES SION
ĠH PDF
r on
h ba
Ġerr msg
er ase
Ġp layer
bio s
sp aces
t Py
ac count
ĠCON NE
k it
ST S
V er
Ġh ad
Ġpart ition
ĠIN SN
Ġif def
ĠCA IRO
Ġpol l
13 8
tun er
0 40
ĠG X
ir tual
Ġdig its
x attr
55 5
-- */\
Ġc f
Ġz ip
GA IN
ĠS c
*/ (((
Re ce
OM X
tb us
RE SOURCE
Ġt id
tr tl
bind ing
BA SIC
curs ive
Name s
ĠCh ar
u de
Ġ6 1
AL EN
back up
ms r
a fe
tb ase
tV ector
ĠR ec
D ep
ĠA B
an te
13 1
WI DE
al y
ĠCON D
st p
in ate
h ints
44 4
CONT ENT
e cc
M ark
sv n
Un it
) <<
Y ou
Ġin f
B AR
R un
M aster
col lect
ĠAuth or
g u
Ġmin imum
p nt
00 8
Ġc y
Ġsh all
ap r
db l
set ting
aris on
Ġ6 7
yy vsp
Ġp Page
Ġe e
Ġcoeff icient
C AL
Ġconnect ed
bot tom
su ccess
ĠB LOCK
act ory
D UP
Lo op
U sed
Ġf ar
AN I
select ed
Ġd a
uple x
ĠT A
l r
15 5
ĠF C
o ke
q h
P in
ĠSD IO
Se quence
24 9
ut es
ar b
U MENT
Ġth ree
, ,
im s
F ilename
get s
Ġco medi
H igh
ĠInt errupt
L ow
P UBLIC
Ġbo olean
to bj
ue st
Ġmon itor
ĠĠĠĠĠĠĠĠĠĠĠĠĠĠĠĠĠĠĠĠĠĠĠĠĠĠĠĠĠĠĠĠ ĠĠĠĠĠĠĠĠĠĠĠĠĠĠĠĠĠ
ĠĠĠĠĠĠĠĠĠĠĠĠĠĠĠĠĠĠĠĠĠĠĠĠĠĠĠĠĠĠĠĠ ĠĠĠĠĠĠĠĠĠĠĠĠĠĠ
Ġcon sole
con straint
ĠR OM
Ġp pc
old er
PAR SE
n h
fc ntl
B M
Ġun lock
Ġl s
000000 1
Ġcal culate
Ġfloat ing
000 4
n ative
ur st
Ġlarg er
ph ba
h and
Ġme tr
Ġr A
REA K
A ES
oy stick
Ġre sources
Ġv ert
18 8
ql a
)) ))
F CB
t nt
sm all
de tect
Ġm c
ĠPy Int
ĠB IG
Ġu id
Man ager
*) _
comp ute
Ġar c
ĠIN PUT
war f
Ġevery thing
Ġthread s
Pro tocol
ind x
p te
Ġl l
Ġal ias
B IND
In sert
Ġk malloc
27 2
im ate
Ġb lob
gh z
3 01
et ime
Un iform
ĠCUR L
t GPIO
m gmt
Ġho ok
ent ion
), ___
incip al
n error
tn l
ĠFUN C
front end
d if
15 8
h andl
code d
Res ource
ĠG R
s ch
ĠOp code
Ġop aque
cal c
fil tered
o ctet
Ġacc um
CH IP
Ġdr ive
Ġdc erpc
M PEG
Ġre pl
aw n
Ġre p
NAM IC
buf s
SC REEN
er min
AT I
00000000 00000001
ĠBY TE
Ġd vb
Ġc tl
ĠAl so
ĠP D
func s
fr m
/ ****************
s as
Ġpar sing
ĠD S
n png
t xf
U BOGON
tc s
p Stmt
17 9
ume d
W E
al len
14 9
ĠFLA C
XX X
xC D
u ccess
Ġw c
19 6
us ing
map s
t ERR
put c
SG IX
tf m
2 0000
5 01
D iv
Sy mbol
io m
Ġscr atch
le ms
vis ible
sh adow
Ġs cope
Ġac count
ĠW rit
tcur rent
ĠComm and
Ġbe co
ĠF ailed
Ġcomple tion
ag ed
G BE
Ġto k
ĠE C
. )
Ġwpl s
h ard
ĠT k
AD J
15 1
f an
Ġstr ip
col lection
ĠEX IT
ad j
ARG BUF
Ġmo ved
hid den
Ġso und
PAR T
ĠARG BUF
ĠIN S
PEND ING
Ġdes ired
ĠSTR UCT
t fd
oper ation
sh m
w o
ma inder
Ġ7 6
Ġattemp t
t U
se cs
V S
Ġ(" \\
Ġmacro s
H ID
d uration
P ack
18 6
Ġdata ptr
RD ONLY
15 3
fre quency
A ms
ĠS ND
ĠO bject
c er
ex tr
Ġde tected
al arm
Ġpol icy
Ġlink ed
se ed
Ġdig est
32 2
EE PROM
n y
ĠDE VICE
] ",
Ġ@ @
Ġp adding
ĠPer mission
scal ed
Ġrec v
Ġtr ap
ex act
Ġro t
Ġoffset s
Ġlock s
ĠS UP
Ġpartic ular
D s
Ġstr cat
ĠX FS
SW ITCH
[ *
ĠĠĠĠĠĠĠĠĠĠĠĠĠĠĠĠĠĠĠĠĠĠĠĠĠĠĠĠĠĠĠĠ ĠĠĠĠĠĠĠĠĠĠĠĠĠĠĠĠĠĠĠ
is or
(* (
io base
reg isters
c annot
y es
M ove
V A
Ġdebug ging
C b
MC U
str act
su ffix
Ġf etch
23 9
3 40
tp c
tT his
Ġt yp
ĠV er
GR APH
Ġt ell
Ġreg istered
P ass
xE A
Co m
Ġ* ********************************
t DB
BUILT IN
de tach
Stat s
Ġu c
Ġwrit es
M Hz
Ġp b
s un
ĠS R
Ġread er
(! (
34 7
RE P
Ġ\'\\ \\
Sc ale
Ġo spf
Block s
//////////////// ////////////////
Ġcomple ted
Ġ url
ro id
ĠR SA
CF unction
Ġ arr
g uid
Ġk vm
FR IN
ĠD L
Ex it
EM U
is k
Ġu b
ĠGtk Widget
ĠS witch
tt he
Ġco okie
Ġper ipheral
OT G
t test
. )\
F inal
))-> _
D one
ATOM IC
tv ar
tc b
Ġcontribut ors
Ġl at
Ġo thers
56 5
nt est
CON V
de mux
re st
Ġent ity
xF D
c enter
on ce
ĠT im
on ical
qu ir
Ġ= ========================================================================
ĠX EXP
Or ig
ALI AS
CNT L
Attr ibutes
rev ision
Bit map
13 3
Ġrel ated
Ġ8 4
IC AL
30 2
16 1
is r
ut ing
)) )->
Ġhton s
p File
34 2
Ġreturn ing
name space
ĠF FI
Ġ1 08
19 3
ib ling
co ef
Ġf our
Ġt uple
Text ure
PRO FILE
D NS
sign ature
conn ector
======== ====
treg s
tc heck
O I
tp hy
tT he
ĠSt ate
j iffies
q os
de crypt
Ġw alk
pc ap
Ġ util
b ulk
ropp ed
sc hema
34 6
tb it
Ġadvert ising
Ġname space
UD P
OW N
Ġex plicit
ĠP ower
Ġmethod s
istr y
back ground
-- -\
D WORD
frag ment
dim s
m ary
3 14
Ġlp fc
ĠPy Array
08 00
no tifier
ib ly
Ġconfig ured
tpro to
g ui
name d
VAR I
ĠBO OL
ĠGener ate
I CK
VER BOSE
ict ure
p Cur
ĠB yte
ĠLoc al
ĠV P
ERR NO
ĠG roup
w i
ar ante
get c
pre p
cnt l
Ġc e
par ts
Ġs ctp
a j
l ab
Ġre main
T otal
un icode
m n
27 3
4 01
Ġ20 12
vo ice
R PC
ail ure
de red
IF MT
ce e
W H
td m
Ġs ip
Ġv i
inst all
P WR
ul se
7 68
t ar
sub ject
xC B
p al
Ġsy stems
ĠF ill
N AND
Ġ1 01
j et
ch g
ĠM K
DO S
d sa
pl ist
D SA
CH K
RE PORT
27 1
f irmware
ar ity
RE N
F ound
Ġp Mem
an ity
ĠSL JIT
80 7
ĠC F
Ġm ul
M e
Ġ1 04
8 30
Ġbus y
Ġp Idx
AL G
Ġr ather
Tr ack
Ġas m
ver ter
ĠM X
r ation
qual ity
Ġ8 5
ex tract
t mov
Ġi mm
ĠP OWER
CE D
sh ake
Ġhere by
10 10
Set String
st rerror
Ġse lection
allen ge
Ġread l
Ġspecif ies
ĠPro gram
H w
Ġ\' ;\
Ġse en
Ġp ast
ĠM OD
Ġc ipher
Ġl iteral
ro om
MODE L
ĠN EXT
ĠM AP
M U
W S
Ġs in
\\" \\
VERT EX
g re
UR I
USH ORT
al ways
ĠM ac
EX IST
spec ial
Ġa ux
Ġ IT
Ġfrag ment
Ġro om
Ġd sp
Ġhead ers
hal f
SO CK
h u
P ut
97 0
M ISC
Ġoption al
pC sr
ĠA ST
ATT ERN
or n
hal con
Ġchar s
Ġfollow s
Ġc alloc
17 8
Ġ7 4
G D
Sh ift
ic ator
Ġde pen
02 00
T ask
ĠE D
3 50
Ġcl uster
t time
imp ort
I mm
ĠLD AP
A uto
PRO GRAM
E ST
ac cel
Ġ1 20
ap ply
Ġbeh av
on es
Ġvar ious
gr id
3 55
Ġvers ions
h ort
un link
Ġsection s
he et
22 9
. *
Ġ\' "
cpu state
Ġv c
ĠB A
ĠM Y
ad get
L abel
ag ent
prev ious
Ġinter val
ĠR GB
C lock
DIS PLAY
Ġ$ \
ul ation
r atio
Ġdis card
Ġphys ical
37 5
Ġ1 10
ĠE T
ĠE ach
m box
t ss
ĠRe quest
dev s
Ġproces sed
tT ALLOC
l un
Ġ* ********************************************************************
ĠF B
00 20
Ġen gine
PR M
t send
B lob
on line
| \\
77 7
P l
P W
Ġproced ure
ĠR ights
ĠA PR
Q P
dev init
OL UTE
ĠR AM
t tl
PL US
Ġth ough
state ment
s at
Ġab le
L AR
g ame
Ġ\' #
ĠR ANGE
Ġ icon
oriz ont
ĠINT EGER
Ġg z
[ ],
et ype
co un
ĠHOLD ERS
APP LE
ĠB B
ĠHT TP
s dev
Ġtak en
M o
Ġexp onent
F REQ
S ec
Ġp buf
Ġpar ts
cl r
Ġpro file
V FS
32 5
Ġas semb
qu ote
P DU
Ġh it
Ġg ain
ĠW AL
LO OK
Ġro ll
ct s
li er
Ġgener al
re fs
mat ches
t self
Ġ" +
Ġ5 00
pack ed
p j
Ġcorrect ly
int ra
ĠE MPTY
ĠA cpi
Ġst ub
Ġmedi a
Ġallow s
60 7
Ġp info
ĠD WORD
Ġ{ {
Ġ7 5
18 5
C annot
p vt
A CL
ĠS S
Ġer ase
Ġname d
al led
cc ur
sy scall
g f
. ",\
xff ffff
20 10
Ġn il
O O
ADAP TER
Ġsh a
Ġmin or
tp Ad
Ġatom ic
SP F
Py Arg
ĠF AR
_ \
ll u
b al
) =
C ERT
b order
ĠL M
Ġ0 00
opt ind
ĠN ode
Ġh and
Ġcomp ptr
Ġb t
Ġdef late
Ġp f
Ġ9 8
ĠI SC
Ġp at
j son
Ġ(;; )
Ġs izes
REA CH
decl aration
Ġclose d
Ġi a
3 56
ĠH E
tvol atile
E BUSY
ĠC SR
Ġload er
Con st
IF D
Ġ8 6
Ġj son
ts ys
ad v
ĠV X
Ġ" ";\
Ġlocal e
p In
> ");\
g y
ĠDE N
Ġtak es
Ġlock ed
Ġiden tifier
Ġtime stamp
me sh
Last Error
Ġstart ed
h our
Ġ6 9
s hell
3 54
87 6
ĠĠĠĠĠĠĠĠĠĠĠĠĠĠĠĠĠĠĠĠĠĠĠĠĠĠĠĠĠĠĠĠ ĠĠĠĠĠĠĠĠĠĠĠĠĠĠĠĠĠĠĠĠĠĠĠĠĠĠĠĠĠĠ
ap plication
IS A
Ġde ad
34 5
* ((
imp l
24 10
Ġfe ature
Ġfin ished
Ġ" __
] :
con t
W C
Ġhandle s
Ġun defined
ĠOP TION
c ms
ref count
ĠN V
Ġencode d
Ġtr ig
ng ine
Ġc le
F ix
comp iler
ade on
Ġ-- -
Ġsu c
Ġdiv ide
Ġn bytes
& (
Ġre striction
metr ics
TH RESH
" .\
window s
Are a
Ġdi ag
tm y
19 1
Ġn orm
WID GET
S tore
he st
Ġd ns
27 8
Ġsuccessful ly
play back
action s
RE QUI
ĠI mage
ĠS tore
C or
pR tree
ĠFS MC
scr atch
ms m
D DR
ĠSTRUCT URE
c gen
l iteral
ĠCONNE CTION
mb ed
op c
me an
ap ic
24 00
Ġp Ad
ip p
Ġc g
AM D
Ġ9 4
LIC Y
vb f
Ġp Cur
addr s
ort ex
T AB
Ġ199 7
Ġb i
VOL UME
ĠN AND
Ġa ut
Pro file
ĠC url
P USH
comple tion
to ul
up d
ide sc
t el
object s
Ġsee k
Ġindic ates
GR i
Ġp alette
ref resh
Ġa sc
96 5
Ġs at
c vt
Ġreg no
ĠP B
Ġbu cket
Ġf oo
OF DM
I mp
out buf
x DE
RD WR
Ġgu arante
ĠSO CK
prec ision
30 8
3 000
__ ,\
de ad
Ġenv ironment
// ****************************************************************************
ALL OW
pro mpt
Ġlog ical
ĠW in
m tx
AL E
pro d
e ax
c if
Parse Tuple
im ap
ver ts
80 4
FRIN GE
Ġex port
77 0
Op code
Ġ199 6
t map
EN CODING
block size
Ġmo unt
b sd
sy mtab
ts ig
ut ter
ss p
DE CODE
lib av
m time
0000 01
sp an
mod ify
p ublic
xC A
l cpy
ph p
Ex ternal
in place
Ġxml XPath
ar ound
cl s
98 9
J P
ul ated
config ure
Ġc red
Ġf urther
Ġmp z
ud c
A MP
g spca
SUP P
Ġ{ -
Ġ/ **
in dent
Generic Error
in str
UN SIGNED
v tab
7 54
UM N
)| (
g dt
terr no
Ġ` %
S DRAM
Met a
t LOG
ĠCO DE
}, ${
Ġprevious ly
Ġb pp
d dr
Ġsl ice
st s
W O
N DR
ĠO ffset
Ġcon struct
D up
B e
t CHECK
v g
right ness
Ġ== \
Ġw or
ĠN ext
28 5
J PEG
Ġre ferences
Ġcl s
ĠNe ither
Ġal tern
ar ies
Ġra ise
NO TE
di rent
Ġcomp iled
ĠBU F
ĠDis play
ip c
14 2
metr ic
sg i
und le
3 15
TI CE
S ocket
Ġexec ute
Ġx fs
Ġbl ue
Val ues
a es
Ġ( ++
td ir
x l
Type Def
55 55
t ath
CLU DE
all back
Oper ation
ext ended
Ġdescript ors
ABS OLUTE
Ġ8 2
ĠFAIL URE
final ize
33 7
ĠCY THON
MPL ATE
ĠDE S
ĠT ABLE
Ġt ot
erc ial
A H
ET CH
Ġe valu
\' ",
tc lear
Ġre alloc
b ssid
r tems
THREAD S
Ġdim ension
PARAM S
er os
ro ken
ĠCal culate
Ġtrans form
z Err
th r
Ġ --------
comp ile
G en
File Name
;\ \
32 6
Ġ9 3
Ġsn ap
pe ak
ĠDESC RIPTION
ĠPAR AMS
p ComponentPrivate
s upport
T ASK
Ġre peat
M ULT
Ġv id
um b
ĠT ool
Ġf act
tin u
alle l
ĠU sed
rece ived
m ic
ĠN PY
ĠO C
RES OL
Ġmap ped
D ist
li ance
y aml
sk ill
Ġs id
Con f
Ġ... )\
Ġa u
Ġsl ave
N IC
01 7
S wap
Ġp ur
buf len
ua e
Ġinter pre
scan f
S US
TEXT URE
Ġk w
Ġth reshold
ic le
n local
orizont al
Ġrecord s
SE EK
Ġr untime
ty y
SE N
Ġst arts
ĠĠĠĠĠĠĠĠĠĠĠĠĠĠĠĠĠĠĠĠĠĠĠĠĠĠĠĠĠĠĠĠ ĠĠĠĠĠĠĠĠĠĠĠĠĠĠĠĠ
Ġc ast
p List
s izes
Ġpro g
ĠV OS
es sed
ĠAn y
P h
M ake
res ults
ĠP E
AAAA AAAA
SC A
ĠXML VM
96 7
g z
ut ure
ĠLo op
Ġp w
20 9
g fx
Ġb ail
Ġab fd
F inish
Ġw ake
Re ference
no ise
l lo
F X
Ġw idget
64 6
Ġc ms
de on
Ġb d
G raph
IG NORE
uni que
S ound
ward s
dig its
ub i
Ġim g
ll d
V olume
3 30
limit s
to ff
//**************************************************************************** *\
80 1
ĠLo ok
et a
ra ise
lo sing
to ur
al s
Ġa way
M gmt
xD F
ĠGX V
) {
*/ );\
t de
br k
Ġman ager
ĠB ER
R o
re pl
A pp
w orld
handl ers
t irq
G I
AN CH
Ġb io
S l
Ġr ank
Ġ( \'
l db
Ġdid n
Ġs dp
50 6
AL OG
v dev
Ġ8 8
icen ce
INT EL
n or
K D
ĠI mplement
B REAK
18 9
lo p
AS Y
log in
Ġn f
Ġc ff
ĠPR I
200 7
wd t
M ENU
(" /
Ġsend ing
Ġcomp il
TR L
ĠCo unt
Ġind ices
Ġ1 12
chron ous
Ġr adeon
ĠM C
ĠPI PE
Ġput s
ĠLOC ATE
No tify
ip addr
xD D
A pi
a N
ĠU int
0 16
gener al
Ġg p
ĠS iS
99 7
ĠU ser
p Mem
ĠFRV BF
B LOB
R AND
Ġ VAL
A p
err code
f tp
ĠCal led
ĠIN DEX
Ġ ];\
ĠR PC
ff i
ĠNE W
Ġp seudo
RE LEASE
tp age
Py CFunction
cl en
FI LEN
32 1
ĠTI ME
cc p
On ly
PHY S
D own
dat abase
;\ \\
G e
inter n
ig hest
NE G
sock opt
Sy m
D OC
Ġp cb
Do uble
pre tty
Ġsepar ate
cee ded
byte p
for k
Z IP
ox m
ĠO ne
d py
ĠG T
ĠB o
c ut
Ġf ore
ites pace
nc id
() ]
Ġp x
Bu ff
n sec
cr it
Ġ REF
sequ ent
ĠR ele
Ġm mc
SEQUEN CE
Ġt if
t index
Ġcomp ressed
Ġin c
(( *
Ġt ls
out ine
Ġent er
xD C
ĠĠĠĠĠĠĠĠĠĠĠĠĠĠĠĠĠĠĠĠĠĠĠĠĠĠĠĠĠĠĠĠ ĠĠĠĠĠĠĠĠĠĠĠĠĠĠĠĠĠĠ
Ġf ew
symbol s
D ump
ev t
a el
5 28
oper ator
per f
Ġcor rup
ĠO PC
S Q
P attern
ĠM an
nT his
k lass
ĠD SP
Ġ( ~
Re ply
ĠR ATE
pr imary
Ġacknowled ge
CO VER
Ġsign ature
Ġspec ify
SO FT
Ġdir ty
erm ine
di ag
D et
== =
SI MPLE
sys ctl
cp p
ĠT OK
ĠFT S
d ll
Ġman agement
v addr
);\ \\
ĠAR CH
tstr ncpy
t of
.. .\\
ĠDE V
er ate
S p
Ġcrypto graphic
Ġcon tact
)) ))\
87 0
cb c
Ġpro perties
Ġpl us
Ġop s
FRINGE MENT
M ain
pp p
T ED
um ask
N ARGS
g ss
q emu
sam r
\' ))\
trans mit
m otion
rad ius
second s
w k
iden tifier
re name
Ġa ff
ĠW here
Ġh int
Ġd n
se par
Ġpl ane
Ġin voke
ĠW H
scal ar
MM C
Pr iv
From Long
Ġm i
c addr
cho ice
Ġr as
EN DED
mp r
h tab
Ġio addr
50 7
Ġq false
B RO
re size
ex c
Ġprocess or
pass wd
Ġsee ms
Ġre nder
t Q
COMP AT
T LE
36 3
Ġ( )\
e asy
t clk
il ar
Ġax iom
ann ing
Ġmode s
at ory
ab c
Ġ" $
Ġf ifo
F ixed
co uld
40 3
m ay
Dep th
FOR CE
Ġb c
FFFFFF F
Ġn Byte
) ].
HE IGHT
gno re
L B
exec ute
Ġov erride
l z
de compress
am age
Time out
Ġcomp arison
Ġid le
un its
Ġt b
id i
Ġp orts
fl ip
m g
M UTE
struct p
Ġs pr
Ġlist s
cond ition
ction ary
go ing
tun ion
ĠOP ER
B AND
q r
Ġgr id
ĠConfig ure
Ġfil led
TRIG GER
ir c
Con straint
Loc ation
ĠT oken
ĠST M
n k
------------------------------------------------------------------------ ----
ĠGLE E
99 6
DY NAMIC
2 86
Ġp ow
t mb
Ġequ ival
Ġ% "
t netif
Ġsp in
Fr ag
Ġl ab
ĠPar ameters
tc x
Ġabs olute
link s
ĠB e
WAY S
4 22
SE V
H A
P IC
ĠX X
tw l
Comp ile
me l
print er
UL ong
ang ing
b ed
o res
ĠL PC
Ġ* **
ty le
callback s
G U
Ġsq rt
ĠS rc
Ġdevelo ped
compat ible
Ġn n
MO TE
// ========================================================================
s ame
17 1
Ġre ached
h ardware
Ġc er
ĠD river
ĠR FC
Ġtype def
Ġc yg
Ġautomat ically
/**************************************************************************** ***\
Ġany way
ĠF REE
Ġy affs
t desc
pr im
FIN ISH
CH AIN
TRI ES
ĠInit ial
Ġ++ ;\
P ush
V L
Ġtrail ing
EL F
ĠCl ass
t ctrl
sm c
v ia
n ick
)) ));\
Ġb ar
ph dr
88 7
ĠM ap
Ġse nse
fe ed
__ (
Pr iority
and idate
17 2
ts m
global s
ĠS DRAM
iv ing
ĠDet ermine
ĠCh ange
tp error
Ġn ative
Ġst mt
Ġp n
ĠDEF INE
DIG IT
to ggle
qu are
InitStruct ure
ateg y
: ",
h b
Ġp Out
i sed
t lock
SE NS
IC S
h nd
ĠN FS
n main
Ġm ention
tP PC
64 7
Ġ7 3
FR AG
ĠSU CCESS
REG B
cp us
Ġfr ont
De code
,\ \
56 0
v port
mem set
Ġj oin
O CT
Ġ UT
pi res
s se
40 7
Ġse curity
av id
es p
Ġad vance
Ġl lc
th ernet
ĠM icro
Ġconst ants
ĠW ERR
token s
Ġc dec
ĠM IPS
BU ILD
Ġi Col
ĠPr ivate
30 9
34 3
cm nd
nb ap
000 3
tin ode
Ġinv oked
Ġreg ular
ll x
000 8
CI A
p as
u io
ED GE
Ġhold s
77 5
Ġhappen s
tp m
PRINT K
L U
Ġs il
ĠĠĠĠĠĠĠĠĠĠĠĠĠĠĠĠĠĠĠĠĠĠĠĠĠĠĠĠĠĠĠĠ ĠĠĠĠĠĠĠĠĠĠĠĠĠĠĠĠĠĠĠĠĠĠĠĠĠĠĠ
Tex Coord
MA KE
ĠP ut
DI FF
ĠL ink
OR ITY
; }
co unts
Ġ1 92
Trans form
Ġpos itive
AN UNPREFIXED
ĠP CM
/ ************
tc r
exp onent
pe ek
an ic
L ibrary
al i
Ġfollow ed
A r
Ġc map
ĠR ev
Ġb n
MIX ER
Ġtry ing
e val
k obj
IN O
Ġg id
ts y
tu i
Ġhton l
Ġth ing
Ġt i
f atal
Ġlook ing
K B
Ġmark ed
r ase
Ġc am
REC ORD
04 00
asure ment
S LA
_ %
Ġdup licate
Del ay
P arent
Ġhe lper
tm ul
pa use
as so
ĠLo ck
Ġs af
key map
un ch
UN C
ĠG D
et ree
sc p
7 67
mm x
SE ARCH
f ops
file func
S UN
X M
Ġ-- \
disable d
t OP
col umns
**************************************************************************** /\
ĠE vent
Ġel if
BIN ARY
ĠpB t
Ġs ur
vm x
n fail
spin lock
dev el
te v
ident ity
E FF
be acon
ĠAT TR
Ġsched ule
n ex
Ġcomple x
ss h
Ġbu ilt
Ġpr imary
Ġw ir
ĠOB J
entr al
ms k
INV BLK
Ġre v
Ġ% #
Ġatt ached
n orm
n long
Ġon es
Pol icy
re maining
de tails
Ġstat es
Ġ{ &
ĠL anguage
o gram
can vas
tput s
Ġco s
36 8
PC REL
Ġpre d
J ob
3 11
g be
g ers
on y
fp u
Var iable
V is
su ite
key word
88 8
Ġno tify
cond s
Ġh ints
Direct ory
ĠND AS
Ġf ac
Ġg ame
ĠFr ame
rule s
J IS
p ck
Set Error
b k
SI P
Ġ* ****************
ax NG
us ers
Ġw sptr
A SCII
Ġv fs
33 5
/ <
ĠI DESC
z lib
ĠU PD
Ġdr v
Ġp lease
g i
p H
86 7
ĠN on
Ġprovide s
Ġgr ub
M edia
command s
ĠB SD
no s
c ustom
t YY
N ATIVE
ĠR TL
Ġf puts
ĠB I
Ġl ayout
WR AP
ps z
18 2
] ),\
li ke
on o
Ġ- *-
] -
n dev
. */\
sec ret
SA X
PO LICY
t ts
k bd
re ach
Ġ1 11
wake up
ĠN B
Ġend ian
p New
Ġc k
Ġq p
," \\
CLU SIVE
tg en
Ġp dev
Ġan gle
Ġf amily
ĠD at
P ending
ĠRe ce
Ġexec ution
Ġr m
d ap
Ġ{ .
Ġmetr ics
Ġf fe
tc ard
in p
Ġgo ver
Ġip v
B ANK
un able
Ġ\' +
uce Action
Ġf ault
sid er
94 5
) *(
Ġa pi
Ġint r
pw d
Ġsup ports
lo ur
50 4
Ġd ialog
j p
80 6
ĠTool kit
Ġcheck ed
ĠU Int
Ġuni que
it ute
stride s
TO M
Ġcap ture
M CS
ĠHAS H
ĠD elete
MS B
plic ant
goto minor
to c
ĠA ES
(( /*
Ġr f
pr io
ĠTh en
R P
q c
tf p
Ġ655 35
Ġnet if
ĠT ER
Des cription
18 3
Ġ1 91
w ps
imit ive
Ġmo use
COL UMN
Ġp atch
o hci
ĠS IO
ĠT urn
Ġdecl aration
sp ool
fl t
s al
w er
Ġs am
W PA
Ġ0 1
Ġsign ific
Ġl im
pd f
[ _
cmd s
LE EP
as d
component s
Ġlo ff
33 9
Ġhold ing
init ion
17 3
IN FRINGEMENT
GR j
00 63
Ġow ner
N on
S SID
o ok
Ġul ong
h ip
tj h
tr an
ĠB y
ap on
Ġx malloc
ad dend
-------------------------------- ------------------------
L AT
Ġconfig ure
Ġ1 16
PO SIX
ĠT S
I ER
ĠB ad
88 59
Ġper m
Ġtest ing
m ag
Ġ^ \
T UN
a ined
ĠF IR
p add
SY SC
Ġ1 000000
B G
p Key
v cc
ĠH ost
Ġu ip
ic a
INTER VAL
35 8
angle s
Ġproper ly
Ġma jor
Ġm er
tb lock
88 5
Ġinsert ed
ĠM ATCH
Ġm t
Ġwork ing
LIB C
FO RE
ĠC re
Ġz Name
ex pect
**** *
Ġ" --
LOW ER
Ġp V
" /*
tre lease
Ġin coming
vid er
INITIAL IZ
Ġs mp
ĠS un
an ced
v ices
ĠC TL
in ner
)) )));\
PL T
in ates
Ġc ut
Ġle ading
ex ists
ĠĠĠĠĠĠĠĠĠĠĠĠĠĠĠĠĠĠĠĠĠĠĠĠĠĠĠĠĠĠĠĠ ĠĠĠĠĠĠĠĠĠĠĠĠĠĠĠĠĠĠĠĠĠĠĠ
STR ICT
xD A
ĠpC sr
ul er
Ġh ist
ĠHOW TO
Name Space
Ġchunk s
Read y
Ġtr unc
Ġre sp
0 11
ĠB us
IN ER
function s
Ġc arry
ĠV OID
t dest
Ġder iv
Codec Context
IN F
t adapter
(_ ("
Ġcallback s
Ġconvert ed
ĠTIM ER
32 9
ig ure
dis sect
glyph s
94 9
Ġg d
G ORY
ĠK RB
p E
Ġz lib
re ment
IT OR
tb p
D W
Ctxt Ptr
Ġstate ments
n GL
dist ance
_ ;\
line ar
ah d
Ġpl ugin
AG ER
im ag
FS MC
COD ER
Ġiter ator
ĠLI ST
Ġread s
ĠSh ould
z end
et o
t Debug
part ial
ĠB ase
og g
Ġxml Free
ĠRec ord
Ġf old
ĠE M
Ġ% -
F d
ne on
ear ly
el ine
Ass ert
Ġx dr
29 5
p q
xml Schema
/ ********************************
CON TA
ad s
N N
Ġf un
ĠD ec
ĠIP PROTO
pro tect
ĠU RL
99 8
Ġr gb
DISABLE D
ĠCL K
86 6
Ġ1 15
Ġsmall er
ĠOFF SET
m argin
Ġc ert
W LAN
is er
Ġin ner
C GEN
h ot
no bj
A UX
an ded
wh at
Ġj oint
tp rev
00 10
Ġadd ing
P ATTERN
h v
Ġexact ly
Ġn and
Ġr r
TRA CK
chunk s
fe c
re peat
22 8
AD ER
35 2
tp latform
54 4
C AT
dh cp
ust ed
SO UND
n gr
t ib
RO UTE
ĠF MT
Ġnto hs
cam era
cur ve
gener ate
Ġsup plied
Ġse l
ĠH el
ĠG lobal
js ip
T D
40 8
Ġcomm un
atter y
ĠT emp
h it
ĠI SO
ĠRele ase
mp tr
Ġ" *
E mpty
Ġp v
G imp
W al
atal og
M IS
f ptr
ere st
on al
ĠP lay
B SS
ĠR tree
DB E
tassert Equal
Ġse ed
b ut
Ġseg ments
50 2
94 7
ĠG DB
Ġk ill
ument s
Enable d
__(( __
q e
Ġq h
CO LL
ĠS te
ĠA UDIO
25 9
ĠR est
Ġf flush
ĠT imer
P op
c ar
cap acity
PRO TECT
Ġt itle
/* ----------------------------------------------------------------
ĠIP v
ĠSW ITCH
ĠV olume
st age
t OUT
99 0
t OPENSSL
tL M
Ġre tr
CB C
tp thread
uff man
ite cture
ĠD NS
-- \
Ġe mul
Ġi wl
28 7
ĠB Z
allow ed
Ġmem cmp
Ġtoken s
01 5
ĠST ART
Rel axNG
RE X
Iter ator
Ġ& _
G r
tc fg
ud son
ĠUPD ATE
IV ATE
ĠM MC
R V
tim ing
log ical
C ore
Ġw d
Ġof s
PA IR
Dat um
seg s
ĠH udson
s alt
L SB
Ġind irect
ys is
J NI
Ġa sync
Ġle d
RE PLY
O ne
td i
36 9
ĠH ead
Ġ* ,\
EX CEPTION
t ac
GENER AL
ĠH ash
ND IS
th andle
Ġit ype
Ġent ropy
sc anner
ho se
Ġeffect s
Ġstr ncpy
b dev
UNI CODE
NG X
Ġ40 96
ĠC T
Pre fix
if name
sys fs
ĠB M
Ġarray s
e cho
n tr
ĠA SM
f ts
ĠS ign
im ation
Ġout side
Ġr and
use s
50 5
rel ax
ĠMod ule
Ġed it
s printf
/* !
Init ialize
LIG HT
Int errupt
Ġstat istics
Ġrepresent ation
ĠB R
__ ))
reg num
IC C
BIT MAP
a ise
ializ ation
T ick
ĠH P
Ġcre ating
ĠPy String
Ġf ul
/************ **
Ġre load
ext end
ndis sect
v if
Z END
ĠCon troller
config uration
in crement
Ġconf lict
Ġor g
et y
c st
Ġwindow s
bound s
ar ing
Ġl ang
Ġb tree
RE MOVE
ĠĠĠĠĠĠĠĠĠĠĠĠĠĠĠĠĠĠĠĠĠĠĠĠĠĠĠĠĠĠĠĠ ĠĠĠĠĠĠĠĠĠĠĠĠĠĠĠĠĠĠĠĠĠ
buf size
he ld
L azy
// #
char acter
gr ay
Ġn i
Ġover lap
ĠG CC
PRO PER
Ġa mt
t tm
Ġse qu
ut ation
Ġp mpi
istr ation
=-=- =-=-
1 00000
57 6
ig it
il legal
cla im
Ġrelease d
O MAP
ĠA udio
AR P
ĠH Z
MB O
Ġinter faces
ab i
ĠCR YPTO
Ġlength s
Ġs core
66 6
Ġkey word
Ġdouble real
ĠPer form
J ournal
VER B
r nd
ild card
t dd
ĠS B
NO TIFY
ive c
ĠO per
b tree
s x
ĠM ust
N P
POS ITION
( ),\
term ios
o ob
AN GLE
; ;
sh ost
Ġf atal
ĠP urpose
US hort
Ġ(( !
ĠIX GBE
Ġr tc
80 5
CATE GORY
are na
Ġimp licit
pr s
Ġgdb arch
D LL
g ment
Ġwrit er
re load
n ap
et t
t length
H K
0 33
s ur
p Op
Ġrad ius
ĠCon text
Ġp Device
Ġe st
Ġstart up
Ġcomm ents
",\ \
tick s
tt orture
dl g
38 5
Ġoccur red
d vb
ĠAD DR
ĠBIG NUM
AT TRIB
f cp
libav util
cred s
Ġp ComponentPrivate
HE LL
Ġwh ose
Pixel s
MACH INE
ĠA fter
sp l
(" [
Ġ-------------------------------- ------------------------
nt he
TYPE S
Ġco me
r z
ĠW A
Ġh istory
es cape
84 8
Ġ16 5
id ct
ĠWrit ten
ĠF lags
ub y
F ONT
Ġob tained
ĠM ove
Ġcache d
Ġf uture
E FI
tp ath
Ġperform ance
PRI ORITY
Ab ort
greg ate
Ġc ertificate
ĠG P
den tifier
ĠM essage
IO S
l anguage
C V
V IS
Ġg amma
CONT IN
P AN
g sl
Ġh ack
); }\
ENT S
ĠR et
20 12
q s
IM G
im ize
cc cc
MO RE
st m
Per iph
Ġnto hl
n ul
CT S
argument s
in b
Enc rypt
X S
ĠI FF
F req
Ġil legal
ĠD M
ĠR G
t DRM
000 7
ĠB ITS
u k
n of
Ġdefinit ions
BUF SIZE
RT X
Ġc type
40 6
V X
control s
ĠB egin
TA CH
ĠP CRE
r val
RE SERVED
W h
ts i
Ġmid dle
L INUX
ĠH ID
Ġl j
DI C
AP B
S cript
######## ########
N F
al ive
D ROP
G UID
Ġ8 3
ti eee
Ġ( )
bd a
97 6
FR int
MIN OR
init data
yy msp
Ġ- ->
Ġun its
S int
ĠO ID
R ender
M SK
Ġvalid ate
Ġresult ing
A v
t RETURN
DIS K
un ded
+ #
ST Y
ĠTe ch
Ġpl an
Ġsu ffix
Ġback ground
P e
Ġopt arg
H al
m dev
Ġtr i
EXT PROC
CH ILD
ts l
97 9
st ers
Ġen coder
ac u
al go
U CHAR
Ġcle ared
ele ms
no m
l ive
al ysis
AP M
P lay
s list
tr ansp
B OT
PE CT
Ġsens or
P lan
S tyle
200 2
TO OL
draw able
OVER FLOW
Ġtr ansport
8 37
N Z
ang led
Ġto ol
IW USR
h dev
Ġmp r
Ġx x
oth ing
Ġdb g
ĠTh at
f at
Ġe a
Ġ< /
Ġv ma
Ġcol lect
33 3
d ct
ĠR IGHT
5 20
80 9
IX CORE
buf p
pg no
Order By
ĠSe arch
Ġde coding
200 8
nd one
Ġpar sed
Info Func
TL V
Ġacknowled gment
Ġg reen
86 9
Ġde pend
led s
35 3
t args
out file
Ġreloc s
asso ci
reg ex
b ps
W arning
ĠGLE W
Ġe arly
] <<
ex ist
ĠK ERN
lib rary
ts b
CR IT
F CC
TE MS
FP U
MG MT
Ġbr idge
Ġs lots
Ġ! !
bl ack
Free BSD
ĠAR C
ACCE PT
a Db
her it
ĠH AND
ĠR AD
SH OW
op le
w hile
Ġper mit
format s
Ġper missions
gl VertexAttrib
tg t
Ġb gp
Ġcon tained
cogn ized
64 5
MM U
tr ing
87 4
n es
B r
Ġflow s
- (
Pro p
M Y
77 6
ĠL ib
in buf
Ġw al
un e
out er
th ash
ĠL EN
sub mit
S SE
hw nd
tp acket
34 8
M SC
K P
nd as
k l
26 9
Ġig raph
Ġl m
PRO BE
bl end
kw ds
ĠC ASE
ant ic
fer red
97 4
Ġst a
R c
200 1
] ];\
s data
we b
GENER IC
Trans action
nv ram
Ġpro tot
Ġpol y
t USB
tr ail
COMP RES
t FILE
tp g
ĠL T
ts ign
o spf
Ġauth entication
Res ol
ith me
FT P
IO ERR
Ġful ly
pr incipal
Ġw s
Sh ader
Ġdec imal
ĠComp are
RE LA
18 1
Ġback end
ĠSIZE OF
t code
Ġr am
n Col
wrap per
Ġo dd
dent ials
rtl priv
213 9
ve au
V LAN
CO ORD
ĠP UT
p Out
d fs
p Buf
Ġre verse
Ġb h
con struct
UN IX
in cr
34 9
plic able
ich ael
Ġglew InfoFunc
f sp
} /*
n R
EN CODE
my sql
ĠFor mat
Ġsort ed
ALIGN ED
Ġdr ivers
ĠA ct
y uv
l if
00 9
t td
Ġse ll
Ġst age
ĠBu ild
i ers
n set
ĠV ID
8 10
ĠTR AN
96 9
ed ges
ĠAV MEDIA
Ġtr ansp
err str
\\ ",\\
Ġs ql
ke le
sc ene
Ġr w
c ck
Ġ? ??
TO O
X A
H ARD
ĠSDL K
JO Y
ĠI ns
Ġdif ference
mb c
up s
on ts
Ġun link
CRE AT
po sed
i h
Ġn m
b gp
f loor
VAR ARGS
p file
L icense
ĠA FS
acu um
ĠU P
Ġg fp
ĠVer ify
ĠTIM x
sock addr
Ġb el
ĠĠĠĠĠĠĠĠĠĠĠĠĠĠĠĠĠĠĠĠĠĠĠĠĠĠĠĠĠĠĠĠ ĠĠĠĠĠĠĠĠĠĠĠĠĠĠĠĠĠĠĠĠ
~ \\
l sp
Ġf h
Ġl w
nt er
Ġs rv
ĠI DE
quant ize
55 7
mbed ded
Ġup on
ENT ITY
Inter val
2 19
c us
l ts
Ġ uri
path name
Ġth us
log ue
CH O
COMM ON
Ġp List
el s
g sm
Ġsp u
Ġ10 5
Ġacknowledge ment
sl t
PA USE
Ġdef ines
B IDI
ĠDEN Y
, %%
ĠFT C
Ġlimit ations
ĠIn sert
P OP
Ġch o
ĠC ap
C X
Func Ptr
t INT
Sh ared
DR AW
Ġis sue
tz end
BO UND
Ġ\' *
37 3
Pro xy
ĠM y
Ġlink er
RU LE
Ġ\' _
PRE SENT
W e
Ġm icro
Ġwrap per
A I
tw ait
Ġp Buf
MM X
T e
g it
S ection
t NTSTATUS
Ġtag s
j i
m ime
ithme tic
Ġt l
RO C
00000000 80000000
Ġ ].
Ġ\' ?
ĠJ ust
CT YPE
Ġ(( __
Ġver bose
8 000000
A gg
con tact
US ART
] ],
a io
Ġnon zero
GL BL
Ġget env
Element s
ĠE thernet
Ġin o
se en
Ġb fa
Ġsn mp
Ġdecl arations
g em
c str
ub e
sn mp
ĠNe ed
ĠDISCLA IM
ns ap
tz val
Ġ7 1
p buf
a ctx
Ġ16 0
Ġcomp liance
yy ch
Ġ// /<
r ng
Ġli kely
D lg
Ġop ts
Ġg ss
Ġsignal s
V D
] ++;\
K ernel
EXT ERN
85 1
NT AX
/> .\
ĠS MP
h ift
Loc ale
plan es
str cpy
UN T
ST YPE
pr ime
---- \
ĠPH P
ur al
Ġchild ren
DI GEST
// /
yy val
sup plicant
ab ling
64 8
2 80
Ġequival ent
Ġr val
ĠM Hz
Ġ8 1
Ġq true
HE AP
RT S
p Idx
Ġcer tain
v ect
Ġm map
26 8
Ġp E
Ġa ud
pos ix
Ġh a
Ġn t
mis sing
}} }},
Ġprob lems
PER IPH
Ġmention ing
ĠPRE FIX
mask ed
---------------------------------------------------------------------- \
ĠC LE
tm in
-> __
neg ative
-- ;
si mpl
P AS
cl asses
Ġp al
0063 0100
ĠInter face
VI R
ĠFunction s
ĠMA KE
str chr
) ++;\
- =
er ation
spool ss
ct ime
ĠPO SIX
Ġ ))
ĠS top
D ialog
orig inal
Ġresol ution
Ġcan cel
reg ions
11 000
Ġ1 44
90 6
ĠSTA CK
3 16
VIRT UAL
28 8
w sgi
Ġhigh er
Ġ} }}
mem bers
=( /*
ĠDH CP
Ġd ay
ĠA c
do s
94 4
call s
ĠI MG
Ġy ear
g iven
ĠM R
E val
F ill
Db Free
BUFFER S
ator s
MP C
p Db
Ġh ot
cap ability
ĠEX TRACT
================================ ================
SP ARC
ut er
50 8
l me
C r
Ġnd as
as ing
Ġcomponent s
ĠF FE
und er
Ġbyte stream
p T
up er
ĠI V
com bo
Ġ ----------------
URN AL
RO UT
ĠUN I
ecere NameSpace
if a
29 8
97 8
Py Int
20 11
Ġback up
w char
M is
ar se
Ġis csi
Ġtim ing
90 7
sy stems
br a
8 192
row ser
LE SS
ĠF ail
pro duct
ed itor
p Mac
s il
Ġsy mtab
Ġ10 7
un pck
N r
Hash Table
Ġout er
bat on
64 9
99 4
LL OW
RG BA
37 2
RUN NING
3 87
Ġconnect ions
ĠC G
Ġscal ar
Ġas k
Ġresol ve
{ -
ĠGL ee
ing er
Ġt y
Ġfor k
, ${
THRESH OLD
CT R
SR AM
DIP NAME
Over flow
tt arget
Ġv pc
ĠR un
Ġm buf
b eg
C tl
el en
tbl k
Ġdh cp
Ġwp abuf
Ġ) (
irq s
extr adata
PR T
pro ject
S UR
Ġ199 3
E UC
am ing
N IL
27 9
ĠM in
Ġco vered
35 1
ĠUS ER
g ree
Ġb g
Ġde m
Ġp itch
ĠH at
acc um
Ġmem bers
/ (
qu it
pR ight
Config uration
Ġ ------------------------
delay ed
chan ism
q dev
Ġe m
Py Array
Ġgroup s
V irtual
w ide
A INT
57 0
Ġo ct
84 4
in vert
86 8
Ġw ide
ME D
ĠUn known
ĠST V
AG MA
S w
aaaa aaaa
54 7
X IO
Ġu bi
t two
tt ask
xml Char
t J
t TIFF
x ge
tr v
Py thon
Ġpar m
Ġmp c
Ġco unts
BIO S
tf atal
mult icast
Ġif ace
Ġx t
AB O
Ġv ertex
ndo uble
ĠD irect
NO TICE
n model
l on
~~~~ ~~~~
re verse
96 8
Ġres pect
m h
Ġgover ning
Res erved
ĠRE AL
ING S
Ġed ges
cr a
base d
Ġ************************************************************************* ***/\
CH R
sp ath
ĠRA DEON
ĠD avid
Ġd uration
Ġap plicable
place ment
Ġat tach
filter s
FF F
Ġee prom
Ġ2 40
ĠG SS
xff e
tig uous
Ġxml Mem
w ant
ĠR o
Ser ial
tt st
ĠDIS ABLE
ĠR D
Ġper formed
Ġbound s
t config
Ġdescrib ed
Ġi e
Ġb order
ĠDet ect
S upported
R CC
sl ash
AFF S
rw lock
comp r
Ġ1 22
yg on
Ġtermin ated
Ġs low
ĠI SA
Qu ant
Ġc tr
Key s
ĠY O
cl p
*/ ),
ĠGET JSAMPLE
Ġst k
Ġun able
ĠP P
OPTION S
list ener
B K
4 80
ĠOUT PUT
Ġper f
t am
Par m
Char s
37 9
s len
Ġr k
seg ments
comp osite
Ġr n
max len
block ing
RE TRY
ĠUn icode
ĠC am
Ġiter ation
fs m
Ġim mediate
SE COND
tstr cat
select or
assemb le
m ib
LI P
cmd line
UN SUPPORTED
Ġcounter s
Ġif ndef
Ġbehav ior
j j
Y TE
ET TER
tx q
name len
CD D
se nce
. ,-
Sh ow
us hed
ASY NC
sub dev
D OT
path s
n bytes
G IMP
Ġp te
ncase cmp
] )(
TAIL Q
can f
du ced
t ld
CR T
ĠEX P
rout er
ĠSUP PORT
PE M
98 5
Ġt bl
par a
Channel s
s pe
Ġsignific ant
Ġfr vbf
as is
tr uncate
x en
r hs
Fr m
ts ock
Ġu char
ĠI A
ac ct
READ WRITE
li as
40 9
ĠS G
tms leep
Ġpre pare
tm td
EP FN
A XIS
Link ed
pk cs
tnt fs
ĠRE SET
Ġgo es
LIT TLE
. "
ĠD RM
Ġi oc
malloc Failed
sub s
3 36
Ġio v
STY LE
tr ig
B ound
-------------------------------- ----------------
++ ];\
SP ORT
SH UT
2 18
MO USE
Ġre m
Ġch arge
OK E
ĠI E
f use
h ub
Sign al
86 5
rd f
SD IO
St orage
d ptr
b mp
Ġcomple t
54 8
Ġrespon s
sequ ences
sub type
Ġexec uted
ĠS RC
0 80
ĠIn fo
F c
lib c
SL JIT
tc nt
> ",
Buffer s
P ix
H U
ĠCon tribut
() \\
tout put
pW al
Ġlicense d
13 94
ĠN S
xdr s
ĠCO RE
Ġsys fs
ro l
xy z
)) /*:
SI DE
CONST ANT
PCI E
RIPT OR
W ork
RE ATE
hed ule
ĠF O
t net
wh ite
ter s
87 9
Ġo gg
(" <
Ġcompat ibility
ĠA CK
ach ine
L ayer
GR AY
tf lash
97 5
ĠDE CODE
FL T
84 7
Ġb fin
96 6
ĠH I
W rap
200 9
r h
k vm
ĠNE ED
ĠI d
ĠH ere
Valid ate
ap sed
Ġbit pos
v n
w ifi
r nsap
prec ated
Trans fer
Ġd yn
20 56
ar ily
ins ns
Ġs vc
Ġo l
Ġ@@ \
4 0000
38 3
ST AND
FORMAT ION
over lay
p Left
200 3
t mac
x res
ĠB C
fil p
m ci
Ġco ff
ERE N
Ġsim ilar
Ġre duce
Ġout ptr
94 6
tf close
ĠDR V
! ");\
ec ause
loc ity
Ġ ENOMEM
SA MP
R SP
Ġassume s
ĠVar iable
GNU C
ĠGL X
Ġd lm
X FER
ent ly
PORT S
Ġle x
ĠS im
2 00000
Type Error
Ġext end
ĠA TH
dB m
84 6
200 4
------ \
U til
Ġin correct
t copy
N STR
re ction
Ġ1 26
ĠL ETTER
c plus
QU OT
CI FI
Ġderiv ative
l h
ext ents
Common Cfg
28 4
ĠC B
ĠS PR
LOOK UP
33 1
5 000
Ġd v
LD AP
doc ument
Ġd ie
Ġfile system
") },\
83 50
] ");\
211 9
n fc
ĠC X
200 5
n A
Ġp ick
*/ "
Ġf loor
h at
r ink
800000000 0000000
Ġx xxx
ah c
Ġdi ctionary
v q
Ġv endor
ST O
Ġ199 4
Ġpe ople
ĠA E
ĠP PP
Ġde pending
Ġre covery
ĠC lient
watch dog
sub req
Ġan sw
io mmu
COUN TER
HANDLE D
l arge
3 88
Ġrow id
i B
gp u
encode d
und o
F e
fer ior
Ġ1 47
ĠSY MBOL
al gorithm
WORD S
Ġc id
button s
Ġth ink
T cl
ĠP oint
str str
tw p
Ġw char
ĠU I
d io
ifi ers
Mon itor
h h
tRT MP
samp ling
Del ta
Ġre ach
ĠUn ix
Ġr i
tre f
ĠC AP
ĠR ange
vector s
40 96
UG H
Ġb nx
tain s
Ġu dp
Con n
Ġproces ses
as ize
t it
ĠCOL OR
f actory
SS H
t conn
ĠD P
STR AINT
Ġout line
ff e
Ġwh y
ro ke
sp a
08 99
57 5
Ġre cur
Reg s
Ġ& __
Ġ1 23
ĠAN TLR
sd io
TE MPLATE
ĠPar ameter
C ANCE
Ġstd in
LOC ATION
Ġde p
Ġbuf size
ABO VE
t item
bit rate
sym ndx
re o
Ġshould n
Ġexec utable
tassertEqual Int
be h
O w
Ġin b
Ġg row
qu ad
n METHOD
k a
ĠLOC AL
C DC
iop ort
Ġx tensa
ĠU Char
Bo olean
ant ial
Ġe ver
VI C
t MD
Ġ================================================================= ===\
ĠW L
V O
par sed
ib ration
ho le
S LEEP
GR P
Ġmodule s
37 8
Ġff est
D APM
ĠS CTP
Ġf g
ĠF lash
OPER ATION
d cb
at m
ĠP WM
w t
n DEF
54 6
t nc
dat um
Ġcol ors
f it
ĠG OT
98 3
] >
56 6
int errupts
ĠN ONE
pV tab
Ġsub sequent
Ġrule s
sp u
\\",\\ "
interrupt ible
ĠCUR LE
Ġs hell
ID GE
00 40
o ct
tDebug Trace
CO S
zErr Msg
. ,\
KD DI
55 4
real m
ĠConfig uration
td ump
Shm Node
p md
94 8
95 9
ĠT V
OI CE
ĠN UL
ex cept
scal er
O ccur
ans ion
Ġs ubl
ĠR ow
n av
9 000
ĠĠĠĠĠĠĠĠĠĠĠĠĠĠĠĠĠĠĠĠĠĠĠĠĠĠĠĠĠĠĠĠ ĠĠĠĠĠĠĠĠĠĠĠĠĠĠĠĠĠĠĠĠĠĠ
ĠS IP
Ġ# ${
ra id
close d
... )
Ġwh ite
Ġpg no
fore ach
Ġlist en
Ġ1 24
Ġbl ank
] !=
INST ANCE
Ġo ctet
Ġinter mediate
t attr
Ġmay be
err un
log on
pi ct
C ritical
Ġdis p
start up
00 80
8 31
C MS
include s
Ġbit size
bi as
ST DC
B ank
Ġd f
ĠA PP
I ES
Vdbe Mem
SO LE
A ff
n size
Ġv ty
num eric
ĠU DP
Ġre ject
Ġe c
def aults
sh ould
ot ent
W AL
d uplex
ĠL Z
er ated
D r
Ġcr is
Ġx ixcore
ele ction
ĠS SH
ĠPy Dict
n ed
Ġtext ure
trans late
Ġroll back
57 4
ĠREG ISTER
34 1
PA GER
Ġqu ote
IN DIRECT
F ETCH
Ġw orld
GR A
ĠGD K
ms i
work er
c ptr
PRE L
Ġa ctx
ĠM ask
R aise
st re
00000001 00000000
Ġcon sider
list s
] .\
std in
Ġ{& __
Ġc ustom
ĠS CR
Per iod
in cluding
R NA
tw ake
Ġpers on
EN CRYPT
ĠL INE
call er
reg istered
PA CE
I MPLE
Ġme tadata
Ġf i
SE PAR
Ġposs ibly
pg a
Ġspecif ication
P ING
of day
\' %
LO PT
n is
Ġdef aults
v ga
us pen
tt otal
ĠP lease
Ġsh utdown
EPFN GL
01 8
SEL F
c ing
" -
n else
per im
ĠNO DE
Ġco ef
fin i
NO W
44 7
e qu
P layer
Pro duct
Ġb al
PROG RESS
S m
ĠFree Type
Ġse ver
STR IP
q i
and s
A tom
AD B
T ypes
p adding
Ġmat ched
77 4
SI ST
Ġ1 40
Ġad v
ffffff f
S imple
Ġes cape
AB I
Ġm aint
SPE CIAL
Ex tra
________ ________
E lf
to d
i um
k ern
tl ua
ĠCON F
Ġline ar
Ġiden tif
Ġ***** /\
__ [
Ġb f
Ġlog ic
anch or
Ġp ins
Ġf m
ĠRES ULT
Ġcontribut ed
E AGAIN
e i
Re p
tpar am
ful ly
37 1
ITION S
WH ITE
ĠSt ack
cn tr
g adget
v u
oc ation
p Schema
ĠM CU
Ġav ail
90 5
al th
cap abilities
Ġh aving
t no
p xd
alloc ation
t me
ad vance
y res
Comm it
md io
Ġ3 00
MSG T
ĠA r
Ġ.. .\
ĠS Z
Ġx en
ĠD el
b rightness
tw in
counter s
Ġ(! *
tk rb
P WM
. "\
n H
N OR
Dig est
sb i
84 5
mp c
Sign ature
Ġwe ight
f cs
ad io
I con
as c
S witch
lf w
Ġreg ard
un iv
20 20
ĠDe bug
s iz
x v
Ġr q
Ġarg p
PROPER TY
CHANNEL S
BL UE
pro j
t opt
ot or
pack age
*/ =(/*
Ġcost absolute
READ ONLY
tre es
in ing
aff ic
IN STR
EX TRA
ext ensions
irr or
EP SG
Ġwatch dog
Al ign
21 00
Ġimport ant
Ġtak ing
99 5
C ANT
rc buffer
un wind
W nd
Imp ort
ser ialize
ĠF W
JO URNAL
L PC
AD V
debug fs
ĠCon nect
o logy
Ġp Mac
conf lict
Ġp icture
Ġ1 25
ĠX SPR
net inet
il i
T G
Ġ================================================================= ====
Ġmis match
fin ished
90 9
ĠIn formation
ĠTr ace
level s
Ġins ns
54 9
Ġ qual
Ġ\' )\'
Ġget ting
Save point
ĠG o
UN TAG
ĠD ump
28 9
UST OM
Ġp ip
quot a
ĠPRO JECT
ĠF rom
u Int
Ġf mpz
Comple te
Ġ1 13
ist ic
M ER
su api
r anges
ĠM I
k f
sy ch
ĠR M
PAR SER
87 5
as printf
TR AP
Ġp xa
ts csi
K RB
P ipe
/*------------------------------------------------------------------------ ---*/\
DE B
ĠD raw
ĠRes ult
ĠPO LL
MEM BER
Ġre vision
input s
tis c
t us
54 5
ev en
ĠN IL
tg f
te ch
c rop
j a
Ġg nc
sk top
n read
Ġp Item
em o
56 9
r port
tb fa
alloc ator
53 9
Exten sions
tp hp
que ued
spr ite
S ector
Ġ1 0000
user data
55 6
time ofday
( %%
Ġpc rel
ur m
Se curity
Net work
ĠU RI
s ctp
Ġh t
CONNECT ED
Ġadd ition
Con d
Al locate
Ġ* ----------------------------------------------------------------------\
con cat
coord s
87 8
Ġint erest
US AGE
Ġcal c
ml me
Ġchar set
rect angle
Ġleg al
LOCK ED
Ġad j
ĠP age
s ax
Ġ, "
ĠA CL
ĠP acket
ĠCLA IM
ĠS DP
Ġ ke
in ct
Ġ)\ '
S eek
Ġf use
it able
str oke
PER IO
9 31
77 8
Ġreg num
ts pec
] &
Ġgl Vertex
ag p
PLAY ER
S ame
Ġ1 14
tx c
ĠxmlMem Blocks
3 32
MI SS
s addr
ĠE S
ly ing
Ġp anel
gr ab
ĠQ DB
de ncy
ĠU BI
CONTIN UE
AN PREFIXED
0 57
t ir
m ust
Re vision
tG tk
REC V
b z
Ġa ffect
Ġtermin ate
Ġmult icast
En tries
pre dict
inf op
Ġsect ors
S oftware
T BL
t tc
( ",
ĠL ast
Ġoptim ization
Ġex ceed
ĠCON T
t line
ent ropy
ĠC REATE
r ssi
X OR
ag ing
ĠLO CK
t vec
Format Context
bit field
Ch ip
Ġex clusive
dir s
3 17
RE TI
IN CLUDE
DU CT
g cc
d id
H INT
Ġp ll
Ġscal ed
ĠP IN
ver b
ĠJ DIMENSION
SF ER
cs um
| =
AUTHOR ITY
st ype
o sh
Ġmax len
F lash
F ail
Red uceAction
ĠV FS
IM ARY
Ġbu iltin
Ġvector s
mod ified
DEBUG F
Ġp error
ĠF ORT
Ġassign ed
p seudo
Ġw arn
H int
00000000 000
m al
P kt
ĠP ass
FT ER
0000000 2
CE LL
t co
t command
Ġgr ay
-> \
ĠSpec ial
50 3
56 8
H F
are st
v et
g uint
bucket s
## _
he llo
WAR D
Ġyy msp
Ġp ull
From String
ĠCLA SS
ĠS EN
B oot
Buffer Size
SH M
Ġ3 39
to bject
ient ation
/**************************************************************************** **\
D im
ĠLO AD
x m
d ss
Ġcre ation
ĠL e
Pr ior
CO P
CONTA INER
SE CT
Ġo id
APP END
x s
ĠR NA
RO UP
Ġb roken
ur ge
TI LE
t acpi
ĠA BS
Ġ10 9
ĠSO AP
MAC RO
> </
ins pect
EV T
Ġ /\
Ġcomp uted
vis ual
40 2
ĠN ID
I ENT
Ġ/ *****
x i
Ġpro duce
SC S
he rent
ĠA ttr
de m
Ġ 802
ns ure
ĠS TO
to map
02 6
Ġun icode
/************************************************************************ ***/\
m ing
M ngr
VR SRV
Ġ# %
ĠN OP
qp el
ĠS can
02 2
ST OR
V GA
um ing
ĠX T
L CR
T M
w a
i ot
56 78
Ġde tection
G M
ER IC
te ap
ĠEx ten
a Data
Ġth row
Cl ip
Ġno tification
sens itive
Ġth ird
ttr ap
Ġl f
Se cond
xa ct
Global Config
88 4
lex er
w iphy
ne igh
w ave
Ġus ers
Error Code
Ġ1 17
ĠPK IX
re quired
Ġh c
ĠR TEMS
GL X
Dat abase
ĠPlay back
Ġexpress ions
ification s
Ġim ages
th ru
ĠC ould
B ar
Err no
S CO
Ġint ern
n W
x id
t ul
Ġp data
), "
Ġe asy
HO OK
C sr
Ġp T
COR R
n DECLARE
str toul
Ġhandl ers
Ġpubl ish
CY G
Ġ(! __
TH ING
sb b
ro le
ĠP ATH
ĠL INUX
pin s
t PCI
c yg
t update
que ues
Ġconstraint s
arb age
Ġ* ++
tf irst
ASS OC
fo cus
ĠF ix
Ġh d
lv l
SN DRV
ĠX C
ITH ER
MP S
cplus plus
Ġre mov
z p
ap t
REX IT
5 19
33 8
FO REACH
V F
38 9
Ġf ake
po ses
I ZE
Ġcoefficient s
c db
Inter p
Ġansw er
ĠI gnore
ĠE F
Ġse p
ov erride
M SR
m as
Ġs amp
Ġch oice
Ġp lat
Con tainer
hal t
VARI ABLE
OT AL
Ġtext ual
Ġcomplet ely
200 6
ĠE xec
eg ers
simpl ify
Ġm ix
pk g
DEL TA
pl ies
t found
Ġ"\\ \\
ME T
g row
Bo ard
ĠI L
Ġint egr
tv p
Ġ1 75
CH G
ĠSN MP
ĠI o
i Col
E CC
tc ache
C ER
cons istent
ĠC lock
C AM
Get Item
ARG UMENT
0000000 18
Ġt ANI
tT L
en et
de alloc
Ġs ays
Seg Reader
Comm ent
Ġsp aces
Ġt k
s li
ĠU IP
n print
ĠSK IP
b rev
D X
c ategory
pre f
Ġobtain ing
Ġsp an
ch anges
im ing
02 7
v ap
ĠZ C
Ġal t
cr l
is s
xml Str
BR ANCH
Ġs pl
Ġrad io
IB M
de le
ĠBIO S
Ġf aster
ĠARCH IVE
l pc
ĠF N
z ma
out b
Ġl icence
t chan
EA K
W EP
TX T
be at
Ġlevel s
Ġr id
CT URE
Gtk Widget
po ss
ĠOR DER
File Lock
Ġe h
al con
66 7
f ld
st or
tick et
Ġload ing
Ġl a
to uch
Ġ4 00
t IR
NV PROC
T URE
if orn
iforn ia
F lush
ĠS ide
ĠINS ERT
80 80
e hci
Ġ@ {\
Ġtrans ition
FT S
Ġupd ates
B W
de init
Ġp hp
Con s
Ġ* ************************************************
AM L
ĠMK TAG
t client
u data
Ġstr ncmp
N PE
tre c
MP T
frame buffer
Ġg ives
tn p
M ID
id y
dec imal
M K
-- -+
ĠM PC
th d
out line
h x
token izer
Ġlo ops
Ġassume d
atter ns
str icmp
KEY S
dest ination
b roadcast
7 000
Ed ge
u ip
\' },\
in x
# \
= >
ed u
ET TE
SHUT DOWN
Ġcause s
D ot
Ġlo st
Ġc atch
00000001 00000001
Ġel t
stand ing
ĠE Q
os d
Ġoff s
adap t
ĠL DB
am bda
mail box
Ġx or
ĠA G
ĠO ff
ind ices
------ -
at able
PRO T
Ġpro tection
Could n
ĠD ST
Ġxml NodePtr
k m
Ġar bit
fd t
tp l
Ġhost name
N eg
Get Attr
to o
{\ '
ph i
xd ump
t WARN
os ition
Ġ* ------------------------------------------------------------------------
Ġl sa
tc all
77 9
SS P
f ns
t idx
Ġc vt
t PR
Ġa z
reg cache
Mo use
Y PH
Ġ!= \
Ġt ex
ĠTech no
cap ed
ĠC E
04 7
ĠO TV
Ġmp eg
Ġe as
ĠInt ernal
Ġfre ely
ĠI CMP
ĠPro duct
K ILL
r sv
ĠD F
nT he
Ġ- (
3 34
n as
re quire
AC Y
SY NTAX
B LA
t ZERO
Ġif p
RT MP
K R
ar ator
ĠSy s
Dir Entry
S uccess
B X
Ġport ions
_ *
Rel a
KE EP
ARCH IVE
m ip
(" _
84 9
Ġad dend
Z x
tb ytes
ĠE IF
r chr
ĠD IR
Set ting
ĠJ ERR
l st
f ab
w nd
ST MT
WA KE
EXTENSION S
Ġ(( *(
re map
end p
ĠS IGN
BB BB
Ġ%% "
F UL
01 9
Ġg fs
Ġformat s
ĠN IT
al ity
b fin
RELA X
U DO
O id
nGL boolean
Dir ty
b arrier
J OB
ĠG r
HAL F
DESC RIPTOR
I CON
Ġm otion
tp rop
Ġus ually
k r
Ġ1 30
ans i
ĠV EC
Ġn tfs
Ġc enter
in flate
ER AL
mode m
side red
( )),
L ON
| (
ĠI nd
ĠA uto
Spec ific
dd t
Ġin cr
88 9
comp s
pa int
d get
Ġpl ain
STRUCT URE
NAME SPACE
ĠS CB
Ġu Long
p mc
ng imp
Ġres ume
Ġ1 74
58 5
t queue
Ġc ir
da emon
Set tings
OCT ET
il ing
Ġs sh
Ġ ign
ge om
an o
out f
crit ical
) .\\
d fa
ch or
66 9
ĠDR IVER
UN DEFINED
ĠT M
ĠAl low
c data
Ġff i
Ġvis ible
LAN G
ĠT d
xb fe
Ġbeco me
vol tage
/**************************************************************************** *\
tv is
UP PER
. ;\
ST E
Un i
CONNE CTION
IS SET
n Py
Ġs oft
c msg
Ġ(* )(
sr na
ĠFLA GS
or ies
t RC
Var int
Ġsimp l
R ule
ĠTr igger
CP Y
GO OD
ff t
3 80
Ġre strict
SCA PE
ĠSet s
termin ated
cd c
== \'
SE UDO
12 00
LI KE
4 95
a Col
Ġre mainder
C re
sc c
Ġlook s
Set Item
M ov
ĠT ALLOC
f ib
tt ty
ill ise
ren derer
F mt
DI ST
CL S
co d
ĠD en
000000018 0000000
(" (
g ive
Ġdo m
RE MOTE
ĠĠĠĠĠĠĠĠĠĠĠĠĠĠĠĠĠĠĠĠĠĠĠĠĠĠĠĠĠĠĠĠ ĠĠĠĠĠĠĠĠĠĠĠĠĠĠĠĠĠĠĠĠĠĠĠĠĠĠĠĠĠ
h ib
CI SION
A ux
C al
non ce
te c
n ROM
ĠE A
Ġmail box
WR ONLY
Ġend s
sc n
Ġexplicit ly
EN TRIES
t ulong
Ġl c
Ġcompat ible
it ches
ex pires
ush ort
Ġnorm ally
Ġnl a
EG AL
S k
lo ut
a im
co e
uf act
" },
Ġr B
UR NS
ĠC API
Z ONE
i j
04 2
srv svc
wh en
ĠAV R
dis card
Al pha
Ġfix up
ro te
tb e
Ġh y
RE GE
dd y
Ġbel ong
90 3
") ==
Ġpre p
P g
i et
m ute
n ut
Ġin str
P air
*/= ((
tpar ams
N ote
ĠA pp
AV CodecContext
ne ighbor
d type
t CLK
Ġn py
su er
dev exit
M ul
ĠRev ision
k free
Ġp Node
Ġcon tinu
de nce
ĠNet work
N FS
tDBG PRINT
PRO XY
ar row
W B
M SI
tp d
td ns
ĠJ im
END POINT
t ell
ĠAss ume
Ġf at
Ġn id
tx n
Ġd B
Ġnum eric
Ġwarning s
ph one
step s
Ġretr ieve
t timeout
Ġco mes
Dis k
g lob
/* ----------------------------------------------------------------------
f ire
d ts
ST ICK
sub tree
Ġun expected
C ase
29 2
Ġwh om
ĠC U
tre quest
[ ];\
Ġch anging
Ġext ensions
L N
ge ometry
ex cel
UP LOAD
pro tected
ST P
IS K
Ġ(;; )\
ĠAd ded
ĠCH AN
S peed
de tail
ĠM ain
LA B
Ġnew ly
Exec ute
w as
ĠB ack
Ġcon sidered
Ġpro tected
ADJ FP
Frame s
ĠSu ccess
58 9
pV fs
GRO UND
4 60
ĠV T
DE TECT
AN SI
I FF
Con troller
4 67
tm r
V ol
Ġse ss
09 00
ĠU LONG
Ġtermin al
ok er
: ");\
t lo
LE AVE
Ġpar ity
S OL
ĠGL boolean
co ld
C ert
RE CE
G REG
y nc
( /*
r ts
Ġ) )\
RE COVER
tab s
z en
SC RIPT
ĠRe port
++ ++
H L
MA IL
ĠS int
Ġx fer
1 000000
ĠN F
M AL
DE AD
un ce
> .
module s
t ctl
r at
Ġh ighest
er ies
ann ed
t ctxt
Ġtw ice
get her
Ġpur poses
sub device
tp i
ĠM at
Ġlimit ation
R ing
c be
85 00
no tification
c il
TI VEC
ĠS ol
te am
Pro gress
ch ans
Ġw ps
3 97
Ġcol l
ER ASE
so me
ĠF ixed
Ġpoint ed
t an
Ġv oice
E AR
id den
L at
Ġsever al
ĠV ector
ĠI G
ĠRest ore
Ġm ii
resol ution
ep i
I Q
Ġub ifs
AL ERT
Ġc v
NEW LINE
C NS
AV R
g ent
ts how
) <
f old
tS h
40 30
Ġstr ict
Ġfl ip
Ġv b
phys ical
Ġ0 644
ĠL et
55 9
Ġstop ped
termin ate
t context
ĠA LIG
s ite
EREN CE
Ġ" ?
Ġincre ase
pc ie
AD R
ea con
Ġ1 18
8 001
fo ut
xE th
ren gth
ĠS tream
[ ((
bo s
8 18
I p
Pre sent
Ġ um
ra deon
m w
re covery
ĠThe y
t fe
U GIN
Ġstr str
Ġappear s
ign um
Point s
60 6
Pr inter
tool s
Ġ2 50
xFFFF FF
Ġsc roll
Ġcr ypt
Ġun def
po ch
write b
F AR
EX TRACT
28 2
Ġbind ing
Ġl ight
ĠCol or
qu ick
SEN SE
ĠGL int
57 9
Ġreg name
Ġvert ical
Ġrights hift
W P
INVALID DATA
ĠIB M
Ġremain s
ĠSHA RED
ĠB r
RAD IO
c xx
? \\
L ight
s is
SIZE OF
Temp late
ĠA ML
ĠZ END
g mail
22 22
C k
t asm
t EC
p addr
r aster
MON ITOR
SYSC ALL
ĠS OL
ĠS upport
ĠDe velo
ĠV DBE
/ )"\
Ġ\' =
g uest
D CR
E SC
Ġ*/ \\\
AD ATA
Le af
800000000 0000001
Ġl ineno
Ġon to
bl it
ĠTILE PRO
ttr ace
I dentifier
*/ ((
B P
Ġsubst antial
FP GA
Ġcell s
ĠP TS
free p
VER SE
ĠD CR
ic o
t del
Ġp sz
Ġg dk
Ġapplication s
ĠMP ID
Ġh ci
Ġtime spec
v box
A ng
p sub
ich ar
ĠZ ero
S SED
MS M
ib m
aud it
O v
n est
ĠM on
Ġscal ing
txf ree
d ont
str ncasecmp
wait ing
sq rt
Ġf id
Ġix gbe
n OP
ĠTh read
X v
ĠNON INFRINGEMENT
ĠR el
l ba
04 4
t ct
Ġ! _
ĠG dk
w ater
P hrase
Ġs aa
a q
msg s
urn ished
tp halcon
ipp et
dat alen
I US
Ġto uch
md dev
mar sh
Rece ive
ĠFA ILED
z oom
ĠDE AL
signal s
t PyObject
fr v
Ġimplement s
Ġs x
ĠQ ue
ĠALIG N
nx t
v orbis
al ert
client s
ĠFIR ST
nG AME
stat ion
x is
Oper ator
IN FORMATION
tR eturn
dim info
n Cell
Ġst m
x prt
Text Reader
Re ason
\' .\
n float
tT cl
B ss
S ingle
]== \'
Ġ\' @
Ġqu ick
80000000 80000000
F re
RO UGH
t ST
ab stract
Ġl if
ĠL S
comp ound
[ $
ĠC LOCK
Th reshold
ac b
d addr
it ude
Ġin vert
mo s
Ġw ants
ta u
Ġt st
ĠHead er
rel a
DI AG
Ġd ropped
az z
ĠAd just
ĠF re
mon th
Ġf ee
Quant um
LE G
ĠH igh
M MAP
fr ac
tu ae
dap m
Ġpers ons
Orig in
no op
n STATIC
mem c
CR L
F orm
Ġcho ose
ĠPRO CESS
nE FI
T ail
g w
Ġpar allel
Ġse maphore
t ff
enc il
Ġlarg est
mp p
ĠER REXIT
327 68
band s
ch allenge
dir name
l ish
\\ [
4 10
tb yte
Ġs uspend
t ssize
es a
is f
SU RE
cal led
l and
Ġsub system
C ST
ib ble
Method s
t frame
De coder
8 80
Ġ(! ((
CON SOLE
ĠW AR
STR LEN
39 3
i end
L ed
g fc
Ġare n
ĠEN GINE
er ature
O E
z er
Ġ6 00
ber t
rg ba
Ġyy gotominor
ĠM EP
ĠP ager
SUS PEND
ĠE nsure
pcm cia
04 5
SEG MENT
ĠPAR AMETER
TR UNC
Ġun supported
dm am
Ġp R
Ġfr action
part itions
ĠLicense d
lim b
R IX
Ġj j
ĠW ith
TRAN SFER
as pect
ĠSrc List
ĠTR IG
Ġs scanf
ul Base
DO G
y nos
Ġb aud
s ge
ĠAB ORT
---- -\
od d
ire less
NET WORK
ĠC LI
tp er
std call
Ġad c
AB C
dat aset
av en
ĠL ZO
sd l
s ical
sm i
ĠT arget
f ers
Ġb m
Ġv o
d g
% .
67 6
n Mem
p unpck
28 00
Do clist
Sta Cfg
Ġ" @
CON STRAINT
db c
ĠB L
Ġpoint ing
ĠL INK
RO LE
ver sions
w lan
Ġj ava
47 0
Ġround ing
f u
by name
in q
Ġopen ing
fin ite
\\" ",
V ec
t link
u ite
A lias
Ġdat atype
Ġs anity
int p
f ar
me ch
Frag ment
Map ping
SIB LE
reach able
B GR
Ġaction s
ut ions
DEX T
55 8
D OUT
V IO
t KEY
exp ire
min us
Ġ***************************************************************************** /\
Ġtrans lation
is space
Ġdis patch
tP G
En code
p type
Ġde crypt
Ġar ithmetic
oc us
EXT ERNAL
HE RE
Acc um
Ġint egers
G AME
Ġgr ab
t Com
ĠUN DEF
pro cs
b cs
SCHEMA S
ans wer
l ication
NOT SUPP
B ody
RET N
N X
t channel
ul us
Ġc at
AV FormatContext
PL AT
OP S
dy nobj
ts ym
ĠCal ifornia
Get String
us ic
a ac
Ed it
Ġref resh
Ġstep s
ad min
over lap
Ġb ss
Pass word
": "
Ġt db
Ġhold er
p ag
ADD ING
emit ter
P ost
ĠCOND ITIONS
Ġf urnished
re w
0 32
Expr List
T OR
HI FT
ĠDEAL INGS
Ġac comp
00 200
SPE CIFI
Ġk mem
Ġgener ator
n ENUM
PRO DUCT
Ġp len
W alk
ĠIS FUNC
cr t
ĠX m
Ġip w
Ġreg ulator
LAR GE
Ġu d
ap ache
:: ::
REQUI RE
ĠMD IO
fo ur
64 3
ĠV IDE
ĠW S
n st
: "
ĠIN STR
IMPLE MENT
UR ATION
ĠT idy
sh l
G AM
Ġb asis
ĠA ccess
Ġ1 57
n str
ICC i
PN P
-+-+-+-+-+-+-+-+ -+-+-+-+-+-+-+-+
Doc ument
t drm
9 58
Ġp jsip
Ġbl ack
fl at
w lc
Ġgener ation
WR IT
res id
ĠF LOAT
AL C
ĠM ar
Ġet her
li es
pix buf
A CON
Ġbeco mes
U Char
Ġ2 24
ĠHAND LE
VI SION
w all
ufact ure
SHA RE
sel ves
peak er
COMP LEX
Ġin div
g lfw
ĠA SC
Ġcalcul ation
TRIBUT ES
NO MATCH
Ġ** )&
WINDOW S
Ġn ic
Ġnew line
FIELD S
frag s
Ġ: -
Ġhow ever
ta pe
o le
Ġ ur
Ġsy scall
tr aw
t ns
ĠK ER
t WR
mc ast
p Select
ad m
glew Str
S AM
Ġ10 6
RESOL VED
C od
sys log
f ake
Ġmak ing
iz ing
ĠDe code
i buf
we apon
ĠEx tract
H ER
FILEN AME
DB L
tb r
ĠM ass
gr ade
Ġuser name
ĠG iven
G ain
std arg
n yy
Ġde termin
uint ptr
tra verse
b cd
60 5
66 8
ĠAUTH ORS
ĠN aN
om as
Ġcard s
ack ed
ĠALL OC
Ġn an
go od
Ġbreak point
file stream
ic ated
Text Writer
ĠExpr List
is csi
reg istry
qui et
t ate
ĠE d
Ġl aw
ĠRE Q
ĠFOR MAT
st k
tr A
Ġsc atter
96 2
Ġe ar
Ġz end
ĠO ver
uspen ded
ĠMod ifications
nd array
oc ument
Sc al
u ck
ts mb
Ġz eros
ode v
nc p
MM Y
d cc
le e
Ġis c
ĠG raph
Ġb rc
199 8
ab y
ty affs
9 08
ĠL imit
td p
ir t
0 30
ĠCK R
n F
H ook
def inition
ad ient
(& __
Ġg ui
Ġh tml
u cs
CF GR
E ngine
Ġdecode d
s buf
Ġ ql
t IP
Ġe mbedded
ĠE INTR
l ut
**************************************************************************** ***/\
0 50
Ġstr tol
Ġic mp
S MP
ĠC TRL
FI RM
L Z
Ġde mux
n ip
ac er
in ptr
b all
H Y
d wc
samp ler
mp u
Ġe cho
Ġ ],
UN SET
Le ave
PAL ETTE
tun nel
se n
S kip
Ġinput s
h mac
ip ient
Ġd fa
5 11
Ġa cl
Ġre n
ph an
W GL
us able
J oin
ĠW ork
ap er
A REA
ĠCH IP
i ated
Ġm lx
OC SP
ĠĠĠĠĠĠĠĠĠĠĠĠĠĠĠĠĠĠĠĠĠĠĠĠĠĠĠĠĠĠĠĠĠĠĠĠĠĠĠĠĠĠĠĠĠĠĠĠĠĠĠĠĠĠĠĠĠĠĠĠĠĠĠĠ ĠĠĠĠĠĠĠĠĠĠ
Ġm lib
ĠpW al
s dram
Ġld ap
T EX
g us
ĠVM STATE
d so
ĠDes criptor
( #
A UD
ĠF M
9 10
71 10
ĠC RED
fl g
\\ ]+
Ġc sr
Ġsh if
Log ical
writ es
Ġeth ernet
Ġn op
EN XIO
ME TA
] ",\
tsh ort
Ġ/ **\
Ġtrig gers
Stat ic
b map
ant is
JS ON
ĠC FF
tg uint
av l
ĠK B
ĠS am
AT TRIBUTES
C ard
B lk
Ġ1 33
velo pe
\\" ]],
ad ded
mat ched
sl ong
v w
Ġport ion
Ġdec ide
ĠJ SAMP
An y
Ġ10 3
ts pi
ĠSt andard
Ġtre at
A bc
LAY OUT
cl ick
reg round
l num
n sp
OP NOTSUPP
def late
ĠD IV
Ġp Info
e ptr
ĠTIFF TAG
str ncpy
or dered
ĠV LC
t stream
LAY ER
tc m
Ġinvalid ate
ĠPOWER PC
39 2
ns upported
str cat
ext ern
mo b
PC R
m icro
], $
cost absolute
S AS
F V
Ch ain
47 5
tf lag
H OR
TIFI ER
t user
ch at
Ġxml Str
" )));\
auth ent
e State
n BOOL
CED URE
ĠMax imum
ĠC y
VE CT
Ch an
Ġmach ines
glewStr Same
000 6
ĠTILE GX
snap shot
comp ose
ts ave
ose n
** )
Ġm rb
Ġque ued
Ġp otent
Ġ\'. \'
DIRECT ORY
X H
ĠO SPF
ĠRO UND
obj file
ST AR
s ibling
Ġs it
v pc
= ",
p am
rc u
Type Object
Ġp ts
tc airo
ĠT G
ĠIn clude
G PR
B PF
Ġ1 73
Ġav g
Ġmean ing
th op
op nd
Ġp file
Ġv im
Ġpath name
) \\\
Ġsc b
zz zz
Ġv lan
Ġrepl aced
W PS
ĠPort ions
sid s
T p
prev iew
F EC
ĠJ oh
t TEST
tn len
ĠPK CS
/************************************************ ************
0000 1
IT LE
client data
Parser CtxtPtr
GET ARG
Ġd wc
ĠBU FF
ĠOpt ion
handle d
RC V
e ch
buff ered
o od
lat es
tN dr
Ġsubl icense
A sync
G REEN
CORR UP
re cognized
u ge
Ġwh itespace
Ġun z
Ġs len
Ġacc essed
= _
Ġf read
07 8
12 71
= *
mplement ed
DIF Y
57 8
tin st
PAR TIAL
Ġl in
," -
4 99
FIX ME
v v
er p
tr r
ĠStr uct
get opt
break point
w buf
04 1
cf b
g pointer
cf lag
process ing
567 89
68 3
noun ce
ag ain
PER F
dd i
tg e
47 9
Ġj int
ĠPRO TO
ALIGN MENT
Ġtrans late
PCM CIA
ing roup
b ail
t stat
ress ion
Ġxml RelaxNG
ĠGL float
th at
( )))
l ip
Ġ}, {
Ġda emon
Ġ1 37
Output Buffer
c sp
nb fd
Ġn a
t netdev
" )))
lat ency
CM ap
tNdr Fc
addr info
SN MP
Ġto gether
28 1
Ġcomm ercial
xFFFFFFFF FFFFFFFFuLL
Ġi ore
di ction
tw r
Window s
2 99
ĠKER NEL
ĠLIB XML
re x
tp p
DL C
BL END
ĠSTO RE
ip ath
Ġlet ter
ĠP AGER
Ġfe ed
H OW
ĠLIB NDR
iv a
ĠP ID
Ġtr a
HK SCS
p de
quir y
4 11
5 34
Ġs un
BO DY
v node
ĠL C
Ġlow est
Ġpj media
RO T
() ->
g ap
ĠI DL
& \\
Ġp ret
tSh ared
w av
ac quire
Ġ1 34
ĠB D
20 13
Dis patch
tm log
tsc hedule
Ġc losing
T ok
ĠWe b
st h
Ġs se
Ġs par
ĠA ppend
At tach
}} }
,, ,,
Ġ1 56
ĠP ost
J ump
Ġt desc
Ġoper ating
mon o
aly ze
REG NO
IC R
i ator
cl nt
u h
Ġb roadcast
20 48
N pe
CHANGE D
p D
U tf
Y w
th resh
pm k
Ġch k
sp ort
ĠAl tern
ĠS IM
ĠA MD
ten able
Ġe cl
44 2
Ġsub stream
len s
Ġd ll
n mp
Ġrun s
PRE C
t FT
Ġ"../ ../
Ġtmp reg
ps r
Ġvalid ation
t CRYPTO
t GET
ts x
ĠCUR LOPT
Ġst ores
spec s
cre ated
Ġu Int
Ġd warf
down load
ĠImplement ation
pp a
tb fd
f type
de t
Ġpro mpt
un ity
ĠPy Unicode
Ġindex ed
t argv
en g
ĠMT D
Ġy es
Ġlink s
Ġre cursive
PRO CEDURE
ME SA
ĠE L
Ġco ding
SYS CTL
GL YPH
SL T
comp act
Ġp cache
ire t
RE CTION
RE START
ĠI I
request ed
is sue
ĠT D
ts r
Ġ* ****************************************************************
EXT ENDED
7 134
ic ount
y o
Ġd bus
pr m
ĠB EG
oss ible
Ġreport ed
Ġl cd
Ġlimit s
*/)) /*:
C USTOM
k er
Ġsnap shot
Ġ1 49
ane ous
QUE ST
ec x
Ġp H
multip le
ĠVIDE O
DI FI
180 30
ĠG Error
cc r
re ject
Ġthere fore
ĠM HD
re cover
sp awn
n q
j ack
Ġcopy ing
Ġso urces
PH P
per cent
ce pts
Ġal arm
Name space
re po
ĠM AT
IM UM
t SND
ff c
SU FF
ro s
vet ica
co herent
cell s
pl ci
*/ ));\
88 88
ste reo
tm f
ĠPNG API
tSSL err
ĠQ EMU
ch arge
ĠB GP
ss vc
termin al
S up
Ġs pe
ĠTCG v
CR YP
al tern
Ġs ay
ĠDef ine
ĠMO DULE
(" $
t stats
M y
Ġ@ }\
str start
EN A
4 0000000
ĠCo mple
NAME S
Tr ansport
ĠM o
m rb
Ġp Key
Ġover lay
CAP TURE
Ġ '
quest ion
4 30
02 8
Ġe ax
c ab
Pl ugin
SG I
x pr
Ġ ITS
Co eff
Ġm n
Ġh our
ĠTE MP
SI s
Ġsuc ceeded
ba ud
ĠWH AT
trc u
tio unmap
f L
ATION S
ĠL evel
Ġh da
sp er
ĠD PRINTF
NO THING
Ġ) {
ĠB SS
h uff
ptr s
yy type
rep are
dat atype
ĠM SM
Ex port
ĠSEN SOR
Ġe i
tr unc
no st
ĠPR IVATE
color map
Ġ1 76
Cap ability
QUI ET
Ġp Term
Ġ1 36
ir p
stop ped
n Expr
J MP
RT L
ic om
Ġa h
Ġx strdup
tfor mat
J AVA
S JIS
t ix
WOR LD
l hs
t MP
G FP
ĠC ore
p adapter
ĠD ate
z fs
ĠDE C
m buf
t usage
ĠL ow
ĠA H
ET A
Ġst ar
28 3
SP IN
Ġcoord inates
b undle
aa a
ĠTER M
Ġz Sql
Ġp cap
sc ape
ut t
E THER
ĠFE AT
UN IF
ĠAl loc
Ġ* (*
xml XPath
Ġn ested
i Db
n ss
7 19
tr B
67 0
CLE AN
is digit
B and
D AY
mk dir
ĠCLE AR
ĠA dv
Ġ ENOENT
Ġj ffs
Ġal c
z stream
re cursive
sum er
Ġdecl ared
ent al
Cl Ams
p ick
BL en
coeff s
05 2
tg d
ĠP art
TL B
Ġdi rent
READ ER
St d
Doc id
sc i
w id
Ġrepresent s
80 3
art beat
ĠC V
N AN
av r
c ir
Ġbl end
ĠWA IT
dr ivers
FI D
Ġm ux
ARB PROC
D ONT
_ ->
> ();\
Ġ2 08
QU AD
wr ong
p xa
ĠL ANG
Ġblock size
Ġ-------------------------------- --------
mb s
th ca
DCT ELEM
E PERM
Ġarch itecture
IN I
coun tered
TER MIN
Occur red
Con sole
N e
t setup
AS H
pix map
l val
ss canf
con version
Ġm r
sum mary
L R
im ages
u ation
con tour
tN one
Ġget opt
re aded
ag raph
dl m
M IB
ĠCam bridge
Ġindex es
n You
Ġc addr
px i
C CK
rel se
p pos
w and
Ġmp fr
Ġ6 75
St ub
Ġpro tect
Ġt f
NO ERROR
Ġattr s
Ġ2 54
E DED
t IF
ĠL td
es ses
E IF
I SE
valu ate
ge o
Ġdim ensions
le b
Ġ1 19
at r
t tevent
ĠIN FO
COMM ENT
ĠS CI
OK AY
[] )
47 6
ĠA UD
Ġname len
Ġu uid
ts o
Co s
p np
ĠL AB
ufacture r
H V
host s
TO S
dim m
2 94
8 20
H OLD
v table
en ch
F IND
l ated
Ġblock ing
74 6
Ġm ag
04 6
get text
as ide
Ġ\';\ '
c ertificate
b atch
BU LK
Ġ0 00000000000
tw m
MIN US
Ġd am
Ġl ive
start ed
Ġque ues
tVector Copy
SLA VE
red uce
Ġsh ape
m cs
S MC
clu sters
VERTEX ATTRIB
it r
Ġcl one
ĠBEG IN
R andom
Ġ*/ ,
ĠX M
Ġg spca
Sh ape
can onical
t Get
0000 0100
tB T
c arrier
def erred
min imum
ĠDe stroy
need s
ĠQ nil
ializ er
RA DEON
ĠN othing
QU IR
( \'\\
Ġ***************************************************************************** */\
twrite b
CY CLE
m agick
44 8
Rc T
Ġgu ess
ĠP AL
ĠRe al
Ġindic ating
(" -
ĠPro tocol
read b
68 000
Ġpack ed
48 5
67 4
separ ator
iser fs
Ġp F
z u
ĠMA CH
illise conds
07 0
pop up
ĠPy List
sup ply
__ ));\
ĠE CC
p ac
Ġpath s
SIGN ATURE
y affs
ĠF CC
Ġcode d
tc d
Ġsh adow
E p
ĠC MP
G Object
I FACE
UT ION
ĠDat abase
T ermin
Ġsuc ceed
be red
Ġregname slong
es h
9 11
ĠG FC
n br
ĠL J
2 97
RF L
p z
comple ted
v ms
request s
iph ers
n od
ĠP ixel
ĠRes ults
Z Z
Ġw ww
I SS
ĠS MALL
ck sum
Ġcur ve
Ġde n
L anguage
seq no
S CTP
ĠD r
); */\
k k
ll ia
RE CUR
tb n
BE ACON
Ġs pool
h ide
Ġv orbis
ĠMPI R
ĠJ O
Ġstr tok
Ġdepen dent
RE ND
Ġdat aset
Ġl ate
BB B
M ultip
Ġunder lying
ar ith
pe ated
i u
lev ant
tlp fc
", "\
Ġtime d
t archive
ĠT IO
ĠEx ception
04 3
tp anic
work queue
/* !\
ĠC OR
ĠN DEBUG
ĠT EXT
38 1
GenericError Context
hand shake
BR IDGE
Ġ199 1
ame llia
o a
12 12
Ġ2 20
ĠPy thon
main cpu
Ġg double
Ġt g
Ġr sa
En coder
) (((
ĠR OT
ĠD DR
c pl
Pro be
Multi TexCoord
nto a
K IND
un less
Ġg ate
4 00000
STA MP
Ġpro t
ĠFor ce
]= (
tp re
Ġunder stand
T bl
W EAK
ĠF lag
tZ END
CON TI
---- -*/\
Cap ture
PL UGIN
11 10
tA ST
mod ifier
th p
of dm
md ay
Ġalloc a
ĠP OST
kele y
U MB
TX D
Ġ) ((
COMP ACT
R s
Ġpos ix
Ġg lob
L SR
Ow ner
S CHED
ĠPRINT F
Ġn x
Lo ok
03 1
P ADDING
server s
ĠB l
ts g
tw ord
Ġobj c
n VOID
ĠM ichael
AN TLR
S um
Ġ< -
su fficient
Ġb er
Ġr atio
HE LP
Ġ1 35
stat istics
DI ALOG
pro vider
T ool
er ing
Ġ1 39
ens ity
lat ing
14 24
p Vdbe
back trace
3 96
Ind ices
me ssages
Ġp pp
14 00
m bj
0 25
tr ast
Ġencrypt ion
Ġcon cat
ill a
Ġpass wd
ĠFP GA
fl av
tp t
EN OT
EN ET
FE AT
4 17
> %
et c
syn th
sh dr
at ime
mo oth
obj c
ĠN R
Ġ\' >
ef x
rel ation
in file
ĠFI ELD
bl as
ĠInst itute
1234 5678
db p
ĠNO UPLOAD
pr ite
Ġno ise
SENS OR
sc heme
ate ver
E of
ĠINT ER
ĠF all
Ġ qla
ĠS EQ
Ġoutput s
l port
ĠRece ive
tre move
SE CTOR
ĠSIO CG
t tf
L X
is ation
tcur r
Ġcon tiguous
SD P
t tcp
REP LACE
js ua
lop py
ali ases
al es
tw ork
Ġopt ind
t SC
ĠLL C
Ġc ross
n ZEND
th row
Ġn at
pr v
tab ort
cl amp
u u
ĠW ord
hook s
Ġy aml
add resses
Ġ ENO
Ġg sl
ĠST REAM
g v
HOW TO
t dep
SE P
Ġstr rchr
ĠHE ADER
C x
t TRACE
H i
ta udio
T itle
R SN
p val
FR V
ĠST B
resol ved
AN TI
Event s
ĠB CM
Ġ\' <
Ġg ap
ĠN FLAG
he xdump
9 80
07 6
Ġf igure
= &
DI CT
USE S
ĠCap ture
7 20
---- */\
smb us
tn r
Ġrel ax
n phy
p Dest
l uma
ĠRT MP
t string
test case
c pr
ro tt
ĠS eg
Ġvir t
IC MP
Ġin dependent
OS AL
ĠM SR
cr y
ĠCRED ITS
a Mem
ĠS tep
2 96
Ġf tp
ĠĠĠĠĠĠĠĠĠĠĠĠĠĠĠĠĠĠĠĠĠĠĠĠĠĠĠĠĠĠĠĠĠĠĠĠĠĠĠĠĠĠĠĠĠĠĠĠĠĠĠĠĠĠĠĠĠĠĠĠĠĠĠĠ ĠĠĠĠĠ
Ġof p
it al
> .\
ĠW D
ut s
I e
par ity
Ġb cm
ĠA b
Ġtick s
t AR
ĠAp plication
mp ool
Ġskip ped
A ck
8 11
ĠP gno
un aligned
PR AGMA
MET ADATA
Ġwork space
in use
tp k
NO ERR
pi i
M erge
Ġi op
ĠH CI
Ġme chanism
N ER
C W
Ġcomb ination
bal ance
Ġident ical
se maphore
br ush
fb i
glew Init
ILL EGAL
A FS
ĠPARAMETER S
option al
BRO AD
b size
Ġ[ $
PERIO D
xml NodePtr
Name d
return s
tr im
FINISH ED
Ġ655 36
Ġst ab
ank s
Ġv lc
Tr y
tt ag
ĠF IL
18 00
Finish Context
con tinue
S en
ĠN DIS
look ahead
t FLAC
8 36
Ġv q
Ġe ptr
Ġiden tify
Ġtr ies
n U
2 90
h box
time d
Ġre member
Ġmis c
20 22
7 11
ĠG S
Ġac ross
Ġdiv isor
tNdrFc Short
44 6
Ġdeterm ined
S LO
IS V
M CR
ĠB S
P SK
Ġor d
act iv
mc y
ME L
Ġobj v
am d
Ġe q
ĠG ROUP
length s
B GP
assemb ler
Ġide a
ĠEXT ERNAL
T TY
", __
ĠF ilter
nd im
pc re
ag g
ap l
pm u
CLI P
87 1
Const ant
de sktop
Rece ived
Ġe val
xml GenericErrorContext
MT U
r ame
ĠF lush
Token izer
56 3
iz z
ĠUn less
is on
ro ad
tb its
Y V
ĠT ext
Ġkey board
M achine
BLOCK S
cycle s
enum erator
SU ME
ĠTH READ
Ġcap ability
ĠF AT
sort ed
t col
ix fs
pro f
02 1
ĠQue ue
\', (
FO LD
Ġacc el
ĠV FLAG
New State
ĠN ormal
ĠF unc
reg set
ĠB ytes
NON BLOCK
5 37
sp d
Ġsc anning
Ġopcode s
Ġs sid
Ġappro x
Ġ(! _
ĠAL WAYS
n lp
ĠW P
t ub
ĠF in
5 15
Ġh x
Ġ\'# \',
f info
08 4
5 14
ttemp t
Ġacc ur
Ġa verage
V tab
Ġt ap
ict im
PI CTURE
RD Y
ĠMS GL
Ġalloc ator
ĠM UL
Ġun pack
Ġblock Size
Ġdst reg
8 00000
ĠB tree
ĠS HIFT
Ġprint ed
sr b
AT TACH
MON O
TIFI CATE
W r
Ġh orizontal
Ġa ic
Ġk s
R d
Ġx y
I tems
EX CLUSIVE
er keley
av in
ĠG List
Ġr nd
**** /\
ĠU RB
nc heck
GR k
sp dif
Ġpr ime
V ert
S X
n YY
check point
un try
tstr lcpy
Ġmy sql
ĠK eep
sym link
l j
r dma
Ġr dev
ĠREG ENTS
BU FS
has hes
ĠD SL
Ġl z
Ġu dev
Ġe b
hash table
ĠEX EC
ĠSer ver
E th
m ctx
C atalog
variable s
imp licit
Ġindiv idual
Ġimp ro
Error s
tw idth
d td
Ġaccum ulator
ĠS ig
8 64
TC G
ĠV ideo
c as
im x
Ġreloc ations
Ġcpu state
ON IC
D rv
S LI
s ink
t mm
ĠB LK
Ġc cb
is ions
Ġb w
tmov apd
in a
( ("%
ĠB ool
comb ine
ĠC PP
des ired
Q os
mask s
P Q
Ġs ibling
b attery
Ġm ixer
T W
tmul pd
am ount
F ast
R Q
Ġc pp
Ġ1 46
de structor
ed i
Ġdat as
65 9
n ested
RefNanny FinishContext
ĠPy Mac
Ġc ritical
{{ {
Ġg s
ot iation
sub st
second ary
dev priv
F ault
t se
POWER PC
P X
f open
Ġt ape
op p
me ter
tb o
l aced
10 300
K S
I mpl
pre fetch
R sp
ĠS imple
Ġne ighbor
ĠB ecause
ĠIP V
F low
ĠSC AN
RE MENT
p it
q d
D iff
RO Y
vent s
l X
Ġm ib
C aps
fo ot
Ġp Db
Ġch roma
R ANK
get attr
GAM MA
b db
l seek
Ġpcm cia
17 12
th rough
54 3
Ġcolor map
d rep
) ";\
t urb
br acket
serv ices
tf b
ĠA re
rot ate
in formation
v ram
one g
tmtd cr
ĠH ERE
pc ache
as hes
data p
t FP
Ġis a
pP arent
Ġext ents
co res
track s
B CM
tp j
08 8
5 96
Ġ1 55
ĠĠĠĠĠĠĠĠĠĠĠĠĠĠĠĠĠĠĠĠĠĠĠĠĠĠĠĠĠĠĠĠĠĠĠĠĠĠĠĠĠĠĠĠĠĠĠĠĠĠĠĠĠĠĠĠĠĠĠĠĠĠĠĠ ĠĠĠĠĠĠĠĠĠ
em y
ant ics
Co okie
A FTER
Ġv t
ĠMagick False
z d
att ack
g lib
ĠH uffman
tc an
04 9
twp abuf
pix s
Ġ1 38
Ġpl ug
Ġb ulk
a U
l q
R ound
h apd
_ );\
pe m
dele ted
D SO
I dent
r md
t conf
tp arent
Fe ature
ts mp
y ond
ĠR ef
ĠĠĠĠĠĠĠĠĠĠĠĠĠĠĠĠĠĠĠĠĠĠĠĠĠĠĠĠĠĠĠĠ ĠĠĠĠĠĠĠĠĠĠĠĠĠĠĠĠĠĠĠĠĠĠĠĠĠĠ
om an
ĠBA SIS
S of
out e
S ORT
Av ailable
re pos
t token
t iv
de mod
sp arc
Ġirq return
REGE XP
VALUE S
Ġch ips
opt ab
Ġst p
ED IT
ĠMO V
ĠArg uments
dev name
Sample s
TO G
XXXX XXXX
n DEFINE
il led
max imum
av c
MAN CE
Ġ\'- \'
Ġglobal s
RX D
Ġcl azz
Ġrece iver
n free
Re mote
G reen
n link
Mem ber
m ss
4 86
et er
tra mp
ĠS AVE
lo ss
/ _
t drv
fd b
Ġcan onical
PE ER
G N
Ġl un
Ġr anges
ps f
lit tle
Ġwork er
Ġbu fs
Ġalloc ating
' \
An im
tser ial
if x
b box
Ġsc anner
Ġdis connect
FOR MANCE
ts a
V PC
lay ers
Ġ ONE
M ult
I MPL
Ġblock ed
(( __
60 9
t Cursor
F etch
(# )
Ġcalcul ated
lan e
tf c
host data
ĠN ATIVE
Build Value
ĠZ EXPORT
Ġ\' (
IS P
ĠNT STATUS
ĠAd apter
Det ect
I i
bat im
Ġre fer
pt id
/************************************************************************ \
tc ap
me sa
Ġen countered
STAND ARD
Ġimplement ations
end ptr
Ġc gen
FA LL
re ed
e code
c wd
)(( ((
cla use
tadd pd
-- ,
ĠDE LETE
SUCCESS FUL
prob lem
gm stream
n exit
Ġnot ices
9999 9
7 50
Ġind x
gorith ms
tIR DA
AP IC
sp ell
Ġpr inter
Ġn Linked
PH ASE
JNI Env
n for
Ġlimit ed
ĠC annot
Ġadd s
V B
writ able
U LE
ĠH Y
Ġto ggle
PA REN
Ġl t
Ġ199 2
ĠP MPI
Ġe Error
( \\
| _
V LC
ĠREG NO
.,- .
_ .
ta v
fac et
ab er
set attr
B in
co me
ĠI Q
COMPRES SION
ffff f
Ġap plied
im mediate
w ep
E OPNOTSUPP
xff fe
Error Msg
Ġz Buf
MO DIFY
Met adata
Ġ/** <
r buf
ic lass
p Node
gener ation
6 50
Ġag gregate
ĠP LT
P V
Ġprotot ypes
8 98
ĠV IA
pC ache
ge red
P DB
ĠM ON
dev c
ĠMPI U
Ġguarante ed
tr ust
cr n
ĠC AM
0 24
ng boolean
gl ue
03 9
CANCE L
tout w
tdev priv
tr ip
ĠAss ert
Ġiore map
ĠC r
TRI ANGLE
or th
665 97
6 01
Ġfall back
Ġreg ions
Ġne ar
Ġsh ader
SCO PE
ĠP IC
e js
84 3
Ġcol lation
WR ONG
Ġprop ag
Ġund o
ĠW alk
Ġ"\\ "
Is Valid
SI O
ev p
V CB
ĠT otal
Ġreg cache
output s
Rec v
r ul
7 07
lib xml
ĠUINT N
=\\" %
LOCK ING
))) /*
t NT
// ------------------------------------------------------------------------
ĠAp ache
47 4
Ġ1 64
ĠOUT S
! ",
ĠW ill
Ġo d
LA P
Ġsu itable
Ġf write
EX PECT
h k
38 2
74 5
O ps
ĠV GA
spec ified
p Cursor
cre dentials
29 3
ĠEX PR
H dl
INITIALIZ ED
pE List
Ġp value
Ġr hs
CON S
( $
88 3
f U
Ġv node
PRE SS
Ġcl asses
ĠD BUS
Ġsc heme
ic ial
SUP ER
og us
DB US
v ing
st uff
sub scrib
ab or
Ġr ace
ll seek
AL WAYS
n Column
work space
rd at
ĠWh at
a out
x r
ĠI OC
" ##
P a
4 94
ĠS ection
Ġcond itional
BI AS
p value
++ +
ĠV A
mpr intf
C tr
P anel
tf unc
ĠP IO
Ġnil fs
Ġc ent
Ġs ch
Vdbe Change
ĠD ROP
n NTSTATUS
Ġa a
Ġh s
n LOCAL
INT RO
cr is
block ed
MI ME
CO EFF
Ġcon v
cc w
ĠUN IX
tp id
sc ache
Ġis o
. __
Ġo pc
tm delay
ĠO WN
TRAN SPORT
UN G
ĠCR YPT
ac le
ed x
D i
M ail
L ower
if ies
56 2
cc ache
r ics
57 1
ĠP ol
Ġl r
C AR
ĠH DA
n end
65 1
ĠComm on
Ġvar s
Ġl sp
ap es
MAT H
Struct ure
Ġc if
C CR
ĠM atch
Ġclock s
Ġsepar ator
ast e
C pu
Ġmap s
Can vas
Ġdup lic
Q E
Data Size
97 1
t ACPI
ĠP AD
sec ure
Ġinter pol
UC SIs
ACCE S
tf lush
Mis sing
OWN ER
ĠEx ternal
h aps
Ġdepend s
== (
==== ==\
ĠEn try
hold er
M NG
PRE D
gl Program
ĠQu ery
6 86
ĠD est
HI ST
get env
c entral
Ġr ates
a ic
ĠW SA
K EN
dr suapi
tr s
ĠO HCI
Ġrel ation
pr imitive
Ġs ptr
t head
Ġvol tage
ĠC FLAG
B inary
m ig
r sc
Ġm f
ĠE rr
syn chronous
tc c
mo us
Ġ rom
reg ulator
ĠPy Long
ke e
)( *
ĠN SS
G uid
ĠB ased
te e
L H
Ġpair s
Ġgener ating
st ime
invalid ate
47 8
Ġvis ual
ĠTrans mit
Ġl b
Ġmodif ier
ĠFA ST
z Sql
ME TR
Un expected
*- *-
Ġbe acon
Process or
Ġat l
Ġcan vas
t text
Ġpl aced
f ollow
EL T
PE AT
b urst
Ġcre ates
Get Data
q scale
ĠS csi
script ion
per iph
ĠS IS
CER TIFICATE
CO FF
obj p
IS DN
C ipher
ĠS m
tim ers
a id
Ġbuild ing
ll c
Ġbe yond
O SPF
fil t
padd w
STR IDE
IS DIR
a jor
Ġdat alen
ĠAl ways
RS SI
SUR FACE
PO LY
Ġvar iant
ĠA ve
ERROR S
T OTAL
GL enum
tg char
h da
SE CUR
ĠP FR
Ġa mp
ad a
p ch
div isor
S em
Ġ2 10
Ġ*/ ;\
E q
decode d
)+ ((
b U
ĠINT EL
w al
g dk
v path
gl X
g int
Mod ifier
9999 99
pen ame
St roke
CR TC
QU IT
sp are
t OS
as f
ĠF RFL
tm tx
n Ref
Ġback wards
v x
ĠA U
proc essed
MAR KER
EXP AND
ĠS SB
ĠI ADDR
nMETHOD DEF
is ample
ĠpP g
man y
I FI
Ġleg acy
I DENT
n AV
lo pe
Ġ(( (((
sr q
un load
red irect
TI CK
int ptr
mc j
84 00
T k
ĠZ M
Ġi rel
DT D
Ġarbit rary
aff inity
Ġt orture
E ffect
ĠM UST
CAP S
77 3
the me
OV ERR
pan ic
wq e
n init
d cache
tg roup
v ation
UN Z
L ayout
85 9
Ġ1 48
ĠG PR
band width
P ad
Ġl pc
Ġ4 22
Al arm
Ġreser ve
Ġf lat
S el
tre set
Ġqu it
f ro
Ġtarget s
Ġoptim ize
D SS
IN CR
State ment
t chunk
m angled
FF S
tre ply
z val
ts um
S rv
QUOT A
nt fs
Ġcheck point
ĠO nce
Ġx frm
MULTI CAST
cell able
Ch anged
Ġrespons ible
ex e
DE CODER
ĠA CT
File s
ĠI MM
100 1
66 3
Ġinst ant
de nc
ar i
ugh t
MO UNT
... )\
FFFFFFF uLL
ĠMicro systems
W here
ĠBUFF ER
im map
pci dev
str p
r ptr
Ġin verse
d ial
n D
ĠAN SI
Ġident ity
tW M
Ġ*) (&
Ġ" ;\
20 40
nt lm
f gets
s beh
sbeh nel
\\" :
ĠR N
Ġcoord inate
ĠSH OW
red hat
clock s
Q R
nto hs
PR IO
x tensa
02 9
emon ic
P ATCH
Ġs is
QU O
Ġlog in
as oc
undef ined
h m
i dev
label s
de b
p sc
PC S
Ġmon th
A bs
W rit
Ġ0 444
[] ,\
av p
not es
Ġ0 2139
ber g
Ġse em
u iv
95 3
Ġme sh
ĠPF X
M lme
REA CHED
Ġp Right
Ġp Level
HELL O
t ops
Ġint s
Ġover write
ĠS IOC
., .
ĠT P
)( /*
Ġfore ign
ĠH GOTO
B ot
%%%% %%
tif f
Ġ quality
VER TI
Ġ ----
Ġ1 45
FCC i
_ ,\
ic ates
05 1
key board
Ġbuild er
send er
Ġ1 54
Ġact iv
ĠL AN
Ġ{ }\
set opt
ON Y
Ġlo t
%%%%%%%% %%%%%%
ĠP op
h ar
f older
/************************************************************************ ***\
LV L
Ġb at
tr dev
%%%%%%%%%%%%%%%%%%%%%%%%%%%%%%%% %%%%%%%%%%%%%%%%%%%%%%%%%%%%%%%%
ĠD N
R ARY
un set
p sy
Ġsig action
n rb
Ġsub tract
BS SID
AAAAAAAA AAAAAAAA
S SI
ian ts
p ment
re moved
F ailure
ĠCur sor
ad vert
ĠY AFFS
Ġbuff ered
ĠS PACE
Ġcould n
ST BC
CP US
Ġf its
Ġdown load
ĠĠĠĠĠĠĠĠĠĠĠĠĠĠĠĠĠĠĠĠĠĠĠĠĠĠĠĠĠĠĠĠ ĠĠĠĠĠĠĠĠĠĠĠĠĠĠĠĠĠĠĠĠĠĠĠĠĠĠĠĠĠĠĠ
xa mple
Ġno tifier
ATCH DOG
Pro perties
pre fs
Ġcontrol s
s ms
Ġpre dict
JO IN
Ġmov q
pP g
-------------------------------- --------
ĠNew State
Ġ1 88
ĠP THREAD
%%%%%%%%%%%%%%%%%%%%%%%%%%%%%%%%%%%%%%%%%%%%%%%%%%%%%%%%%%%%%%%% %%%%%%%%%%%%%%
BLA CK
ĠF loat
Ġv l
sk in
ex clusive
td s
5 18
alt ivec
Ġear lier
ĠG AME
Re store
VI A
SECUR ITY
P ayload
at oi
tp kt
%%%%%%%%%%%%%%%%%%%%%%%%%%%%%%%%%%%%%%%%%%%%%%%%%%%%%%%%%%%%%%%%%%%%%%%%%%%%%% %\
ĠT W
Doc Ptr
in ess
Ġ\' );\
co g
Ġsu ite
n args
Ġassign ment
Ġsrc reg
Ġwh atever
Sl ice
Ġcon form
ĠGener ic
in ferior
] ].
012 34
Ġz i
Ġd ct
Ġho me
ns ity
f act
Sh utdown
B V
ĠLZ MA
22 00
n X
Ġfunction ality
Ġsimpl ify
St andard
Ġ0 7
Ġlog ging
000 5
r na
ĠRA W
bd f
z c
rect s
Ġmat ter
tw e
we ights
ĠSy stems
B TI
ob stack
C CE
tr p
ĠH e
tio write
transform ations
F actor
t tv
Ġ1 71
ĠP repare
ĠĠĠĠĠĠĠĠĠĠĠĠĠĠĠĠĠĠĠĠĠĠĠĠĠĠĠĠĠĠĠĠ ĠĠĠĠĠĠĠĠĠĠĠĠĠĠĠĠĠĠĠĠĠĠĠĠĠ
F AL
adjust ment
Aff inity
dmam ap
* >
sp s
t DEFINE
ĠE mit
TH E
Ġp Trigger
$ \
is suer
sp arse
Ġn dim
CORRUP T
Ġ1 31
tC G
up stream
icon v
or i
ta hd
Y I
pect r
LOCAL E
55 3
Ġdirect ive
ver sed
u access
ĠZ ERO
Ġn ou
Re v
IO Context
Ġtr uncate
ĠU p
Ġal g
V endor
ĠGL uint
out len
Ġfree ing
Ġf sm
ĠB tShared
fil led
OR IG
ĠDO UBLE
Ġser v
ph alcon
ĠDL STACK
cu it
Ġg arbage
Ġtrunc ated
er gy
p Entry
ele mptr
G RE
mem b
memory view
Ġx p
<< (
6 56
AD M
Ġ4 80
tpar se
Ġf ib
Ġv x
Exten ded
44 9
E pl
ĠS up
Ġfac et
Ġgl Normal
Ġiter ate
ĠP USH
ĠI C
ĠS ID
Ġlo ss
tN V
Pe er
Ġgen Pixels
Ġret array
00200 100
PO L
)== (
disk s
t SK
hw if
Ġle ak
Ġsecond ary
Ġ========================================================================= ==\
P BS
n Return
xxxx xxxx
pair s
03 8
DO M
cre ase
S AT
7 29
96 3
ĠI SR
B asic
Ġcon structor
p sk
64 2
Ġh r
dat ing
per form
up load
ec b
Q OS
REQUI RED
ĠU D
uc v
lo ops
Ġ" \'
Ġq ib
ĠPACK ET
TIM ING
ĠSe cond
44 5
SC ROLL
Ġalloc ations
6 57
ĠTh us
Ġbr acket
J K
Ġf lex
) %
Ġ1 87
Draw Elements
")) !=
WE IGHT
4 25
fs l
CHAR S
xmlStr Equal
ĠGraph ics
ch arg
name spaces
67 9
id l
Memory View
ĠCall back
Ġag ent
ts lot
Str len
h ang
Ġx l
net link
rul eno
ST ERE
ers hip
Ġ1 77
Ġwake up
ta uth
domain s
Ġs ite
DEST ROY
ĠPRO T
In clude
b q
ĠIRQ F
pc r
INO DE
b cm
Ġp Dest
ĠĠĠĠĠĠĠĠĠĠĠĠĠĠĠĠĠĠĠĠĠĠĠĠĠĠĠĠĠĠĠĠ ĠĠĠĠĠĠĠĠĠĠĠĠĠĠĠĠĠĠĠĠĠĠĠĠĠĠĠĠ
d ce
ĠC md
Ġx c
T iming
Ġ===================================================================== ===\
ĠV C
Ġren derer
Ġl ay
Ġn args
Ġmaint ain
ĠI M
Out line
t WRITE
S election
tre l
R H
4 14
P MC
Ġc ar
ĠDo es
Ġj mp
Ġ2 57
C ustom
ĠTL V
5 13
int egr
Ġan alysis
ard own
Ver ify
c it
ĠRE DIS
ĠJS ON
Ġtun er
iv ot
Ġsk ill
Ġpro ceed
Ġnou veau
job s
I m
7 26
Ġf ire
te mit
LE TED
ĠP ath
ECT OR
Ġcr ash
Ġin ptr
67 8
top ology
n j
ĠE nc
link ed
Ġel im
Ġ* ),
Ġsam r
Ġclient s
nC opyright
d ropped
Ġ1 43
pl ine
As Long
O SE
e o
00000000 00
tm v
d size
HT ML
Ġo hci
Ġ1 84
Ġin vol
54 32
Ġs mc
MO DIFI
t unlock
ol en
S DR
7 10
ĠC oll
5 10
Ġof ten
ĠC ard
en sure
if index
dt or
ĠChar acter
4 28
Ġinter p
Up per
Ġint ended
n ngx
ĠS TE
Ġ2 48
COND ITION
Ġp Entry
Ġspool ss
t header
Ġn es
b sp
T ITLE
ĠSer ial
45 9
ab spath
g est
86 1
Ġaltern ate
tf puts
Setup Context
l bl
tb zero
Ġpass ing
ĠJ ava
REND ER
f ence
p AC
0 60
Ġre name
39 1
c atch
bound ary
ĠG SM
ĠSYS CTL
Ġper cent
Tx n
K NOWN
D ynamic
Ġw b
hd sp
os b
Ġx free
tPH P
END ING
ĠS w
Ġsat isf
r ip
SO EVER
ump tion
sr am
k d
li able
!! !!
p L
86 2
R en
Ġ4 36
ARR IER
Ġplay back
Ġsup posed
JOY STICK
encrypt ed
)) ==
), (
ĠST OP
ON CE
ĠT ermin
TI MI
tm ark
p ulse
ĠW at
Ġrout ing
E H
p Index
Ġsh m
mc u
conn track
tP ointer
c ff
Ġ2 06
Ġref lect
Ġstream s
Ġw ish
m sec
ĠS how
to do
Ġyy vsp
] "
x ixcore
(" ");\
en na
ĠS em
tD PRINTF
f abs
4 32
trail er
fe at
------ -\
P ci
Sc roll
SC LK
LA BLE
t options
Ġv e
writ ing
Ġ* **/\
Ġdim s
tp art
r aries
EXT END
m en
Ġassert ion
tun register
set sockopt
Col s
Ġr sp
M HZ
tr d
ĠS AA
6 25
Ġch r
Ġplat forms
r sr
Ġmp n
11 0000
Ġf abs
Ġal i
= ((
tb io
ol t
perim ental
th unk
t ED
z a
s ap
ĠS ession
Ġintern ally
GLee Init
NG LE
54 2
HO ME
p F
86 3
Ġwhen ever
Ġfor ced
Ġ32 0
Ġcap abilities
bin dd
Ġ... )
Ġaud it
AL ARM
Init ial
Ac count
F U
G HZ
ĠTh omas
Ġp cre
con structor
Ġg imple
ĠDV B
5 16
Value Error
t SAFE
ĠR ight
s int
UL ATOR
C y
w ell
ref cnt
Sort er
offset of
tb s
Ġstr ategy
Ġde limit
Ġqu an
vid ioc
RAND OM
tc g
0000000 3
ĠDec rement
index es
GLee GetProcAddress
Ġ15 9
f ps
Col lection
ĠCH ILD
t DEV
constraint s
^ ^
Ġyy testcase
Ġdef erred
Ġattemp ts
p st
Ġinterpre ter
Ġd lg
ĠC I
K W
_ (&
Ġun compressed
Ġme ss
cd rom
A MA
FA C
ĠSW AP
t append
O UND
prog name
bo unce
ĠAUT O
ĠSU BL
p db
Sub set
tri ev
in el
ĠF ield
t AT
H MAC
tp oint
fr action
Ġ\' )
blk s
IP v
Ġ1 21
ĠM ultip
10 47
Ġa md
Ġm cf
ĠF EC
D l
alle st
td own
ff ic
Bus y
FR M
q q
rott le
Ġde sign
Ġ********************************* ********
op val
tt i
ST M
Ġout standing
SP LIT
Ġw ave
Ġs quare
t nd
Ġlat ency
ĠG RN
ĠAT M
Ġsyn chron
t CONFIG
or a
AD MIN
", (
Id le
ĠU L
t table
tmp l
Ġ\' $
Ġsec ret
AR K
U CH
Argument s
sa f
F RE
n CASE
Ġeth tool
12 80
CC B
tra deon
=\' %
Ġtim ers
3 94
To o
demux er
S afe
Ġa es
*) ((/*
ts w
Ġ< %
ĠF ALL
ĠInc rement
G ATE
r is
Ġan alog
l legal
n add
se xt
ĠT ask
ĠE ngine
Ġsome times
Ġdisable s
Ġm ath
8 366
AH B
avin ci
77 77
Ġwe b
Ġguarante e
hd mi
g ard
/**************************************************************************** */\
UN RESOLVED
Ġhost apd
db f
67 5
Ġin complete
Ġs ane
LA IN
Ġsub routine
Ġi pr
CUR VE
Q M
s fp
PH I
SHA KE
[ ++
vb i
E BAD
/* }}}
ĠV irtual
Ġapp s
Ġaff inity
ĠM ethod
HW MEM
M IP
Ġso c
TH ROUGH
Ġev il
Ġa mb
EVENT S
re tries
ĠST D
t TAILQ
def group
Ġd type
Ġrec ent
Ġp name
Ġse ar
Ġb ios
l ru
Ġ1 70
RE STORE
Ġover head
Ġ& (*
ĠT F
d U
STERE O
j d
p Temp
PO LAR
Ġhow to
ĠDCT SIZE
ĠGtk Tree
Ġe ps
ID C
Ġs as
[] =
QUO TE
Ġdelay ed
abc def
ĠUN Z
Ġin p
ĠC ache
9 170
ex clude
Bind ing
7 22
Ġsequ ences
9 20
n bits
4 84
Ġfilter s
Sta mp
n parse
u control
ili ary
Ġold er
Ġst v
Ġio vec
ud y
al ink
************ ***/\
tM X
Ġre use
t SS
Resol ve
Ġcomp osite
258 40
n val
Ġtrans fers
ĠWHAT SOEVER
FOR WARD
ĠT ake
Ġcons umed
P wr
ĠA LC
FILE S
Ġasc ii
SG IS
troll ers
tun e
p res
ĠZ IP
Ġwant ed
t ma
tP K
3 18
me ga
- ",
Db g
Ġdestroy ed
ĠD IG
box es
VALID ATE
u ffer
ĠP ush
ĠCOM MAND
AS SIGN
Ġm al
Ch oice
Ġ\'/\' )
eb x
8 38
k v
c he
Ġ locate
r xd
Ġ^ (
YY CURSOR
Ġnv ram
Ġc andidate
gp ack
; /*
cp m
t tree
c U
ĠAp ply
Ġde precated
TIME DOUT
ep s
blk no
ĠI ter
ĠE ven
ĠGL enum
FILEN O
User s
ĠHD assert
ĠG UID
Ġprep ared
COMP ARE
ĠCR YP
Ġex tr
t tif
Bl ue
ĠAttr ibute
s R
ĠG MP
Ġa hd
Ġinst alled
Ġatt ack
t CK
C ATION
Ġassemb ler
SO F
t EV
A SI
COMM IT
Ġmem move
tif p
VARI ANT
read dir
------ -+
/* {{{
ot iate
no mem
ĠTh row
d ab
inter pre
PC RE
ĠIN ET
T F
CLO SED
cf i
S ur
Ġh aven
Ġ1 95
55 2
rout ing
con tains
nt ime
ALL Y
dr ate
NE GO
Ġe code
fil ing
an alog
C ost
Ġd rep
Ġfix P
B ulk
vel l
46 9
' /**\
U UID
tc f
Ġprogram s
yy ruleno
Ġ ----------------------------------------------------------------------
CH AP
ĠP WR
g if
ct or
G IC
Ġch ance
und ant
A fter
Ġencrypt ed
ĠC LO
ĠSet ting
d tp
he mat
n V
uns upported
F AN
Ġpr im
Ġstat ion
ent ities
td iv
F CR
f ort
ĠM MX
std def
) __
io ur
Ġd len
tx d
(* )(
tB LI
CA USE
Ġm g
Ġr aster
S ock
eth tool
store d
Ġde crement
nto hl
ms ix
Ġf ine
Ġr ap
CRIT ICAL
ĠS ch
Ġyour self
F atal
Ġb other
Met rics
tr C
id ata
Ġkey len
Ġd ib
opcode s
Ġc ategory
ĠS MC
iter ate
TH R
EG RO
ĠVER IFY
I K
tc lock
ĠN U
MA NGLE
pAd apter
CP G
(" .
Ġp q
ip ts
iction ary
Ġcol lection
In s
NT L
Ġ" **
c lo
cg i
C mp
l ent
inter faces
/**************************************************************************** **/\
Ġpas ses
Ġi pt
reg exp
f read
RefNanny SetupContext
ĠC lean
in coming
L UN
ĠE nter
Ġe cc
tl ib
Get Name
ĠSy nc
ĠS ort
effect ive
ĠD one
ĠSy mbol
con str
eap ol
Ġsp x
64 1
Ġa Sig
f allback
ĠP Q
Ġev t
nENUM X
Ġhw nd
ĠR R
Ġp ub
ĠCA CHE
AC U
go al
T B
S cope
Ġgr p
Ġare na
d sc
Ġp A
ins ic
h op
E MAC
O ther
ĠI MAGE
Ġb org
A U
ĠAR P
Pr imary
Enc Context
et able
C leanup
Ġre ports
Ġis su
w ho
p Handle
it ory
en and
Ġe hci
Ġis p
! (
Ch anges
76 9
ang o
G G
UT IL
del im
Ġman ip
ĠMO VE
Ġ2 04
th ough
te report
tr k
53 80
ĠU sing
E xact
comp iled
S z
l ctxt
t orture
b fa
d name
f de
w x
ĠEX CLUSIVE
IO P
SK B
t left
Window Pos
12 51
ĠT UN
r an
} ;
Ġn bits
Ġproc Name
ĠN dis
Ġrepresent ed
8 40
ĠReg ents
ĠJ an
ta h
CUR L
Ġe Type
EN AME
t private
Ġp np
Ph ase
B Z
Ġfd t
t Uint
Ġd amage
Ġe fx
e ol
ĠB ig
work s
6 60
> (
g mp
CON VERT
SER VE
tr ange
o mp
er ts
Re alloc
os itor
ĠK M
t sec
UST ER
ĠM CF
T ALLOC
Ġc losure
ptr ace
TOG GLE
h db
Ġbit mask
Ġpos itions
Ġno Err
ron ics
4 16
dim ension
QU ANT
Final ize
Ġ1 53
tW REG
open ed
rup t
Ġcons ist
D Q
ctl r
rol led
r int
Ġsocket s
File Size
> ",\
Stat es
ĠĠĠĠĠĠĠĠĠĠĠĠĠĠĠĠĠĠĠĠĠĠĠĠĠĠĠĠĠĠĠĠĠĠĠĠĠĠĠĠĠĠĠĠĠĠĠĠĠĠĠĠĠĠĠĠĠĠĠĠĠĠĠĠ Ġ
su res
ĠL GPL
b rowser
ACU UM
54 1
Ġ1 100
ber os
IL Y
sc ii
Ġpro m
LINE S
Ġs cc
x chg
Ġun changed
9 84
K I
Ġex clude
Ġ*( --
Ġsubst it
ĠSUBL ANG
WIN D
pc d
03 00
S leep
Ġp Coll
py thon
Ġne igh
R ot
Ġi path
l um
ĠC RL
Ġcon t
MER GE
Ġ( ));\
so ever
tr un
point ers
Ġwhat soever
Ac quire
Ġ== ,
ĠR ound
sq r
Ġign oring
mis s
tf n
es i
ĠUS ING
49 3
Ġre peated
Ġ"% -
Tr ig
t session
array s
medi an
Ġt lv
BE FORE
b ond
f wd
ĠpE List
Ġp hi
an on
! <
ĠREG ARD
L W
Ġl v
Ro le
ĠVal idate
t cli
oll back
ip i
tb trfs
tser ver
N ow
p Frame
LIT ERAL
glew Info
ELEMENT S
s fb
mb x
SV C
WR ITER
D yn
N IT
Ġus able
ĠDISCLAIM S
h row
re pr
Ġi Cur
ic c
Ġcol s
A SC
lear n
EXIST S
=-=-=-=- =-=-=-=-
SI R
ĠS CM
ĠInit ialization
td wc
Ġd ont
4 15
r fc
Ġs alt
Ġj object
P k
he mer
Ġte am
st rength
back light
LIC IT
ĠADD SI
83 90
arg list
Ġrect angle
Ġn Arg
to ver
Ġ1 85
p X
Ġ0 3
Ġp Table
PASS WORD
Ġac quire
SO AP
Ġn ice
Ġn ump
In cr
Ġp du
Ġ1 94
ĠP OL
CO MB
cal culate
log ger
*/ ,
ĠS ample
Ġcomp ound
/* --------------------------------------------------------
um an
txml Free
}\ '
Ġtest ed
i Page
Ġp db
Ġre cover
Ġdynamic ally
Ġke pt
ĠA nal
period ic
ĠUn able
ĠS v
Sh are
cr atch
Ġout going
U sing
ĠN A
tf ield
Ġ ........
Ġpar agraph
en ign
bos ity
ĠWAR NING
tmem ctl
Ġaltern ative
min s
5 32
init call
F AM
ĠT OR
P LE
c and
un ication
t message
ĠG u
DIR TY
Me asurement
ak es
CE PT
ĠThere fore
Ġx b
base name
GLE EPFNGL
Ġg xv
Ġexp anded
4 88
ĠIS DN
Ġmodification s
Ġam ong
o ms
ĠPL US
decl are
FR k
coun try
FR AC
tt imer
index ed
08 7
Ġattr ib
ĠC N
ĠRE P
n mi
Ġs of
Ġb size
Ġdiv ision
t child
77 2
net mask
G ING
Cl ause
Ġh len
J oystick
Ġtr affic
Ġc u
Ġlib png
Ġn it
Ġ*------------------------------------------------------------------------ -\
str ategy
ĠPER FORMANCE
B reak
ĠA X
ĠF ont
tG F
ĠA cc
Ġid s
W T
ĠH C
not ice
DH CP
Ex pected
ĠN IC
N ative
Ġp vr
ul p
E v
Un signed
ĠIN ST
Ġb ogus
Ġv dbe
Ġn Key
Ġh uff
fix P
v sync
cor ner
bind ings
f pr
VdbeChange P
ams ung
r src
L ang
de queue
Ġe stab
OK IE
G DB
Ġd k
Ġg zip
CE XP
Ġreplace ment
th a
Ġf cntl
Ġdirect ories
}/* --*/\
ab e
ĠAV Packet
and atory
AT ER
quot ed
< (
al ty
Ġ\'- \')
Ġas f
SU SED
at um
ag ram
pro x
Bl end
ĠC PM
Ġstr toul
ud ge
PATH LEN
HAND SHAKE
f cc
Ġthere of
Ġ2 30
Ġexp ansion
ĠVal id
Ġ64 0
tP X
P SC
T ST
r sn
D String
m usb
sub set
Ġvir Domain
Ġcon tin
Ġrad ix
BOT TOM
ĠD Y
IDE N
Ġ1 52
tro ot
p ctx
Ġ+ --------
In struction
FA CTOR
08 000
uff ix
Ġturn ed
Y ES
Ġ0 2
tn fs
in y
Ex pression
comm ercial
n krb
Ġrpc cli
STR ACE
Os Printf
String s
UNIF ORM
C ycle
target s
ĠE AS
ĠL AST
ĠPer l
ĠCH UNK
ĠT Value
Ġmov ing
ms b
ĠM F
re cs
p Coll
Ġ0 000000
o sc
Z LIB
05 3
cer ts
s val
y d
Ġ1 98
Al low
key len
Ġdele ting
VE CEXP
08 0000
Q ual
tb d
Re place
HER IT
ts f
Ad just
pg d
Ġco ver
tr ad
ony mous
Ġre cogn
DB F
Ġreason s
ĠSY N
Ġcompil ers
l te
att ached
T ile
LE MENT
Ġe Cos
Ass ign
ighb ors
vert ical
Ġpol ling
Ġx d
For ce
b as
ĠM IC
irr us
al one
cat alog
r A
an i
cr p
Ġlua K
ĠU CS
Ġincrement ed
st able
Ġmake STR
e U
me sg
c group
BF IN
Arg Error
44 3
Ġsu fficient
B AT
ĠWat com
q st
ĠW GL
Ġbet a
lw ip
ĠR W
in verse
cul ar
Ġcorrup t
Ġf seek
AC R
65 2
LL IA
tv m
P it
97 3
Ġ! *
Ġcommun ication
Con verter
ĠU V
87 3
Ġsome one
("% -
SC B
TRANS FORM
gr a
n SWIG
Ġk m
T CB
p len
Ġoptim ized
TO DO
crypt fs
free ze
T ID
ĠG N
G FC
ĠRESULT ING
BROAD CAST
TR IO
__ ___
ĠE THER
8 19
ĠLO OP
HID DEN
p Buffer
G UI
Ġexp ired
o e
plic a
FIN AL
IM R
INC REMENT
n len
n PHP
SC C
Ġ{\ \\
G ame
nc at
Ġh b
Ġre levant
tms m
; );\
ĠVOID mode
tr ate
SECOND ARY
Number Of
P ublic
Ġe mu
M N
EE P
DIS C
wifi ex
Ġun likely
in ations
Ġlib usb
por ated
ĠCurrent ly
Lo ader
58 3
Ġcor rection
tf mt
dc erpc
ĠP g
Ġxml GenericError
hd w
Get Current
B FD
Ġf u
P ages
W ide
an iel
VI SIBLE
n tree
duct ion
ex ample
str ap
TUN ER
cb p
tout l
Ġes p
ĠE OB
NAME D
OP TIMI
t IO
Ġp Left
Ġent ered
t fr
ĠRE QUEST
ĠpP arent
record s
GU OUS
Ġtr ick
Ġcom ma
TR UST
Ġge ometry
lc at
ĠC ar
sr p
dl c
IZ ED
Ġag reed
lif etime
g pt
tsk ip
Ġ2 34
14 83
AG C
GLee FuncPtr
ĠGLee FuncPtr
55 1
ca de
C var
FR ONT
ĠI SCSI
I LABLE
td a
E RED
peg EncContext
Ġl hs
Ġsub mit
MAT RIX
H ex
re play
ĠM ixer
Path name
ĠC ont
IP ROC
Ġ16 9
cpu id
Ġlook ahead
() ");\
Ġup dating
text ern
ĠAuth ors
Ġmer ged
Ġl sm
ĠB IN
Al location
++ ].
z eros
Ġq dev
ĠOB JECT
K M
25 00
t ata
read ing
unlock ed
================================================================ ====
" )))\
= */\
RF C
i y
tb ack
Ġx r
Ġig b
Build er
X L
Ġst em
eg l
link age
FRAG MENT
MIS MATCH
G o
MT D
Ġid l
tsign al
d ither
CONTI GUOUS
car ded
denc ies
dr ag
*/)) )->_
Ġm ad
\' ",\
Rel ation
PR IMARY
mark s
5 40
IT AL
95 2
Ġrot ate
, [
MA S
ĠSH ORT
Ġp wm
RO ID
ĠO E
Ġpar port
bu ddy
ĠL TC
Ġ: =
ĠU CHAR
P alette
g fp
at ts
at ively
)) (
Ġp reserve
LIC ATION
ar sh
ĠI DC
Ġre triev
ĠAL PHA
Ġr ip
Ġ-------------------------------- ----------------
4 92
tu se
Ġxml New
E CHO
Stat istics
Un used
ĠD ep
15 00
val p
P SEUDO
Trace back
lat in
d si
Var iant
Ġ------------------------------------------------------------------------ -
n th
Ġper forms
G rid
46 1
clus ion
page Size
t List
ig a
tPy Err
ig raph
Ġgener ates
ar s
Ġser ies
tD M
*/ {
V MS
IN AL
Ġest imate
n inline
t level
ĠM SI
row id
ch n
Ġ0 6
ver batim
Handle T
RT P
ĠL eft
CODE S
R ND
ĠBo ard
5 17
Ġst bi
err buf
Ġz Db
ong o
lock ing
it ter
Ġ3 60
ĠT TY
x hci
ĠO k
coll ation
f tnlen
Ġm float
20 30
ight ly
ĠV LAN
connect ions
Ġdecl are
Ġpr io
ĠSer vice
it ype
Ġdiscla ims
Ġcons istent
, ",
ĠC ID
key code
CO MO
Ġwor th
ĠW PS
p Info
ĠN PC
ml ib
sur f
s heet
Ġop j
Coll Seq
77 1
ng c
/**************************************************************** ***\
Ġregard less
Ġnot es
Ġresol ved
Ġbal ance
ĠA TOM
9 32
antis sa
Ġ2 07
PA RENT
LE M
Ġsub tree
SEPAR ATOR
cap able
NUM ERIC
Ġman ual
on ic
ĠBO OLEAN
Pixel Format
S hell
Ġfrag P
Pol y
vty sh
Ġg cm
u veau
an im
Ġ6 54
ie ce
ĠL IT
Ġpro du
play list
Ġy ield
Ġout buf
D ID
ĠP ack
bit size
ĠOWN ER
ĠO b
ne ar
$ $
CA IRO
O CI
vis ions
Ġb atch
ĠCol umn
ALG OR
Ġg b
ĠTrans fer
Ġst and
ĠAss ign
sg ot
U nsupported
ĠB LAN
C SI
in herit
Ġrespect ively
Ġst e
95 1
FRAME S
XY Z
M id
poss ible
c ube
r me
Ġp Name
tb nx
td one
STO CK
b eta
L ZO
Ġmin us
Ġg cv
LIB XML
ĠYO U
) ^
loop back
w gl
6 88
og gle
ĠTidy Attr
. ";\
Ġlines ize
68 9
LINE AR
Ġf an
ĠF ULL
c z
ĠCor p
sv r
ĠC ARD
Ġsend s
req s
n api
TR FS
SP L
pi ed
Des cr
Ġbo ok
INTER LACE
00 18
Ġro unded
Ex tent
E GR
Ġde que
mo yo
Ġs buf
ĠR UN
Encrypt ion
Ġa hc
P s
r st
ut ime
GE D
ST UB
Ġext Start
W MI
7 146
Ġass uming
TK IP
RE STRICT
D irection
ĠF PU
dup licate
Ġre size
BUF SIZ
SUFF IX
Ġ1 86
Ġre direct
IS M
Ov fl
add s
Ġstr p
ACCE L
i ence
* ));\
W HERE
f stat
MA Y
con verter
ĠB its
Ġ1 78
OS PC
Ġref count
t and
01234 56789
ĠDE SCALE
ĠIMG FMT
/** *
m cr
PRE V
PER SIST
Ġ .\
rel ated
match ing
INITIALIZ ER
Ġle ase
Ex ists
Ġgr n
E mul
for ced
co v
AM R
( ;;
nG LOBAL
Ġtick et
Ġwrit able
Ġtermin ator
Ġbutton s
Ġtrans mission
hy per
ĠPa ul
ĠFor ward
WAR F
#### \
Trans mit
Ġ16 6
ĠP SH
Comple x
ĠB FA
ere o
ializ es
IS Y
Ġinv ok
n ids
MM IO
Def erred
Ġfre es
bit mask
G SM
Ġget pid
lu de
AP R
ob s
S CORE
nd up
ĠS il
Ġu cp
Ġg it
Ġp Temp
ĠIN STITUTE
Ġloc ations
In c
68 5
tff lush
Ġnl msg
t ide
Ġpr agma
LIST EN
an ches
Ġr h
Ġrc u
ĠP AS
MA NU
tD PRINTK
Ġx mm
dr ain
REF ERENCE
user Data
ad ler
pages ize
Ġprint ing
AVA ILABLE
ĠN ull
000 9
z illa
Ġreg ex
ĠUn lock
RELAX NG
LIKE LY
ĠE AGAIN
60 3
/*---------------------------------------------------------------------- -\
)( \'
ĠX PATH
row se
Ġf o
Rn Unprefixed
Ġv os
================ =\
Ġobj file
Ġtre ated
Ġremov ing
ĠBLAN K
h ref
Ġre dis
Ġa head
mem base
Ġob stack
pk ts
Py Dict
MAN AGE
PREC ATED
Ġp ress
Ġle aves
29 1
t ssl
Ġrecur sion
add to
To String
10 80
ĠA void
tt t
s ince
t mmc
P gno
p error
ĠA BI
ĠR AS
ĠP hy
Ġ1 96
Ġ9 54
Ġsupport ing
Ġg uest
fil eno
pl x
Ġs dev
w an
23 12
(); }\
A tt
w mi
Ġ1 42
ĠLAB EL
act ivity
P mode
0 35
Ġevalu ate
Ġc he
Ġa dr
re mainder
write reg
fp ga
gn ut
N aN
fd c
83 00
ch ap
ĠP W
MB X
F n
AD IO
new line
Ġt cb
Ġr data
ĠB LOB
99 3
ĠS EXP
ĠPAR SE
Ġch osen
ĠPA SS
ĠR SN
Ġtr ust
Ġext End
(% [
Ġa symbol
im o
Ġ*) _
nost ic
t ak
p Res
, "\
5 86
Ġp Col
J DIMENSION
] >>
Ġp list
con tig
ĠAL TIVEC
p urge
act ers
TH X
Ġin cor
Ġ2 52
12345678 90
BR A
op l
8 28
ĠF igure
s ar
Ġw ildcard
not hrow
Ġf num
Ġa gp
r ieve
Ġb son
Tr uncate
56 1
re cur
Ġ16 7
vers al
equ iv
Ġad m
full name
1111 1111
Ġz log
STOR AGE
EX ACT
Ġc ptr
Ġw i
Ġor dered
ĠP UBLIC
ND AS
PAGE S
ic ol
td ie
Ġld ns
t array
Ġpar ms
ver bs
Ġj oystick
Ġreg istration
glew Search
AVA IL
glewSearch Extension
ERR CODE
ĠCon st
Ġ32 768
pix t
Ġmode m
tM V
ag gregate
ĠL SB
ALL EL
s info
Second ary
ĠE BC
p Prior
tl sext
z Token
b ld
com ma
ĠVal ues
d info
Ser vices
f cb
Ġ1 00000
66 2
NI ED
C PE
PA Y
Ġ{ _
Ġun wind
ĠSy base
ĠL ayer
DIS CONNECT
D rop
SLO TS
_ ,___
us hes
AT ILE
tM UX
n I
01 10
is play
res idual
, {
Not Used
t PRINT
ĠTL B
ĠProgram mer
r ay
ĠB asic
ĠIG NORE
ar tif
up tr
IF TYPE
ol ation
p I
tp ass
217 4
Ġde scr
tmem move
/> .
T AP
94 3
H R
Ġsup ply
[] \
Ġif net
cc c
Ġap plies
Object s
X E
con sumer
Ġmapping s
Ġ\': \'
tb b
tS MB
Ġv ga
Ġfr v
", &
ts can
ĠSh ift
TI B
te k
4 19
ĠS CL
ta hc
DU MMY
f time
widget s
Ġlabel s
Ġ2 28
mult isample
6 19
ĠA CC
TP FLAGS
Ġd ither
td c
Ġp ulse
or ded
ed ata
Ġ2 88
Ġ1 79
Ġcon ven
ĠB ank
sb us
on us
if c
ĠI PC
or rect
ĠI DEN
UN SPEC
tg int
g imple
n md
D FS
ar ams
ut ive
L DO
Ġd ays
Ġ\' !
c is
MAP PED
4 13
ĠEN C
Ġr ds
ĠP OP
Ġselect or
UR M
j o
Decl arations
izz le
Ġc vmx
C FA
************ */\
Ar ch
opt im
ĠM SB
Ġso on
ĠPy BUF
ĠEN ET
ĠTime out
Ġcomb ined
ĠN ORM
Ġh size
nal ong
gu ard
in l
Ġmultip lication
PACK AGE
tdis able
ĠDE CLA
may be
W K
t Y
Ġn est
write w
st al
ĠM DL
Ġgu ard
hdl c
58 2
Read DirEntry
Ġde structor
Ġorder ing
31 00
man ent
Ġ[ ]
atch dog
E st
Ġtermin ation
DOC UMENT
Ġcr m
BT N
open source
ales ce
p Val
log ging
AME LLIA
aint ext
re nce
sk a
ĠT Y
Db Malloc
Ġp Select
INT ERN
RE PEAT
Ġis s
B eacon
b sn
l sn
Def ine
Ġtask s
5 25
Ġ1 90
Ġspar c
Ġst ereo
Ġ/ ****************
vent ion
Ġca used
Ġsaf ely
Ġreg istry
str tol
contour s
Ġ1 93
Ġw k
tt ile
conf irm
v y
/************************************************************************ /\
sub table
32 70
ve locity
Ġloc ated
char p
DE NIED
RATE S
Add Traceback
lo od
Ġwork around
Ġ" ;
Ġmo ment
am ble
ID ISK
ĠRead s
Ġp Scan
dd b
ĠRET URNS
4 87
p Arg
Ass oc
ul tobj
eap on
L ex
t draw
Ġadjust ed
Ġn ick
l sr
?? ?
Os al
c ip
iz ations
Lot Header
Ġ0 110
Ġauth ent
EN CE
Device Info
ĠDECLA RE
obj s
Client Data
u lo
Ġ1 97
sp lat
bu st
PL AN
FS AL
Ġcam era
Ġa xe
cal ib
Ġpre ce
my th
Ġne arest
8 27
( ;
ĠMM U
Ġl n
Ġdel iver
Ġshift ed
n SDL
s adb
tu art
Ġre tries
ĠD UMP
Ġe fficient
ĠPAR AM
P cache
C ENTER
l sb
ĠO STRACE
sock fd
Ġrece iving
Ġexec uting
ĠREAD ME
Ġ16 3
SUP PLY
at temp
txml Schema
n find
IN HERIT
AD S
ul ing
MIC RO
l ished
so lete
icen sing
pW C
Ġr tnl
ro ps
) _
Ġif error
ide s
net r
GLE E
Function s
Ġll vm
Ġ16 8
J A
EX CP
Ġav pkt
Ġcr tc
tgl DrawElements
4 23
t Data
ĠT DB
ĠO ld
/* =
ĠHel per
tA ss
Sy ntax
Ġ.. /
l ck
r type
Ġhist ogram
AP CI
ci se
I STR
ĠB AR
ACT ER
Expr Code
ĠN CR
un init
i Column
ĠT ag
ĠR P
im c
l id
ss ue
Ġk object
q m
Ġm sec
nl msg
tI f
Ġ2 16
VR AM
Pack age
co vered
ĠL icence
MBO X
Ġp fn
ĠSO URCE
Ġh ub
F LO
new val
ĠPa Util
ĠRAD IUS
L ines
mp ort
to date
sk buff
t ERROR
MISS ING
const ants
gr an
Ġcontinu ing
a us
o buf
Ġhand shake
re draw
tS OC
ater ial
color space
M IDI
m irror
Ġ* ))
Ġw rote
L SA
es caped
DI RECTION
Ent ities
S tre
e on
ic md
ĠA ttempt
LE AF
t ENGINE
void p
Ġdis carded
ag c
ĠCo unter
B OR
Ġoctet s
str lcpy
15 72
KEY WORD
head s
co w
GL ONG
Open BSD
tX IXCORE
PLAT FORM
t PHY
Ġc as
Ġ\\ \\
SH AD
Ġ000 11000
tc am
Ġdo clist
IV ED
av el
exp ired
Ġour selves
No tification
ak a
UR B
Ġp ause
Ġ2 05
gl Uniform
ĠVX GE
Ġm h
Ġsys ctl
74 9
Ġinst ances
ol ine
pg m
lk b
000000 10
c ss
ĠE SC
Ġne on
tn es
tr tc
ff est
ĠR ate
row bytes
al sa
t image
ĠH z
t Write
Ġp Ctx
Ġ0 000000000
ĠE very
rec alc
tN dis
-- +
84 2
Sof tB
Ġ2 58
L CK
M ajor
S plit
resol ver
PR C
ĠC OFF
ac ent
Ġ( **
ĠRe ference
tu info
N PC
xf rm
ĠM eta
ld a
ĠCL R
Ġh v
T DD
B est
xff c
lob ber
Fre quency
ĠM ost
gr adient
ro c
sub sys
value p
FA CT
N SS
el ts
ĠO V
tro w
PACK ED
........ ........
N M
Ġwas n
ĠJ ul
BL T
Ġuser data
\' ));\
Ġh ence
ĠBN X
N eeded
Ġf ol
u ap
t tw
Ġprog name
Ġb ias
im ax
Ġp ing
R untime
Ġ2 27
F ore
BO TH
- #
a dev
7 37
: "\
ĠAdv ance
FAM ILY
co lour
Ġal ter
Ġb less
Ġtmp cc
ALLOW ED
t MEM
LEG ACY
tB IG
0001 0000
tb relse
b org
Ġst oring
M IR
Ġcons ists
ĠInst ead
m fc
Node Set
l atch
mp s
METR IC
Ġ\'\\ \'
V oice
09 2
Ġautomat ic
addr len
PAR ITY
6 54
ĠV B
gl MultiTexCoord
ĠB oth
RA ID
br id
Ġtr im
ĠID s
HW REG
RefNanny Declarations
ĠUBI FS
Ġp en
Ġsw ig
Ġph rase
ĠProduct s
nc leanup
rf kill
