{
  "version": "1.0",
  "truncation": null,
  "padding": null,
  "added_tokens": [
    {
      "id": 0,
      "special": true,
      "content": "<pad>",
      "single_word": false,
      "lstrip": false,
      "rstrip": false,
      "normalized": true
    },
    {
      "id": 1,
      "special": true,
      "content": "<s>",
      "single_word": false,
      "lstrip": false,
      "rstrip": false,
      "normalized": true
    },
    {
      "id": 2,
      "special": true,
      "content": "</s>",
      "single_word": false,
      "lstrip": false,
      "rstrip": false,
      "normalized": true
    },
    {
      "id": 3,
      "special": true,
      "content": "<unk>",
      "single_word": false,
      "lstrip": false,
      "rstrip": false,
      "normalized": true
    },
    {
      "id": 4,
      "special": true,
      "content": "<mask>",
      "single_word": false,
      "lstrip": true,
      "rstrip": false,
      "normalized": true
    },
    {
      "id": 5,
      "special": true,
      "content": "<extra_id_99>",
      "single_word": false,
      "lstrip": false,
      "rstrip": false,
      "normalized": false
    },
    {
      "id": 6,
      "special": true,
      "content": "<extra_id_98>",
      "single_word": false,
      "lstrip": false,
      "rstrip": false,
      "normalized": false
    },
    {
      "id": 7,
      "special": true,
      "content": "<extra_id_97>",
      "single_word": false,
      "lstrip": false,
      "rstrip": false,
      "normalized": false
    },
    {
      "id": 8,
      "special": true,
      "content": "<extra_id_96>",
      "single_word": false,
      "lstrip": false,
      "rstrip": false,
      "normalized": false
    },
    {
      "id": 9,
      "special": true,
      "content": "<extra_id_95>",
      "single_word": false,
      "lstrip": false,
      "rstrip": false,
      "normalized": false
    },
    {
      "id": 10,
      "special": true,
      "content": "<extra_id_94>",
      "single_word": false,
      "lstrip": false,
      "rstrip": false,
      "normalized": false
    },
    {
      "id": 11,
      "special": true,
      "content": "<extra_id_93>",
      "single_word": false,
      "lstrip": false,
      "rstrip": false,
      "normalized": false
    },
    {
      "id": 12,
      "special": true,
      "content": "<extra_id_92>",
      "single_word": false,
      "lstrip": false,
      "rstrip": false,
      "normalized": false
    },
    {
      "id": 13,
      "special": true,
      "content": "<extra_id_91>",
      "single_word": false,
      "lstrip": false,
      "rstrip": false,
      "normalized": false
    },
    {
      "id": 14,
      "special": true,
      "content": "<extra_id_90>",
      "single_word": false,
      "lstrip": false,
      "rstrip": false,
      "normalized": false
    },
    {
      "id": 15,
      "special": true,
      "content": "<extra_id_89>",
      "single_word": false,
      "lstrip": false,
      "rstrip": false,
      "normalized": false
    },
    {
      "id": 16,
      "special": true,
      "content": "<extra_id_88>",
      "single_word": false,
      "lstrip": false,
      "rstrip": false,
      "normalized": false
    },
    {
      "id": 17,
      "special": true,
      "content": "<extra_id_87>",
      "single_word": false,
      "lstrip": false,
      "rstrip": false,
      "normalized": false
    },
    {
      "id": 18,
      "special": true,
      "content": "<extra_id_86>",
      "single_word": false,
      "lstrip": false,
      "rstrip": false,
      "normalized": false
    },
    {
      "id": 19,
      "special": true,
      "content": "<extra_id_85>",
      "single_word": false,
      "lstrip": false,
      "rstrip": false,
      "normalized": false
    },
    {
      "id": 20,
      "special": true,
      "content": "<extra_id_84>",
      "single_word": false,
      "lstrip": false,
      "rstrip": false,
      "normalized": false
    },
    {
      "id": 21,
      "special": true,
      "content": "<extra_id_83>",
      "single_word": false,
      "lstrip": false,
      "rstrip": false,
      "normalized": false
    },
    {
      "id": 22,
      "special": true,
      "content": "<extra_id_82>",
      "single_word": false,
      "lstrip": false,
      "rstrip": false,
      "normalized": false
    },
    {
      "id": 23,
      "special": true,
      "content": "<extra_id_81>",
      "single_word": false,
      "lstrip": false,
      "rstrip": false,
      "normalized": false
    },
    {
      "id": 24,
      "special": true,
      "content": "<extra_id_80>",
      "single_word": false,
      "lstrip": false,
      "rstrip": false,
      "normalized": false
    },
    {
      "id": 25,
      "special": true,
      "content": "<extra_id_79>",
      "single_word": false,
      "lstrip": false,
      "rstrip": false,
      "normalized": false
    },
    {
      "id": 26,
      "special": true,
      "content": "<extra_id_78>",
      "single_word": false,
      "lstrip": false,
      "rstrip": false,
      "normalized": false
    },
    {
      "id": 27,
      "special": true,
      "content": "<extra_id_77>",
      "single_word": false,
      "lstrip": false,
      "rstrip": false,
      "normalized": false
    },
    {
      "id": 28,
      "special": true,
      "content": "<extra_id_76>",
      "single_word": false,
      "lstrip": false,
      "rstrip": false,
      "normalized": false
    },
    {
      "id": 29,
      "special": true,
      "content": "<extra_id_75>",
      "single_word": false,
      "lstrip": false,
      "rstrip": false,
      "normalized": false
    },
    {
      "id": 30,
      "special": true,
      "content": "<extra_id_74>",
      "single_word": false,
      "lstrip": false,
      "rstrip": false,
      "normalized": false
    },
    {
      "id": 31,
      "special": true,
      "content": "<extra_id_73>",
      "single_word": false,
      "lstrip": false,
      "rstrip": false,
      "normalized": false
    },
    {
      "id": 32,
      "special": true,
      "content": "<extra_id_72>",
      "single_word": false,
      "lstrip": false,
      "rstrip": false,
      "normalized": false
    },
    {
      "id": 33,
      "special": true,
      "content": "<extra_id_71>",
      "single_word": false,
      "lstrip": false,
      "rstrip": false,
      "normalized": false
    },
    {
      "id": 34,
      "special": true,
      "content": "<extra_id_70>",
      "single_word": false,
      "lstrip": false,
      "rstrip": false,
      "normalized": false
    },
    {
      "id": 35,
      "special": true,
      "content": "<extra_id_69>",
      "single_word": false,
      "lstrip": false,
      "rstrip": false,
      "normalized": false
    },
    {
      "id": 36,
      "special": true,
      "content": "<extra_id_68>",
      "single_word": false,
      "lstrip": false,
      "rstrip": false,
      "normalized": false
    },
    {
      "id": 37,
      "special": true,
      "content": "<extra_id_67>",
      "single_word": false,
      "lstrip": false,
      "rstrip": false,
      "normalized": false
    },
    {
      "id": 38,
      "special": true,
      "content": "<extra_id_66>",
      "single_word": false,
      "lstrip": false,
      "rstrip": false,
      "normalized": false
    },
    {
      "id": 39,
      "special": true,
      "content": "<extra_id_65>",
      "single_word": false,
      "lstrip": false,
      "rstrip": false,
      "normalized": false
    },
    {
      "id": 40,
      "special": true,
      "content": "<extra_id_64>",
      "single_word": false,
      "lstrip": false,
      "rstrip": false,
      "normalized": false
    },
    {
      "id": 41,
      "special": true,
      "content": "<extra_id_63>",
      "single_word": false,
      "lstrip": false,
      "rstrip": false,
      "normalized": false
    },
    {
      "id": 42,
      "special": true,
      "content": "<extra_id_62>",
      "single_word": false,
      "lstrip": false,
      "rstrip": false,
      "normalized": false
    },
    {
      "id": 43,
      "special": true,
      "content": "<extra_id_61>",
      "single_word": false,
      "lstrip": false,
      "rstrip": false,
      "normalized": false
    },
    {
      "id": 44,
      "special": true,
      "content": "<extra_id_60>",
      "single_word": false,
      "lstrip": false,
      "rstrip": false,
      "normalized": false
    },
    {
      "id": 45,
      "special": true,
      "content": "<extra_id_59>",
      "single_word": false,
      "lstrip": false,
      "rstrip": false,
      "normalized": false
    },
    {
      "id": 46,
      "special": true,
      "content": "<extra_id_58>",
      "single_word": false,
      "lstrip": false,
      "rstrip": false,
      "normalized": false
    },
    {
      "id": 47,
      "special": true,
      "content": "<extra_id_57>",
      "single_word": false,
      "lstrip": false,
      "rstrip": false,
      "normalized": false
    },
    {
      "id": 48,
      "special": true,
      "content": "<extra_id_56>",
      "single_word": false,
      "lstrip": false,
      "rstrip": false,
      "normalized": false
    },
    {
      "id": 49,
      "special": true,
      "content": "<extra_id_55>",
      "single_word": false,
      "lstrip": false,
      "rstrip": false,
      "normalized": false
    },
    {
      "id": 50,
      "special": true,
      "content": "<extra_id_54>",
      "single_word": false,
      "lstrip": false,
      "rstrip": false,
      "normalized": false
    },
    {
      "id": 51,
      "special": true,
      "content": "<extra_id_53>",
      "single_word": false,
      "lstrip": false,
      "rstrip": false,
      "normalized": false
    },
    {
      "id": 52,
      "special": true,
      "content": "<extra_id_52>",
      "single_word": false,
      "lstrip": false,
      "rstrip": false,
      "normalized": false
    },
    {
      "id": 53,
      "special": true,
      "content": "<extra_id_51>",
      "single_word": false,
      "lstrip": false,
      "rstrip": false,
      "normalized": false
    },
    {
      "id": 54,
      "special": true,
      "content": "<extra_id_50>",
      "single_word": false,
      "lstrip": false,
      "rstrip": false,
      "normalized": false
    },
    {
      "id": 55,
      "special": true,
      "content": "<extra_id_49>",
      "single_word": false,
      "lstrip": false,
      "rstrip": false,
      "normalized": false
    },
    {
      "id": 56,
      "special": true,
      "content": "<extra_id_48>",
      "single_word": false,
      "lstrip": false,
      "rstrip": false,
      "normalized": false
    },
    {
      "id": 57,
      "special": true,
      "content": "<extra_id_47>",
      "single_word": false,
      "lstrip": false,
      "rstrip": false,
      "normalized": false
    },
    {
      "id": 58,
      "special": true,
      "content": "<extra_id_46>",
      "single_word": false,
      "lstrip": false,
      "rstrip": false,
      "normalized": false
    },
    {
      "id": 59,
      "special": true,
      "content": "<extra_id_45>",
      "single_word": false,
      "lstrip": false,
      "rstrip": false,
      "normalized": false
    },
    {
      "id": 60,
      "special": true,
      "content": "<extra_id_44>",
      "single_word": false,
      "lstrip": false,
      "rstrip": false,
      "normalized": false
    },
    {
      "id": 61,
      "special": true,
      "content": "<extra_id_43>",
      "single_word": false,
      "lstrip": false,
      "rstrip": false,
      "normalized": false
    },
    {
      "id": 62,
      "special": true,
      "content": "<extra_id_42>",
      "single_word": false,
      "lstrip": false,
      "rstrip": false,
      "normalized": false
    },
    {
      "id": 63,
      "special": true,
      "content": "<extra_id_41>",
      "single_word": false,
      "lstrip": false,
      "rstrip": false,
      "normalized": false
    },
    {
      "id": 64,
      "special": true,
      "content": "<extra_id_40>",
      "single_word": false,
      "lstrip": false,
      "rstrip": false,
      "normalized": false
    },
    {
      "id": 65,
      "special": true,
      "content": "<extra_id_39>",
      "single_word": false,
      "lstrip": false,
      "rstrip": false,
      "normalized": false
    },
    {
      "id": 66,
      "special": true,
      "content": "<extra_id_38>",
      "single_word": false,
      "lstrip": false,
      "rstrip": false,
      "normalized": false
    },
    {
      "id": 67,
      "special": true,
      "content": "<extra_id_37>",
      "single_word": false,
      "lstrip": false,
      "rstrip": false,
      "normalized": false
    },
    {
      "id": 68,
      "special": true,
      "content": "<extra_id_36>",
      "single_word": false,
      "lstrip": false,
      "rstrip": false,
      "normalized": false
    },
    {
      "id": 69,
      "special": true,
      "content": "<extra_id_35>",
      "single_word": false,
      "lstrip": false,
      "rstrip": false,
      "normalized": false
    },
    {
      "id": 70,
      "special": true,
      "content": "<extra_id_34>",
      "single_word": false,
      "lstrip": false,
      "rstrip": false,
      "normalized": false
    },
    {
      "id": 71,
      "special": true,
      "content": "<extra_id_33>",
      "single_word": false,
      "lstrip": false,
      "rstrip": false,
      "normalized": false
    },
    {
      "id": 72,
      "special": true,
      "content": "<extra_id_32>",
      "single_word": false,
      "lstrip": false,
      "rstrip": false,
      "normalized": false
    },
    {
      "id": 73,
      "special": true,
      "content": "<extra_id_31>",
      "single_word": false,
      "lstrip": false,
      "rstrip": false,
      "normalized": false
    },
    {
      "id": 74,
      "special": true,
      "content": "<extra_id_30>",
      "single_word": false,
      "lstrip": false,
      "rstrip": false,
      "normalized": false
    },
    {
      "id": 75,
      "special": true,
      "content": "<extra_id_29>",
      "single_word": false,
      "lstrip": false,
      "rstrip": false,
      "normalized": false
    },
    {
      "id": 76,
      "special": true,
      "content": "<extra_id_28>",
      "single_word": false,
      "lstrip": false,
      "rstrip": false,
      "normalized": false
    },
    {
      "id": 77,
      "special": true,
      "content": "<extra_id_27>",
      "single_word": false,
      "lstrip": false,
      "rstrip": false,
      "normalized": false
    },
    {
      "id": 78,
      "special": true,
      "content": "<extra_id_26>",
      "single_word": false,
      "lstrip": false,
      "rstrip": false,
      "normalized": false
    },
    {
      "id": 79,
      "special": true,
      "content": "<extra_id_25>",
      "single_word": false,
      "lstrip": false,
      "rstrip": false,
      "normalized": false
    },
    {
      "id": 80,
      "special": true,
      "content": "<extra_id_24>",
      "single_word": false,
      "lstrip": false,
      "rstrip": false,
      "normalized": false
    },
    {
      "id": 81,
      "special": true,
      "content": "<extra_id_23>",
      "single_word": false,
      "lstrip": false,
      "rstrip": false,
      "normalized": false
    },
    {
      "id": 82,
      "special": true,
      "content": "<extra_id_22>",
      "single_word": false,
      "lstrip": false,
      "rstrip": false,
      "normalized": false
    },
    {
      "id": 83,
      "special": true,
      "content": "<extra_id_21>",
      "single_word": false,
      "lstrip": false,
      "rstrip": false,
      "normalized": false
    },
    {
      "id": 84,
      "special": true,
      "content": "<extra_id_20>",
      "single_word": false,
      "lstrip": false,
      "rstrip": false,
      "normalized": false
    },
    {
      "id": 85,
      "special": true,
      "content": "<extra_id_19>",
      "single_word": false,
      "lstrip": false,
      "rstrip": false,
      "normalized": false
    },
    {
      "id": 86,
      "special": true,
      "content": "<extra_id_18>",
      "single_word": false,
      "lstrip": false,
      "rstrip": false,
      "normalized": false
    },
    {
      "id": 87,
      "special": true,
      "content": "<extra_id_17>",
      "single_word": false,
      "lstrip": false,
      "rstrip": false,
      "normalized": false
    },
    {
      "id": 88,
      "special": true,
      "content": "<extra_id_16>",
      "single_word": false,
      "lstrip": false,
      "rstrip": false,
      "normalized": false
    },
    {
      "id": 89,
      "special": true,
      "content": "<extra_id_15>",
      "single_word": false,
      "lstrip": false,
      "rstrip": false,
      "normalized": false
    },
    {
      "id": 90,
      "special": true,
      "content": "<extra_id_14>",
      "single_word": false,
      "lstrip": false,
      "rstrip": false,
      "normalized": false
    },
    {
      "id": 91,
      "special": true,
      "content": "<extra_id_13>",
      "single_word": false,
      "lstrip": false,
      "rstrip": false,
      "normalized": false
    },
    {
      "id": 92,
      "special": true,
      "content": "<extra_id_12>",
      "single_word": false,
      "lstrip": false,
      "rstrip": false,
      "normalized": false
    },
    {
      "id": 93,
      "special": true,
      "content": "<extra_id_11>",
      "single_word": false,
      "lstrip": false,
      "rstrip": false,
      "normalized": false
    },
    {
      "id": 94,
      "special": true,
      "content": "<extra_id_10>",
      "single_word": false,
      "lstrip": false,
      "rstrip": false,
      "normalized": false
    },
    {
      "id": 95,
      "special": true,
      "content": "<extra_id_9>",
      "single_word": false,
      "lstrip": false,
      "rstrip": false,
      "normalized": false
    },
    {
      "id": 96,
      "special": true,
      "content": "<extra_id_8>",
      "single_word": false,
      "lstrip": false,
      "rstrip": false,
      "normalized": false
    },
    {
      "id": 97,
      "special": true,
      "content": "<extra_id_7>",
      "single_word": false,
      "lstrip": false,
      "rstrip": false,
      "normalized": false
    },
    {
      "id": 98,
      "special": true,
      "content": "<extra_id_6>",
      "single_word": false,
      "lstrip": false,
      "rstrip": false,
      "normalized": false
    },
    {
      "id": 99,
      "special": true,
      "content": "<extra_id_5>",
      "single_word": false,
      "lstrip": false,
      "rstrip": false,
      "normalized": false
    },
    {
      "id": 100,
      "special": true,
      "content": "<extra_id_4>",
      "single_word": false,
      "lstrip": false,
      "rstrip": false,
      "normalized": false
    },
    {
      "id": 101,
      "special": true,
      "content": "<extra_id_3>",
      "single_word": false,
      "lstrip": false,
      "rstrip": false,
      "normalized": false
    },
    {
      "id": 102,
      "special": true,
      "content": "<extra_id_2>",
      "single_word": false,
      "lstrip": false,
      "rstrip": false,
      "normalized": false
    },
    {
      "id": 103,
      "special": true,
      "content": "<extra_id_1>",
      "single_word": false,
      "lstrip": false,
      "rstrip": false,
      "normalized": false
    },
    {
      "id": 104,
      "special": true,
      "content": "<extra_id_0>",
      "single_word": false,
      "lstrip": false,
      "rstrip": false,
      "normalized": false
    }
  ],
  "normalizer": null,
  "pre_tokenizer": {
    "type": "ByteLevel",
    "add_prefix_space": false,
    "trim_offsets": true
  },
  "post_processor": {
    "type": "RobertaProcessing",
    "sep": [
      "</s>",
      2
    ],
    "cls": [
      "<s>",
      1
    ],
    "trim_offsets": true,
    "add_prefix_space": false
  },
  "decoder": {
    "type": "ByteLevel",
    "add_prefix_space": true,
    "trim_offsets": true
  },
  "model": {
    "type": "BPE",
    "dropout": null,
    "unk_token": null,
    "continuing_subword_prefix": "",
    "end_of_word_suffix": "",
    "fuse_unk": false,
    "vocab": {
      "<pad>": 0,
      "<s>": 1,
      "</s>": 2,
      "<unk>": 3,
      "<mask>": 4,
      "<extra_id_99>": 5,
      "<extra_id_98>": 6,
      "<extra_id_97>": 7,
      "<extra_id_96>": 8,
      "<extra_id_95>": 9,
      "<extra_id_94>": 10,
      "<extra_id_93>": 11,
      "<extra_id_92>": 12,
      "<extra_id_91>": 13,
      "<extra_id_90>": 14,
      "<extra_id_89>": 15,
      "<extra_id_88>": 16,
      "<extra_id_87>": 17,
      "<extra_id_86>": 18,
      "<extra_id_85>": 19,
      "<extra_id_84>": 20,
      "<extra_id_83>": 21,
      "<extra_id_82>": 22,
      "<extra_id_81>": 23,
      "<extra_id_80>": 24,
      "<extra_id_79>": 25,
      "<extra_id_78>": 26,
      "<extra_id_77>": 27,
      "<extra_id_76>": 28,
      "<extra_id_75>": 29,
      "<extra_id_74>": 30,
      "<extra_id_73>": 31,
      "<extra_id_72>": 32,
      "<extra_id_71>": 33,
      "<extra_id_70>": 34,
      "<extra_id_69>": 35,
      "<extra_id_68>": 36,
      "<extra_id_67>": 37,
      "<extra_id_66>": 38,
      "<extra_id_65>": 39,
      "<extra_id_64>": 40,
      "<extra_id_63>": 41,
      "<extra_id_62>": 42,
      "<extra_id_61>": 43,
      "<extra_id_60>": 44,
      "<extra_id_59>": 45,
      "<extra_id_58>": 46,
      "<extra_id_57>": 47,
      "<extra_id_56>": 48,
      "<extra_id_55>": 49,
      "<extra_id_54>": 50,
      "<extra_id_53>": 51,
      "<extra_id_52>": 52,
      "<extra_id_51>": 53,
      "<extra_id_50>": 54,
      "<extra_id_49>": 55,
      "<extra_id_48>": 56,
      "<extra_id_47>": 57,
      "<extra_id_46>": 58,
      "<extra_id_45>": 59,
      "<extra_id_44>": 60,
      "<extra_id_43>": 61,
      "<extra_id_42>": 62,
      "<extra_id_41>": 63,
      "<extra_id_40>": 64,
      "<extra_id_39>": 65,
      "<extra_id_38>": 66,
      "<extra_id_37>": 67,
      "<extra_id_36>": 68,
      "<extra_id_35>": 69,
      "<extra_id_34>": 70,
      "<extra_id_33>": 71,
      "<extra_id_32>": 72,
      "<extra_id_31>": 73,
      "<extra_id_30>": 74,
      "<extra_id_29>": 75,
      "<extra_id_28>": 76,
      "<extra_id_27>": 77,
      "<extra_id_26>": 78,
      "<extra_id_25>": 79,
      "<extra_id_24>": 80,
      "<extra_id_23>": 81,
      "<extra_id_22>": 82,
      "<extra_id_21>": 83,
      "<extra_id_20>": 84,
      "<extra_id_19>": 85,
      "<extra_id_18>": 86,
      "<extra_id_17>": 87,
      "<extra_id_16>": 88,
      "<extra_id_15>": 89,
      "<extra_id_14>": 90,
      "<extra_id_13>": 91,
      "<extra_id_12>": 92,
      "<extra_id_11>": 93,
      "<extra_id_10>": 94,
      "<extra_id_9>": 95,
      "<extra_id_8>": 96,
      "<extra_id_7>": 97,
      "<extra_id_6>": 98,
      "<extra_id_5>": 99,
      "<extra_id_4>": 100,
      "<extra_id_3>": 101,
      "<extra_id_2>": 102,
      "<extra_id_1>": 103,
      "<extra_id_0>": 104,
      "!": 105,
      "\"": 106,
      "#": 107,
      "$": 108,
      "%": 109,
      "&": 110,
      "'": 111,
      "(": 112,
      ")": 113,
      "*": 114,
      "+": 115,
      ",": 116,
      "-": 117,
      ".": 118,
      "/": 119,
      "0": 120,
      "1": 121,
      "2": 122,
      "3": 123,
      "4": 124,
      "5": 125,
      "6": 126,
      "7": 127,
      "8": 128,
      "9": 129,
      ":": 130,
      ";": 131,
      "<": 132,
      "=": 133,
      ">": 134,
      "?": 135,
      "@": 136,
      "A": 137,
      "B": 138,
      "C": 139,
      "D": 140,
      "E": 141,
      "F": 142,
      "G": 143,
      "H": 144,
      "I": 145,
      "J": 146,
      "K": 147,
      "L": 148,
      "M": 149,
      "N": 150,
      "O": 151,
      "P": 152,
      "Q": 153,
      "R": 154,
      "S": 155,
      "T": 156,
      "U": 157,
      "V": 158,
      "W": 159,
      "X": 160,
      "Y": 161,
      "Z": 162,
      "[": 163,
      "\\": 164,
      "]": 165,
      "^": 166,
      "_": 167,
      "`": 168,
      "a": 169,
      "b": 170,
      "c": 171,
      "d": 172,
      "e": 173,
      "f": 174,
      "g": 175,
      "h": 176,
      "i": 177,
      "j": 178,
      "k": 179,
      "l": 180,
      "m": 181,
      "n": 182,
      "o": 183,
      "p": 184,
      "q": 185,
      "r": 186,
      "s": 187,
      "t": 188,
      "u": 189,
      "v": 190,
      "w": 191,
      "x": 192,
      "y": 193,
      "z": 194,
      "{": 195,
      "|": 196,
      "}": 197,
      "~": 198,
      "¡": 199,
      "¢": 200,
      "£": 201,
      "¤": 202,
      "¥": 203,
      "¦": 204,
      "§": 205,
      "¨": 206,
      "©": 207,
      "ª": 208,
      "«": 209,
      "¬": 210,
      "®": 211,
      "¯": 212,
      "°": 213,
      "±": 214,
      "²": 215,
      "³": 216,
      "´": 217,
      "µ": 218,
      "¶": 219,
      "·": 220,
      "¸": 221,
      "¹": 222,
      "º": 223,
      "»": 224,
      "¼": 225,
      "½": 226,
      "¾": 227,
      "¿": 228,
      "À": 229,
      "Á": 230,
      "Â": 231,
      "Ã": 232,
      "Ä": 233,
      "Å": 234,
      "Æ": 235,
      "Ç": 236,
      "È": 237,
      "É": 238,
      "Ê": 239,
      "Ë": 240,
      "Ì": 241,
      "Í": 242,
      "Î": 243,
      "Ï": 244,
      "Ð": 245,
      "Ñ": 246,
      "Ò": 247,
      "Ó": 248,
      "Ô": 249,
      "Õ": 250,
      "Ö": 251,
      "×": 252,
      "Ø": 253,
      "Ù": 254,
      "Ú": 255,
      "Û": 256,
      "Ü": 257,
      "Ý": 258,
      "Þ": 259,
      "ß": 260,
      "à": 261,
      "á": 262,
      "â": 263,
      "ã": 264,
      "ä": 265,
      "å": 266,
      "æ": 267,
      "ç": 268,
      "è": 269,
      "é": 270,
      "ê": 271,
      "ë": 272,
      "ì": 273,
      "í": 274,
      "î": 275,
      "ï": 276,
      "ð": 277,
      "ñ": 278,
      "ò": 279,
      "ó": 280,
      "ô": 281,
      "õ": 282,
      "ö": 283,
      "÷": 284,
      "ø": 285,
      "ù": 286,
      "ú": 287,
      "û": 288,
      "ü": 289,
      "ý": 290,
      "þ": 291,
      "ÿ": 292,
      "Ā": 293,
      "ā": 294,
      "Ă": 295,
      "ă": 296,
      "Ą": 297,
      "ą": 298,
      "Ć": 299,
      "ć": 300,
      "Ĉ": 301,
      "ĉ": 302,
      "Ċ": 303,
      "ċ": 304,
      "Č": 305,
      "č": 306,
      "Ď": 307,
      "ď": 308,
      "Đ": 309,
      "đ": 310,
      "Ē": 311,
      "ē": 312,
      "Ĕ": 313,
      "ĕ": 314,
      "Ė": 315,
      "ė": 316,
      "Ę": 317,
      "ę": 318,
      "Ě": 319,
      "ě": 320,
      "Ĝ": 321,
      "ĝ": 322,
      "Ğ": 323,
      "ğ": 324,
      "Ġ": 325,
      "ġ": 326,
      "Ģ": 327,
      "ģ": 328,
      "Ĥ": 329,
      "ĥ": 330,
      "Ħ": 331,
      "ħ": 332,
      "Ĩ": 333,
      "ĩ": 334,
      "Ī": 335,
      "ī": 336,
      "Ĭ": 337,
      "ĭ": 338,
      "Į": 339,
      "į": 340,
      "İ": 341,
      "ı": 342,
      "Ĳ": 343,
      "ĳ": 344,
      "Ĵ": 345,
      "ĵ": 346,
      "Ķ": 347,
      "ķ": 348,
      "ĸ": 349,
      "Ĺ": 350,
      "ĺ": 351,
      "Ļ": 352,
      "ļ": 353,
      "Ľ": 354,
      "ľ": 355,
      "Ŀ": 356,
      "ŀ": 357,
      "Ł": 358,
      "ł": 359,
      "Ń": 360,
      "ĠĠ": 361,
      "ĠĠĠĠ": 362,
      ";\\": 363,
      "in": 364,
      "re": 365,
      "Ġ*": 366,
      "ĠĠĠ": 367,
      "ĠĠĠĠĠĠĠĠ": 368,
      "**": 369,
      "st": 370,
      "Ġ0": 371,
      "Ġ=": 372,
      "er": 373,
      "Ġ(": 374,
      "at": 375,
      ");\\": 376,
      "Ġt": 377,
      "->": 378,
      "de": 379,
      "on": 380,
      "00": 381,
      "se": 382,
      "en": 383,
      "--": 384,
      "Ġc": 385,
      "if": 386,
      ",\\": 387,
      "or": 388,
      "ar": 389,
      "al": 390,
      "****": 391,
      "le": 392,
      "he": 393,
      "it": 394,
      "{\\": 395,
      "ct": 396,
      "int": 397,
      "an": 398,
      "\\\\": 399,
      "Ġs": 400,
      "}\\": 401,
      ")\\": 402,
      "/*": 403,
      "/\\": 404,
      "Ġp": 405,
      "Ġf": 406,
      "ur": 407,
      "Ġ*/\\": 408,
      "me": 409,
      "Ġb": 410,
      "ic": 411,
      "Ġre": 412,
      "Ġthe": 413,
      "lo": 414,
      "Ġa": 415,
      "ĠĠĠĠĠĠĠ": 416,
      "----": 417,
      "un": 418,
      "is": 419,
      "str": 420,
      "ĠĠĠĠĠĠĠĠĠĠĠĠĠĠĠĠ": 421,
      "Ġ{\\": 422,
      "Ġ\"": 423,
      "ed": 424,
      "ut": 425,
      "Ġo": 426,
      "Ġ1": 427,
      "==": 428,
      "id": 429,
      "ion": 430,
      "ro": 431,
      "ĠĠĠĠĠ": 432,
      "Ġn": 433,
      "********": 434,
      "ad": 435,
      "Ġif": 436,
      "urn": 437,
      "et": 438,
      "tr": 439,
      "Ġ&": 440,
      "Ġw": 441,
      "el": 442,
      "__": 443,
      "turn": 444,
      "stat": 445,
      "mp": 446,
      "IN": 447,
      "ck": 448,
      "Ġd": 449,
      "Ġm": 450,
      "ing": 451,
      "ff": 452,
      "ex": 453,
      "ig": 454,
      "ch": 455,
      "es": 456,
      "ĠS": 457,
      "Ġ/*": 458,
      "\\'": 459,
      "LL": 460,
      "tif": 461,
      "ĠN": 462,
      "RE": 463,
      "co": 464,
      "Ġv": 465,
      "ER": 466,
      "iz": 467,
      "ag": 468,
      "Ġin": 469,
      "Ġint": 470,
      "Ġ-": 471,
      "ĠT": 472,
      "uct": 473,
      "ame": 474,
      "as": 475,
      "Ġl": 476,
      "pe": 477,
      "struct": 478,
      "ize": 479,
      "ot": 480,
      "Ġ<": 481,
      "and": 482,
      "Ġ}\\": 483,
      "ĠP": 484,
      "ase": 485,
      "tre": 486,
      "ĠC": 487,
      "Ġto": 488,
      "def": 489,
      "ul": 490,
      "0000": 491,
      "set": 492,
      "ab": 493,
      "--------": 494,
      "Ġi": 495,
      "ue": 496,
      "cl": 497,
      "32": 498,
      "ĠA": 499,
      "ULL": 500,
      "ent": 501,
      "us": 502,
      "\",": 503,
      "Ġ==": 504,
      "il": 505,
      "ĠF": 506,
      "op": 507,
      "ce": 508,
      "ata": 509,
      "Ġg": 510,
      "ap": 511,
      "err": 512,
      "====": 513,
      "Ġ+": 514,
      "ode": 515,
      "Ġ2": 516,
      "ile": 517,
      "um": 518,
      "dev": 519,
      "DE": 520,
      ".\\": 521,
      "Ġ{": 522,
      "ON": 523,
      "th": 524,
      "ST": 525,
      "OR": 526,
      "Ġreturn": 527,
      "con": 528,
      "ĠĠĠĠĠĠĠĠĠĠĠ": 529,
      "static": 530,
      "Ġof": 531,
      "pr": 532,
      "iv": 533,
      "oid": 534,
      "ine": 535,
      "Ġ}": 536,
      "ol": 537,
      "ĠNULL": 538,
      "SE": 539,
      "ist": 540,
      "bu": 541,
      ":\\": 542,
      "IT": 543,
      "Ġ|": 544,
      "Ġis": 545,
      "Ġ\\": 546,
      "****************": 547,
      "ĠI": 548,
      "up": 549,
      "Ġh": 550,
      "Ġcon": 551,
      "Ġth": 552,
      "nstatic": 553,
      "ate": 554,
      "))": 555,
      "end": 556,
      "fo": 557,
      "ext": 558,
      "Ġfor": 559,
      "ss": 560,
      "nt": 561,
      "AT": 562,
      "ype": 563,
      "Ġch": 564,
      "treturn": 565,
      "dr": 566,
      "EN": 567,
      "Ġr": 568,
      "AL": 569,
      "AR": 570,
      "ĠM": 571,
      "am": 572,
      "ts": 573,
      "ite": 574,
      "ak": 575,
      "16": 576,
      "else": 577,
      "Ġ!": 578,
      "Ġu": 579,
      "able": 580,
      "arg": 581,
      "val": 582,
      "ay": 583,
      "ĠG": 584,
      "ign": 585,
      "te": 586,
      "),": 587,
      "lock": 588,
      "ir": 589,
      "len": 590,
      "data": 591,
      "ip": 592,
      "clu": 593,
      "of": 594,
      "ĠL": 595,
      "ĠR": 596,
      "ort": 597,
      "clude": 598,
      "LE": 599,
      "ect": 600,
      "//": 601,
      "Ġ%": 602,
      "Ġ__": 603,
      "ĠO": 604,
      "ub": 605,
      "name": 606,
      "im": 607,
      "ation": 608,
      "py": 609,
      "ma": 610,
      "tc": 611,
      "ĠD": 612,
      "Ġand": 613,
      "));\\": 614,
      "loc": 615,
      "ib": 616,
      "(\"": 617,
      "MA": 618,
      "Ġ*\\": 619,
      "ree": 620,
      "include": 621,
      "to": 622,
      "Ġ\\'": 623,
      "FF": 624,
      "size": 625,
      "reak": 626,
      "ack": 627,
      "Ġchar": 628,
      "ve": 629,
      "Ġ!=": 630,
      "all": 631,
      "10": 632,
      "Ġe": 633,
      "io": 634,
      "++": 635,
      "ult": 636,
      "info": 637,
      "sc": 638,
      "age": 639,
      "AN": 640,
      "ow": 641,
      "ĠE": 642,
      "Ġbe": 643,
      "ĠĠĠĠĠĠ": 644,
      "ĠB": 645,
      "sign": 646,
      "Ġ>": 647,
      "----------------": 648,
      "\"\\": 649,
      "(&": 650,
      "ter": 651,
      "64": 652,
      "out": 653,
      "void": 654,
      "\");\\": 655,
      "ac": 656,
      "ix": 657,
      "CT": 658,
      "bj": 659,
      "SI": 660,
      "11": 661,
      "Ġco": 662,
      "Ġ&&": 663,
      "Ġ3": 664,
      "type": 665,
      "ction": 666,
      "ĠĠĠĠĠĠĠĠĠĠĠĠĠĠĠ": 667,
      "tp": 668,
      "Ġelse": 669,
      "========": 670,
      "ver": 671,
      "art": 672,
      "lag": 673,
      "Ġsize": 674,
      "sp": 675,
      "get": 676,
      "buf": 677,
      "ĠW": 678,
      "define": 679,
      "signed": 680,
      "ew": 681,
      "ĠĠĠĠĠĠĠĠĠĠĠĠĠĠĠĠĠĠĠĠĠĠĠĠĠĠĠĠĠĠĠĠ": 682,
      "are": 683,
      "Ġ((": 684,
      "print": 685,
      "mem": 686,
      "12": 687,
      "unsigned": 688,
      "ice": 689,
      "ME": 690,
      "error": 691,
      "SS": 692,
      "Ġst": 693,
      "Ġ4": 694,
      "Ġx": 695,
      "Ġstruct": 696,
      "ith": 697,
      "for": 698,
      "UT": 699,
      "state": 700,
      "igh": 701,
      "Ġde": 702,
      "tb": 703,
      "AD": 704,
      "od": 705,
      "ms": 706,
      "000": 707,
      "CH": 708,
      "Ġvoid": 709,
      "put": 710,
      "Ġse": 711,
      "reg": 712,
      "Ġcase": 713,
      "ffer": 714,
      "LO": 715,
      "read": 716,
      "77": 717,
      "RO": 718,
      "UN": 719,
      "pl": 720,
      "ke": 721,
      "unt": 722,
      "xf": 723,
      "24": 724,
      "nd": 725,
      "mm": 726,
      "Ġ)": 727,
      "},\\": 728,
      "res": 729,
      "\",\\": 730,
      "ime": 731,
      "((": 732,
      "rc": 733,
      "Ġ},\\": 734,
      "Ġit": 735,
      "Ġconst": 736,
      "ong": 737,
      "xe": 738,
      "ptr": 739,
      "FI": 740,
      "Ġpro": 741,
      "ace": 742,
      "INT": 743,
      "Ġon": 744,
      "Ġ(!": 745,
      "20": 746,
      "CE": 747,
      ">\\": 748,
      "pyx": 749,
      "PE": 750,
      "In": 751,
      "ĠĠĠĠĠĠĠĠĠ": 752,
      "char": 753,
      "po": 754,
      "endif": 755,
      "ID": 756,
      "ERR": 757,
      "))\\": 758,
      "ser": 759,
      "Ġnot": 760,
      "pro": 761,
      "];\\": 762,
      "Ġor": 763,
      "GE": 764,
      "Ġval": 765,
      "Ġthis": 766,
      "lags": 767,
      "TR": 768,
      "Ġ*)": 769,
      "tw": 770,
      "US": 771,
      "Ġby": 772,
      "dd": 773,
      "ers": 774,
      "rite": 775,
      "].": 776,
      "80": 777,
      "Ġan": 778,
      "Ġ||": 779,
      "ffset": 780,
      "ind": 781,
      "code": 782,
      "und": 783,
      "********************************": 784,
      "ĠH": 785,
      "ta": 786,
      "par": 787,
      "25": 788,
      "CO": 789,
      "pt": 790,
      "ight": 791,
      "/*\\": 792,
      "key": 793,
      "TI": 794,
      "dex": 795,
      "MP": 796,
      "addr": 797,
      "text": 798,
      "Ġ);\\": 799,
      "fd": 800,
      "Ġwith": 801,
      "qu": 802,
      "alloc": 803,
      "bject": 804,
      "printf": 805,
      "ED": 806,
      "CK": 807,
      "rom": 808,
      "ly": 809,
      "tcase": 810,
      "Ġwh": 811,
      "ment": 812,
      "Ġy": 813,
      "tstruct": 814,
      "IS": 815,
      "Ġbu": 816,
      "ure": 817,
      "oto": 818,
      "file": 819,
      "LA": 820,
      "list": 821,
      "init": 822,
      "db": 823,
      "Ġbreak": 824,
      "Re": 825,
      "xb": 826,
      "nc": 827,
      "no": 828,
      "Ġex": 829,
      "),\\": 830,
      "23": 831,
      "Ġ5": 832,
      "try": 833,
      "EX": 834,
      "Ġwe": 835,
      "status": 836,
      "que": 837,
      "cc": 838,
      "num": 839,
      "Ġ_": 840,
      "ast": 841,
      "99": 842,
      "per": 843,
      "pre": 844,
      "tx": 845,
      "Ġthat": 846,
      "sy": 847,
      "TY": 848,
      "ang": 849,
      "01": 850,
      "md": 851,
      "Ġj": 852,
      "ql": 853,
      "port": 854,
      "ctx": 855,
      "low": 856,
      "tint": 857,
      "ess": 858,
      "Ġdo": 859,
      "VAL": 860,
      "ive": 861,
      "BU": 862,
      "Ġstr": 863,
      "lin": 864,
      "Ġ8": 865,
      "map": 866,
      "ord": 867,
      "ide": 868,
      "ave": 869,
      "Ġuse": 870,
      "*/\\": 871,
      "xd": 872,
      "sh": 873,
      "ial": 874,
      "13": 875,
      "bo": 876,
      "Ġso": 877,
      "IO": 878,
      "ĠU": 879,
      "Ġen": 880,
      "AB": 881,
      "arr": 882,
      "tg": 883,
      "ty": 884,
      "rr": 885,
      "Ġ\\\\": 886,
      "heck": 887,
      "cp": 888,
      "so": 889,
      "gth": 890,
      "REG": 891,
      "OP": 892,
      "15": 893,
      "device": 894,
      "<<": 895,
      "xff": 896,
      "mple": 897,
      "free": 898,
      "ask": 899,
      "ath": 900,
      "ING": 901,
      "Ġsh": 902,
      "Ġfile": 903,
      "Ġtr": 904,
      "377": 905,
      "40": 906,
      "Ġsizeof": 907,
      "Ġlen": 908,
      "em": 909,
      "line": 910,
      "Ġpo": 911,
      "Ġ)\\": 912,
      "();\\": 913,
      "xc": 914,
      "ĠV": 915,
      "tu": 916,
      "tbreak": 917,
      "fs": 918,
      "Ġout": 919,
      "ĠThe": 920,
      "LIT": 921,
      "value": 922,
      "qlite": 923,
      "cur": 924,
      "Ġ+=": 925,
      "ibut": 926,
      "Ġdata": 927,
      "mat": 928,
      "..": 929,
      "14": 930,
      "],": 931,
      "ill": 932,
      "his": 933,
      "flags": 934,
      "___": 935,
      "ev": 936,
      "Ġ<<": 937,
      "pc": 938,
      "rent": 939,
      "ber": 940,
      "ass": 941,
      "unction": 942,
      "opy": 943,
      "add": 944,
      "CON": 945,
      ");": 946,
      "ore": 947,
      "ash": 948,
      "NO": 949,
      "ard": 950,
      "bit": 951,
      "Ġ:": 952,
      "Ġal": 953,
      "ions": 954,
      "50": 955,
      "Ġare": 956,
      "30": 957,
      "Ġres": 958,
      "mb": 959,
      "head": 960,
      "Ġat": 961,
      "ress": 962,
      "xa": 963,
      "const": 964,
      "TYPE": 965,
      "one": 966,
      "Ġ6": 967,
      "Ġ//": 968,
      "St": 969,
      "gr": 970,
      "Ġas": 971,
      "Ġreg": 972,
      "ann": 973,
      "inter": 974,
      "mo": 975,
      "ire": 976,
      "priv": 977,
      "================": 978,
      "TH": 979,
      "ee": 980,
      "Ġdef": 981,
      "td": 982,
      "cr": 983,
      "fig": 984,
      ")(": 985,
      "UE": 986,
      "Ġset": 987,
      "Ġ@": 988,
      "mode": 989,
      "fr": 990,
      "ĠThis": 991,
      "next": 992,
      "act": 993,
      "AP": 994,
      "DR": 995,
      "log": 996,
      "est": 997,
      "ĠX": 998,
      "Ġk": 999,
      "ans": 1000,
      "buffer": 1001,
      "count": 1002,
      "ail": 1003,
      "VE": 1004,
      "UL": 1005,
      "SET": 1006,
      "ust": 1007,
      "ory": 1008,
      "ORT": 1009,
      "Con": 1010,
      "Ġpr": 1011,
      "LI": 1012,
      "Ġfrom": 1013,
      "ml": 1014,
      "ng": 1015,
      "ener": 1016,
      "ost": 1017,
      "Ġlong": 1018,
      "ZE": 1019,
      "Ġunsigned": 1020,
      "Ġz": 1021,
      "ĠĠĠĠĠĠĠĠĠĠĠĠĠĠĠĠĠĠĠ": 1022,
      "Ġret": 1023,
      "fe": 1024,
      "ok": 1025,
      "Ġarg": 1026,
      "array": 1027,
      "SC": 1028,
      "00000000": 1029,
      "nvoid": 1030,
      "--------------------------------": 1031,
      "Ġerror": 1032,
      "andle": 1033,
      "NE": 1034,
      "ax": 1035,
      "node": 1036,
      "36": 1037,
      "Ġsqlite": 1038,
      "18": 1039,
      "Ġ**": 1040,
      "write": 1041,
      "use": 1042,
      "Ġvalue": 1043,
      "()": 1044,
      "STAT": 1045,
      "02": 1046,
      "eg": 1047,
      "start": 1048,
      "DI": 1049,
      "UR": 1050,
      "19": 1051,
      "MO": 1052,
      "by": 1053,
      "17": 1054,
      "icen": 1055,
      "ull": 1056,
      "ifdef": 1057,
      "ph": 1058,
      "Ġnum": 1059,
      "22": 1060,
      "ault": 1061,
      "av": 1062,
      "ity": 1063,
      "time": 1064,
      "SIZE": 1065,
      "icense": 1066,
      "Ġmem": 1067,
      "ll": 1068,
      "};\\": 1069,
      "NU": 1070,
      "new": 1071,
      "fix": 1072,
      "AS": 1073,
      "HE": 1074,
      "ache": 1075,
      "Ġ16": 1076,
      "PR": 1077,
      "unc": 1078,
      "ux": 1079,
      "mt": 1080,
      "tes": 1081,
      "Py": 1082,
      "li": 1083,
      "PC": 1084,
      "Ġ/": 1085,
      "86": 1086,
      "string": 1087,
      "ream": 1088,
      "ERROR": 1089,
      "Ġname": 1090,
      "BUG": 1091,
      "pec": 1092,
      "55": 1093,
      "Co": 1094,
      "tm": 1095,
      "ary": 1096,
      "04": 1097,
      "do": 1098,
      "INVAL": 1099,
      "ret": 1100,
      "ĠĠĠĠĠĠĠĠĠĠĠĠĠ": 1101,
      "AME": 1102,
      "ern": 1103,
      "*/": 1104,
      "ĠPy": 1105,
      "index": 1106,
      "Ġro": 1107,
      "ister": 1108,
      "Ġus": 1109,
      "%%": 1110,
      "attr": 1111,
      "param": 1112,
      "Ġ7": 1113,
      "Ġcur": 1114,
      "Ġle": 1115,
      "offset": 1116,
      "Ġget": 1117,
      "NULL": 1118,
      "**\\": 1119,
      "ĠĠĠĠĠĠĠĠĠĠĠĠ": 1120,
      "AM": 1121,
      "Ġpar": 1122,
      "Ġme": 1123,
      "++;\\": 1124,
      "tmp": 1125,
      "ound": 1126,
      "urce": 1127,
      "ld": 1128,
      "tf": 1129,
      "Ġun": 1130,
      "oftw": 1131,
      "oftware": 1132,
      "itch": 1133,
      "table": 1134,
      "Ġ*/": 1135,
      "msg": 1136,
      "Ġcode": 1137,
      "di": 1138,
      "ci": 1139,
      "Ġnew": 1140,
      "uld": 1141,
      "ENT": 1142,
      "ubl": 1143,
      "nint": 1144,
      "Err": 1145,
      "ĠIN": 1146,
      "IP": 1147,
      "FA": 1148,
      "base": 1149,
      "ert": 1150,
      "DEBUG": 1151,
      "ule": 1152,
      "TE": 1153,
      "tl": 1154,
      "Ġop": 1155,
      "Ġadd": 1156,
      "sa": 1157,
      "ined": 1158,
      "08": 1159,
      "xB": 1160,
      "28": 1161,
      "ec": 1162,
      "xE": 1163,
      "Object": 1164,
      "SP": 1165,
      "CL": 1166,
      "ĠAN": 1167,
      "ated": 1168,
      "UP": 1169,
      "telse": 1170,
      "Ġfunction": 1171,
      "Ġ?": 1172,
      "annel": 1173,
      "irst": 1174,
      "uint": 1175,
      "Ġcan": 1176,
      "Ġbit": 1177,
      "26": 1178,
      "src": 1179,
      "right": 1180,
      "Ġ9": 1181,
      "opt": 1182,
      "col": 1183,
      "ies": 1184,
      "OK": 1185,
      "ep": 1186,
      "34": 1187,
      "Ġ(*": 1188,
      "witch": 1189,
      "Ġsy": 1190,
      "quest": 1191,
      "tfor": 1192,
      "STR": 1193,
      "Ġ|=": 1194,
      "tgoto": 1195,
      "ĠĠĠĠĠĠĠĠĠĠ": 1196,
      "PO": 1197,
      "iel": 1198,
      "27": 1199,
      "ĠOP": 1200,
      "Ġ>>": 1201,
      "56": 1202,
      "ou": 1203,
      "ION": 1204,
      "ns": 1205,
      "back": 1206,
      "LITE": 1207,
      "Ġgoto": 1208,
      "max": 1209,
      "tro": 1210,
      "Get": 1211,
      "INE": 1212,
      "QLITE": 1213,
      "reate": 1214,
      "tv": 1215,
      "ield": 1216,
      "Ġerr": 1217,
      "ĠIf": 1218,
      "IG": 1219,
      "lf": 1220,
      "SH": 1221,
      "ant": 1222,
      "VI": 1223,
      "\\',": 1224,
      "ĠLicense": 1225,
      "stribut": 1226,
      "ange": 1227,
      "ain": 1228,
      "Ġ\\\\\\": 1229,
      "Ġ>=": 1230,
      "++)": 1231,
      "Ġ\"\\\\": 1232,
      "pos": 1233,
      "88": 1234,
      "Str": 1235,
      "90": 1236,
      "AC": 1237,
      "PORT": 1238,
      "comp": 1239,
      "block": 1240,
      "96": 1241,
      "ĠCON": 1242,
      "tree": 1243,
      "tin": 1244,
      "Ġtmp": 1245,
      "min": 1246,
      "]);\\": 1247,
      "ALL": 1248,
      "FO": 1249,
      "PRO": 1250,
      "VER": 1251,
      "req": 1252,
      "Ġass": 1253,
      "entry": 1254,
      "ALSE": 1255,
      "form": 1256,
      "Data": 1257,
      "xx": 1258,
      "33": 1259,
      "sk": 1260,
      "bug": 1261,
      "std": 1262,
      "Ġtype": 1263,
      "Ġlist": 1264,
      "54": 1265,
      "Ġad": 1266,
      "IC": 1267,
      "Par": 1268,
      "Ġsc": 1269,
      "rit": 1270,
      "97": 1271,
      "ATE": 1272,
      "pp": 1273,
      "ild": 1274,
      "sub": 1275,
      "Ġresult": 1276,
      "aw": 1277,
      "ork": 1278,
      "acket": 1279,
      "Ġwill": 1280,
      "Ch": 1281,
      "Ġread": 1282,
      "Ġhave": 1283,
      "sn": 1284,
      "Ġ},": 1285,
      "BA": 1286,
      "Info": 1287,
      "Val": 1288,
      "Ġbuffer": 1289,
      "Ġ[": 1290,
      "84": 1291,
      "idth": 1292,
      "length": 1293,
      "},": 1294,
      "Ġoffset": 1295,
      "Ġ10": 1296,
      "Ġpre": 1297,
      "Ex": 1298,
      "ĠFT": 1299,
      "Ġany": 1300,
      "FFFF": 1301,
      "OL": 1302,
      "ake": 1303,
      "SY": 1304,
      "own": 1305,
      "PI": 1306,
      "37": 1307,
      "fil": 1308,
      "DB": 1309,
      "cmd": 1310,
      "Ġlo": 1311,
      "ould": 1312,
      "dis": 1313,
      "MAX": 1314,
      "ĠOR": 1315,
      "loat": 1316,
      "stream": 1317,
      "Ġdis": 1318,
      "ĠĠĠĠĠĠĠĠĠĠĠĠĠĠĠĠĠĠĠĠĠĠĠ": 1319,
      "OT": 1320,
      "sion": 1321,
      "Ġstate": 1322,
      "conn": 1323,
      "tk": 1324,
      "Ġcomp": 1325,
      "os": 1326,
      "ge": 1327,
      "Un": 1328,
      "ele": 1329,
      "arget": 1330,
      "Ġuint": 1331,
      "opyright": 1332,
      "Ġbuf": 1333,
      "Ġup": 1334,
      "ĠOF": 1335,
      "cs": 1336,
      "CI": 1337,
      "cess": 1338,
      "roup": 1339,
      "EXT": 1340,
      "Ġhe": 1341,
      "ABLE": 1342,
      "ET": 1343,
      "FT": 1344,
      "comm": 1345,
      "Ġwhile": 1346,
      "net": 1347,
      "CR": 1348,
      "Ġ32": 1349,
      "Ġend": 1350,
      "ĠĠĠĠĠĠĠĠĠĠĠĠĠĠ": 1351,
      "header": 1352,
      "be": 1353,
      "mask": 1354,
      "ps": 1355,
      "Ġno": 1356,
      "Type": 1357,
      "irq": 1358,
      "KE": 1359,
      "atch": 1360,
      "[]": 1361,
      "cpu": 1362,
      "pi": 1363,
      "OUT": 1364,
      "ersion": 1365,
      "Lo": 1366,
      "Ġmod": 1367,
      "Ġarray": 1368,
      "desc": 1369,
      "path": 1370,
      "vent": 1371,
      "config": 1372,
      "*)": 1373,
      "FLA": 1374,
      "ded": 1375,
      "35": 1376,
      "om": 1377,
      "Ġcall": 1378,
      "xC": 1379,
      "94": 1380,
      "GET": 1381,
      "red": 1382,
      "iver": 1383,
      "tt": 1384,
      "Ġfree": 1385,
      "Ġrc": 1386,
      "Ġ.": 1387,
      "Bu": 1388,
      "lose": 1389,
      "87": 1390,
      "Ġ#": 1391,
      "ef": 1392,
      "xF": 1393,
      "Set": 1394,
      "ud": 1395,
      "imer": 1396,
      "Ptr": 1397,
      "Int": 1398,
      "IL": 1399,
      "ATA": 1400,
      "cmp": 1401,
      "SR": 1402,
      "ublic": 1403,
      "ther": 1404,
      "utex": 1405,
      "ĠIn": 1406,
      "SK": 1407,
      "60": 1408,
      "emp": 1409,
      "Ġfr": 1410,
      "Ġprint": 1411,
      "Ġopt": 1412,
      "arch": 1413,
      "mod": 1414,
      "old": 1415,
      ")->": 1416,
      "RF": 1417,
      "idx": 1418,
      "indow": 1419,
      "Ġall": 1420,
      "Error": 1421,
      "lay": 1422,
      "DEF": 1423,
      "gram": 1424,
      "Ġtime": 1425,
      "cb": 1426,
      "local": 1427,
      "frame": 1428,
      "face": 1429,
      "vel": 1430,
      "dst": 1431,
      "PRE": 1432,
      "FIG": 1433,
      "ush": 1434,
      "xA": 1435,
      "lean": 1436,
      "Name": 1437,
      "ĠGener": 1438,
      "Ġ(\"": 1439,
      "66": 1440,
      "Ġav": 1441,
      "uble": 1442,
      "Ġq": 1443,
      "IM": 1444,
      "29": 1445,
      "Ġtable": 1446,
      "44": 1447,
      "istribut": 1448,
      "trol": 1449,
      "57": 1450,
      "ition": 1451,
      "led": 1452,
      "ten": 1453,
      "date": 1454,
      "ĠTR": 1455,
      "link": 1456,
      "BIT": 1457,
      "ipt": 1458,
      "SU": 1459,
      "ument": 1460,
      "iled": 1461,
      "ator": 1462,
      "PA": 1463,
      "Ġne": 1464,
      "ient": 1465,
      "ĠJ": 1466,
      "func": 1467,
      "03": 1468,
      "07": 1469,
      "var": 1470,
      "Ġkey": 1471,
      "sert": 1472,
      "ĠGNU": 1473,
      "USE": 1474,
      "linux": 1475,
      "Ġcheck": 1476,
      "SN": 1477,
      "][": 1478,
      "andl": 1479,
      "Ġmode": 1480,
      "bl": 1481,
      "context": 1482,
      "TO": 1483,
      "dir": 1484,
      "CP": 1485,
      "MS": 1486,
      "****************************************************************": 1487,
      "Ġused": 1488,
      "Ġcl": 1489,
      "queue": 1490,
      "Ġ<=": 1491,
      "fixed": 1492,
      "WR": 1493,
      "sg": 1494,
      "AND": 1495,
      "hed": 1496,
      "hw": 1497,
      "ach": 1498,
      "Ġbut": 1499,
      "tunsigned": 1500,
      "fl": 1501,
      "Ġnumber": 1502,
      "pen": 1503,
      "lob": 1504,
      "68": 1505,
      "END": 1506,
      "List": 1507,
      "MEM": 1508,
      "event": 1509,
      "(*": 1510,
      "valid": 1511,
      "Ġblock": 1512,
      "Ġ\"%": 1513,
      "ance": 1514,
      "ĠPublic": 1515,
      "MD": 1516,
      "21": 1517,
      "alse": 1518,
      "Ġstart": 1519,
      "unk": 1520,
      "user": 1521,
      "tn": 1522,
      "obj": 1523,
      "ca": 1524,
      "main": 1525,
      "Pro": 1526,
      "ref": 1527,
      "Ġversion": 1528,
      "Ġdefined": 1529,
      "temp": 1530,
      "READ": 1531,
      "OC": 1532,
      "31": 1533,
      "SA": 1534,
      "Ġshould": 1535,
      "Ġper": 1536,
      "ich": 1537,
      "Ġstatus": 1538,
      "Ġ){\\": 1539,
      "ailed": 1540,
      "FLAG": 1541,
      "Ġmust": 1542,
      "xD": 1543,
      "ump": 1544,
      "row": 1545,
      "cpy": 1546,
      "GL": 1547,
      "ĠY": 1548,
      "ĠFALSE": 1549,
      "NAME": 1550,
      "ĠGeneral": 1551,
      "tain": 1552,
      "ell": 1553,
      "ify": 1554,
      "LOCK": 1555,
      "word": 1556,
      "item": 1557,
      "REF": 1558,
      "ITE": 1559,
      "ename": 1560,
      "MB": 1561,
      "Ġflags": 1562,
      "ameter": 1563,
      "ML": 1564,
      "38": 1565,
      "tret": 1566,
      "ft": 1567,
      "test": 1568,
      "irect": 1569,
      "ait": 1570,
      "lib": 1571,
      "Ġindex": 1572,
      "STATUS": 1573,
      "play": 1574,
      "lat": 1575,
      "open": 1576,
      "Ġspec": 1577,
      "hash": 1578,
      "INFO": 1579,
      "FS": 1580,
      "Ġassert": 1581,
      "LEN": 1582,
      "call": 1583,
      "result": 1584,
      "Ġlength": 1585,
      "cf": 1586,
      "Ġsp": 1587,
      "Ġcount": 1588,
      "Ġdev": 1589,
      "DO": 1590,
      "ARR": 1591,
      "Value": 1592,
      "load": 1593,
      "bits": 1594,
      "mbol": 1595,
      "98": 1596,
      "58": 1597,
      "++)\\": 1598,
      "Ġsub": 1599,
      "uth": 1600,
      "0000000": 1601,
      "current": 1602,
      "Ġinit": 1603,
      "move": 1604,
      "(__": 1605,
      "object": 1606,
      "NT": 1607,
      "Ġ200": 1608,
      "Ġmax": 1609,
      "args": 1610,
      "CC": 1611,
      "ero": 1612,
      "67": 1613,
      "\";\\": 1614,
      "br": 1615,
      "ĠAR": 1616,
      "ues": 1617,
      "Ġdevice": 1618,
      "ĠANY": 1619,
      "File": 1620,
      "Ġcomm": 1621,
      "Size": 1622,
      "MASK": 1623,
      "pa": 1624,
      "Ġsrc": 1625,
      "DATA": 1626,
      "KEY": 1627,
      "ONE": 1628,
      "si": 1629,
      "Ġwrite": 1630,
      "Ġ=\\": 1631,
      "ick": 1632,
      "handle": 1633,
      "Ġcurrent": 1634,
      "ute": 1635,
      "ssion": 1636,
      "48": 1637,
      "ĠK": 1638,
      "PAR": 1639,
      "host": 1640,
      "DL": 1641,
      "State": 1642,
      "CODE": 1643,
      "cache": 1644,
      "ĠTHE": 1645,
      "LINE": 1646,
      "self": 1647,
      "ĠCopyright": 1648,
      "ector": 1649,
      "Ġinfo": 1650,
      "point": 1651,
      "debug": 1652,
      "sr": 1653,
      "05": 1654,
      "Ġcopy": 1655,
      "sl": 1656,
      "ote": 1657,
      "ark": 1658,
      "){\\": 1659,
      "andler": 1660,
      "Ġtest": 1661,
      "ssage": 1662,
      "LOG": 1663,
      "sed": 1664,
      "Ġonly": 1665,
      "arent": 1666,
      "hdr": 1667,
      "rl": 1668,
      "der": 1669,
      "ILIT": 1670,
      "95": 1671,
      "rx": 1672,
      "CHE": 1673,
      "check": 1674,
      "Ġfirst": 1675,
      "Ġ64": 1676,
      "ollow": 1677,
      "Ġcol": 1678,
      "ILITY": 1679,
      "\\\\\\": 1680,
      "ctl": 1681,
      "Ġxml": 1682,
      "BL": 1683,
      "Ġnode": 1684,
      "lear": 1685,
      "Ġhas": 1686,
      "Ġone": 1687,
      "GP": 1688,
      "47": 1689,
      "ĠMA": 1690,
      "================================": 1691,
      "INVALC": 1692,
      "IX": 1693,
      "Ġstring": 1694,
      "Ġ~": 1695,
      "sizeof": 1696,
      "IF": 1697,
      "imit": 1698,
      "cd": 1699,
      "ead": 1700,
      "*\\": 1701,
      "Id": 1702,
      "ink": 1703,
      "ool": 1704,
      "fp": 1705,
      "Ġsoftware": 1706,
      "IR": 1707,
      "Ġdr": 1708,
      "eturn": 1709,
      "Context": 1710,
      "<<<<": 1711,
      "ccess": 1712,
      "LD": 1713,
      "IB": 1714,
      "Ġ;\\": 1715,
      "ART": 1716,
      "Ġ\\'\\\\": 1717,
      "06": 1718,
      "width": 1719,
      "ĠĠĠĠĠĠĠĠĠĠĠĠĠĠĠĠĠ": 1720,
      "Ġvar": 1721,
      "env": 1722,
      "default": 1723,
      "cap": 1724,
      "ĠSQLITE": 1725,
      "thread": 1726,
      "REE": 1727,
      "FIX": 1728,
      "Ġprogram": 1729,
      "Ġfollow": 1730,
      "ally": 1731,
      "TA": 1732,
      "SSL": 1733,
      "fc": 1734,
      "cept": 1735,
      "her": 1736,
      "errup": 1737,
      "class": 1738,
      "tinue": 1739,
      "channel": 1740,
      "ops": 1741,
      "vert": 1742,
      "Ġnext": 1743,
      "sys": 1744,
      "53": 1745,
      "ied": 1746,
      "Ġap": 1747,
      "Ġalloc": 1748,
      "MODE": 1749,
      "/**\\": 1750,
      "ont": 1751,
      "Add": 1752,
      "sd": 1753,
      "CHAN": 1754,
      "##": 1755,
      "Ġ&&\\": 1756,
      "ĠSoftware": 1757,
      "regs": 1758,
      "Ġ,": 1759,
      "Ġyou": 1760,
      "ey": 1761,
      "Ġcp": 1762,
      "Ġter": 1763,
      "ixel": 1764,
      "Ġbytes": 1765,
      "byte": 1766,
      "211": 1767,
      "ĠTRUE": 1768,
      "BO": 1769,
      "URE": 1770,
      "mit": 1771,
      "client": 1772,
      "En": 1773,
      "ĠRE": 1774,
      "************************************************************************": 1775,
      "rec": 1776,
      "100": 1777,
      "SION": 1778,
      "ĠFree": 1779,
      "uLL": 1780,
      "ĠUS": 1781,
      "ken": 1782,
      "cond": 1783,
      "yp": 1784,
      "CESS": 1785,
      "String": 1786,
      "%%%%": 1787,
      "Ġdefault": 1788,
      "ise": 1789,
      "Ġwithout": 1790,
      "ORD": 1791,
      "CTION": 1792,
      "FR": 1793,
      "Ġneed": 1794,
      "Ġprintf": 1795,
      "Col": 1796,
      "Ġmemory": 1797,
      "39": 1798,
      "ication": 1799,
      "Tr": 1800,
      "com": 1801,
      "EE": 1802,
      "Ġother": 1803,
      "xml": 1804,
      "sb": 1805,
      "82": 1806,
      "ERN": 1807,
      "Ġ|\\": 1808,
      "tchar": 1809,
      "TRA": 1810,
      "CA": 1811,
      "upport": 1812,
      "ARG": 1813,
      "page": 1814,
      "lect": 1815,
      "Ġdistribut": 1816,
      "ULT": 1817,
      "sock": 1818,
      "input": 1819,
      "DU": 1820,
      "Ġbfd": 1821,
      "NG": 1822,
      "ĠDE": 1823,
      "Ġsu": 1824,
      "tent": 1825,
      "iable": 1826,
      "last": 1827,
      "Pr": 1828,
      "work": 1829,
      "Ġund": 1830,
      "ume": 1831,
      "our": 1832,
      "pend": 1833,
      "Ġmay": 1834,
      "fere": 1835,
      "long": 1836,
      "vide": 1837,
      "Ġwhich": 1838,
      "Ġaddress": 1839,
      "09": 1840,
      "85": 1841,
      "ERT": 1842,
      "pin": 1843,
      "Ġmore": 1844,
      "Ġpoint": 1845,
      "lease": 1846,
      "Ġinput": 1847,
      "tprintf": 1848,
      "UD": 1849,
      "Ġsk": 1850,
      "ob": 1851,
      "ĠGL": 1852,
      "ater": 1853,
      "ES": 1854,
      "rb": 1855,
      "Ġline": 1856,
      "lot": 1857,
      "ug": 1858,
      "200": 1859,
      "Ġregister": 1860,
      "Ġ||\\": 1861,
      "Ġwhen": 1862,
      "Mem": 1863,
      "ABILITY": 1864,
      "ved": 1865,
      "ĠWe": 1866,
      "CF": 1867,
      "Ġ$": 1868,
      "WA": 1869,
      "ua": 1870,
      "83": 1871,
      "output": 1872,
      "tag": 1873,
      "74": 1874,
      "PH": 1875,
      "oy": 1876,
      "SO": 1877,
      "trans": 1878,
      "Ġthen": 1879,
      "gl": 1880,
      "bytes": 1881,
      "QU": 1882,
      "scr": 1883,
      "CS": 1884,
      "action": 1885,
      "ĠEX": 1886,
      "Pyx": 1887,
      "group": 1888,
      "sec": 1889,
      "Ġpng": 1890,
      "unlock": 1891,
      "ie": 1892,
      "Ġab": 1893,
      "65": 1894,
      "Ġswitch": 1895,
      "Ġ___": 1896,
      "Ġlast": 1897,
      "ĠReturn": 1898,
      "ting": 1899,
      "ADDR": 1900,
      "ely": 1901,
      "BASE": 1902,
      "rg": 1903,
      "Ġobject": 1904,
      "tT": 1905,
      "Ad": 1906,
      "RT": 1907,
      "ĠAV": 1908,
      "register": 1909,
      "xFF": 1910,
      "Ġunder": 1911,
      "Ġentry": 1912,
      "stem": 1913,
      "(___": 1914,
      "ĠPRO": 1915,
      "hile": 1916,
      "Ġoutput": 1917,
      "Buffer": 1918,
      "70": 1919,
      "Len": 1920,
      "ĠFOR": 1921,
      "Ġext": 1922,
      "MT": 1923,
      "Ġfalse": 1924,
      "BE": 1925,
      "ti": 1926,
      "89": 1927,
      "Ġfollowing": 1928,
      "Ġtrans": 1929,
      "=%": 1930,
      "HT": 1931,
      "sm": 1932,
      "SQLITE": 1933,
      "imp": 1934,
      "////": 1935,
      "ARRAN": 1936,
      "FILE": 1937,
      "enc": 1938,
      "USED": 1939,
      "mage": 1940,
      "field": 1941,
      "Ġinto": 1942,
      "Ġmp": 1943,
      "phy": 1944,
      "thod": 1945,
      "nb": 1946,
      "])": 1947,
      "43": 1948,
      "ĠZ": 1949,
      "ttp": 1950,
      "ĠWARRAN": 1951,
      "tail": 1952,
      "HI": 1953,
      "format": 1954,
      "create": 1955,
      "tab": 1956,
      "91": 1957,
      "Ġ12": 1958,
      "Ġbase": 1959,
      "orm": 1960,
      "Key": 1961,
      "Init": 1962,
      "yy": 1963,
      "filename": 1964,
      "gp": 1965,
      ",\"": 1966,
      "return": 1967,
      "tmem": 1968,
      "request": 1969,
      "ding": 1970,
      "ived": 1971,
      "DV": 1972,
      "ĠFound": 1973,
      "mutex": 1974,
      "92": 1975,
      ".\\\\": 1976,
      "png": 1977,
      "level": 1978,
      "VICE": 1979,
      "oc": 1980,
      "Ġid": 1981,
      "printk": 1982,
      "ank": 1983,
      "apter": 1984,
      "Ġwrit": 1985,
      "target": 1986,
      "ITH": 1987,
      "argv": 1988,
      "IVE": 1989,
      "Ġsource": 1990,
      "Ġpart": 1991,
      "lobal": 1992,
      "ery": 1993,
      "Ġ--": 1994,
      "dma": 1995,
      "(((": 1996,
      "(\\": 1997,
      "GR": 1998,
      "ning": 1999,
      "Ġport": 2000,
      "Ġnet": 2001,
      "ndef": 2002,
      "Ġfprintf": 2003,
      "errupt": 2004,
      "000000": 2005,
      "(!": 2006,
      "128": 2007,
      "ĠFoundation": 2008,
      "Num": 2009,
      "45": 2010,
      "EC": 2011,
      "Ġtemp": 2012,
      "Ġpos": 2013,
      "XX": 2014,
      "Ġpointer": 2015,
      "Ġcal": 2016,
      "from": 2017,
      "fn": 2018,
      "off": 2019,
      "81": 2020,
      "Ġinter": 2021,
      "Ġev": 2022,
      "Ġspecif": 2023,
      "pect": 2024,
      "TER": 2025,
      "FUN": 2026,
      "float": 2027,
      "49": 2028,
      "flag": 2029,
      "twhile": 2030,
      "Node": 2031,
      "fb": 2032,
      "ager": 2033,
      "Pre": 2034,
      "ages": 2035,
      "255": 2036,
      "ĠSet": 2037,
      "PL": 2038,
      "46": 2039,
      "Ġaddr": 2040,
      "store": 2041,
      "version": 2042,
      "sor": 2043,
      "ift": 2044,
      "iew": 2045,
      "otal": 2046,
      "driver": 2047,
      "section": 2048,
      "ither": 2049,
      "Parse": 2050,
      "IV": 2051,
      "bus": 2052,
      "core": 2053,
      "Sc": 2054,
      "Ġdst": 2055,
      "TION": 2056,
      "Ġpage": 2057,
      "Cur": 2058,
      "Ġser": 2059,
      "iter": 2060,
      "CONFIG": 2061,
      "connect": 2062,
      "ale": 2063,
      "ĠPAR": 2064,
      "AY": 2065,
      "Ġbits": 2066,
      "og": 2067,
      "EM": 2068,
      "Ġ&=": 2069,
      "\")": 2070,
      "ibute": 2071,
      "Ġ-=": 2072,
      "stderr": 2073,
      "Ġhandle": 2074,
      "send": 2075,
      "By": 2076,
      "Ġctx": 2077,
      "Res": 2078,
      "tswitch": 2079,
      "Ġstatic": 2080,
      "Ġfailed": 2081,
      "space": 2082,
      "FOR": 2083,
      "...": 2084,
      "Ġ20": 2085,
      "mac": 2086,
      "close": 2087,
      "OS": 2088,
      "ĠPyObject": 2089,
      "Ġ\"\\": 2090,
      "63": 2091,
      "chip": 2092,
      "Ġfail": 2093,
      "OM": 2094,
      "75": 2095,
      "inal": 2096,
      "78": 2097,
      "sect": 2098,
      "ai": 2099,
      "stroy": 2100,
      "42": 2101,
      "OF": 2102,
      "exp": 2103,
      "ĠCon": 2104,
      "top": 2105,
      "ply": 2106,
      "DC": 2107,
      "abel": 2108,
      "udio": 2109,
      "ffff": 2110,
      "93": 2111,
      "Stat": 2112,
      "Ġhere": 2113,
      "fore": 2114,
      "ton": 2115,
      "ations": 2116,
      "Ġframe": 2117,
      "my": 2118,
      "image": 2119,
      "ifndef": 2120,
      "Ġcond": 2121,
      "usb": 2122,
      "eno": 2123,
      "Ġoper": 2124,
      "Ġtrue": 2125,
      "ĠĠĠĠĠĠĠĠĠĠĠĠĠĠĠĠĠĠĠĠĠĠĠĠĠĠĠ": 2126,
      "ROM": 2127,
      "ower": 2128,
      "Read": 2129,
      "lement": 2130,
      "Ġ%%": 2131,
      "copy": 2132,
      "insn": 2133,
      "WRITE": 2134,
      "exit": 2135,
      "af": 2136,
      "Ġ++": 2137,
      "ĠQ": 2138,
      "Ġoption": 2139,
      "kt": 2140,
      "reen": 2141,
      "cnt": 2142,
      "here": 2143,
      "\\\\\"": 2144,
      "assert": 2145,
      "nstruct": 2146,
      "Ġfield": 2147,
      "52": 2148,
      "ĠĠĠĠĠĠĠĠĠĠĠĠĠĠĠĠĠĠĠĠ": 2149,
      "RL": 2150,
      "module": 2151,
      "nect": 2152,
      "Ġrequest": 2153,
      "INIT": 2154,
      "rap": 2155,
      "ĠIS": 2156,
      "source": 2157,
      "ĠSH": 2158,
      "ĠST": 2159,
      "ors": 2160,
      "Index": 2161,
      "DEC": 2162,
      "Ġ(&": 2163,
      "tP": 2164,
      "ier": 2165,
      "VALUE": 2166,
      "ample": 2167,
      "Ġlib": 2168,
      "Ġuser": 2169,
      "control": 2170,
      "Ġsign": 2171,
      "Char": 2172,
      "dest": 2173,
      "ĠINT": 2174,
      "skb": 2175,
      "Ġ^": 2176,
      "TX": 2177,
      "EV": 2178,
      "ful": 2179,
      "SL": 2180,
      "AVE": 2181,
      "Ġthere": 2182,
      "PREFIX": 2183,
      "----------------------------------------------------------------": 2184,
      "olean": 2185,
      "box": 2186,
      "Ġwas": 2187,
      "76": 2188,
      "ND": 2189,
      ",\\'": 2190,
      "MM": 2191,
      "Ġmo": 2192,
      "NONE": 2193,
      "OFF": 2194,
      "short": 2195,
      "ence": 2196,
      "Ġpacket": 2197,
      "Ġyy": 2198,
      "malloc": 2199,
      "Ġrece": 2200,
      "MAP": 2201,
      "conf": 2202,
      "elf": 2203,
      "tdev": 2204,
      "card": 2205,
      "ialize": 2206,
      "nce": 2207,
      "UB": 2208,
      "RC": 2209,
      "ĠUN": 2210,
      "timer": 2211,
      "(\"%": 2212,
      "raw": 2213,
      "OB": 2214,
      "];": 2215,
      "lp": 2216,
      "stats": 2217,
      "FP": 2218,
      "ctrl": 2219,
      "ttr": 2220,
      "CCESS": 2221,
      "itions": 2222,
      "seq": 2223,
      "root": 2224,
      "MAT": 2225,
      "Ġmin": 2226,
      "Reg": 2227,
      "ĠAND": 2228,
      "uple": 2229,
      "An": 2230,
      "Ġlock": 2231,
      "spec": 2232,
      "STATE": 2233,
      "ted": 2234,
      "NUM": 2235,
      "CHECK": 2236,
      "Table": 2237,
      "its": 2238,
      "CB": 2239,
      "terr": 2240,
      "clk": 2241,
      "!=": 2242,
      "bfd": 2243,
      "tries": 2244,
      "Ġ*,": 2245,
      "Ġimp": 2246,
      "prefixed": 2247,
      "\"},\\": 2248,
      "ĠEx": 2249,
      "ndr": 2250,
      "spon": 2251,
      "mc": 2252,
      "Ġ15": 2253,
      "Ġparameter": 2254,
      "mis": 2255,
      "qual": 2256,
      "Out": 2257,
      "ĠSO": 2258,
      ")))": 2259,
      "tra": 2260,
      "ĠIP": 2261,
      "we": 2262,
      "UTE": 2263,
      "Ġconfig": 2264,
      "Ġdoes": 2265,
      "GEN": 2266,
      "Ġold": 2267,
      "Unprefixed": 2268,
      "sym": 2269,
      "Ġevent": 2270,
      "ical": 2271,
      "eger": 2272,
      "this": 2273,
      "ĠNO": 2274,
      "Dev": 2275,
      "ernal": 2276,
      "ĠSee": 2277,
      "ia": 2278,
      "ĠCONFIG": 2279,
      "onent": 2280,
      "Ġbyte": 2281,
      "41": 2282,
      "ultip": 2283,
      "rary": 2284,
      "Ġterms": 2285,
      "TL": 2286,
      "ĠĠĠĠĠĠĠĠĠĠĠĠĠĠĠĠĠĠ": 2287,
      "ible": 2288,
      "ior": 2289,
      "packet": 2290,
      "BUF": 2291,
      "ĠREG": 2292,
      "Ġlog": 2293,
      "FN": 2294,
      "To": 2295,
      "PER": 2296,
      "OW": 2297,
      "De": 2298,
      "ĠCo": 2299,
      "Ġcommand": 2300,
      "tS": 2301,
      "fer": 2302,
      "Ġsock": 2303,
      "Ġwork": 2304,
      "eth": 2305,
      "SSERT": 2306,
      "dp": 2307,
      "pool": 2308,
      "Ġvalues": 2309,
      "59": 2310,
      "ject": 2311,
      "Ġfil": 2312,
      "Ġattr": 2313,
      "ared": 2314,
      "\\':\\": 2315,
      "tern": 2316,
      "Ġsome": 2317,
      "enable": 2318,
      "Ġdouble": 2319,
      "proc": 2320,
      "umn": 2321,
      "COMP": 2322,
      "Ġtree": 2323,
      "tconst": 2324,
      "Ġshort": 2325,
      "Ġcpu": 2326,
      "sent": 2327,
      "ĠĠĠĠĠĠĠĠĠĠĠĠĠĠĠĠĠĠĠĠĠĠĠĠĠĠĠĠĠĠĠĠĠĠĠĠĠĠĠĠĠĠĠĠĠĠĠĠĠĠĠĠĠĠĠĠĠĠĠĠĠĠĠĠ": 2328,
      "ĠRe": 2329,
      "Ġrow": 2330,
      "ctxt": 2331,
      "FAULT": 2332,
      "80211": 2333,
      "ĠWITH": 2334,
      "inode": 2335,
      "CLA": 2336,
      "sw": 2337,
      "Ġpl": 2338,
      "address": 2339,
      ")));\\": 2340,
      "\\';\\": 2341,
      "TIC": 2342,
      "Ġdat": 2343,
      "first": 2344,
      "tspin": 2345,
      "Ġact": 2346,
      "SER": 2347,
      "72": 2348,
      "ices": 2349,
      "asm": 2350,
      "ual": 2351,
      "Ġmap": 2352,
      "org": 2353,
      "fmt": 2354,
      "rray": 2355,
      "gen": 2356,
      "yn": 2357,
      "Free": 2358,
      "ONG": 2359,
      "used": 2360,
      "Cl": 2361,
      "private": 2362,
      "number": 2363,
      "match": 2364,
      "73": 2365,
      "ates": 2366,
      "MENT": 2367,
      "Ġsnd": 2368,
      "1000": 2369,
      "MSG": 2370,
      "FD": 2371,
      "stack": 2372,
      "Ġstructure": 2373,
      "sum": 2374,
      "Ġopen": 2375,
      "tB": 2376,
      "ENO": 2377,
      "ished": 2378,
      "np": 2379,
      "ready": 2380,
      "strcmp": 2381,
      "tprintk": 2382,
      "ww": 2383,
      "hy": 2384,
      "Ġinst": 2385,
      "62": 2386,
      "SUCCESS": 2387,
      "ILE": 2388,
      "aa": 2389,
      "New": 2390,
      ")))\\": 2391,
      "vm": 2392,
      "errno": 2393,
      "ĠĠĠĠĠĠĠĠĠĠĠĠĠĠĠĠĠĠĠĠĠ": 2394,
      "00000": 2395,
      "Ġ24": 2396,
      "height": 2397,
      "__,": 2398,
      "Ġback": 2399,
      "perty": 2400,
      "ypt": 2401,
      "Ġaf": 2402,
      "codec": 2403,
      "pol": 2404,
      "ne": 2405,
      "Ġqu": 2406,
      "den": 2407,
      "CD": 2408,
      "*)(": 2409,
      "UINT": 2410,
      "cm": 2411,
      "ds": 2412,
      "ĠSt": 2413,
      "ĠGet": 2414,
      "ĠEV": 2415,
      "69": 2416,
      "DIS": 2417,
      "tuint": 2418,
      "rect": 2419,
      "Mode": 2420,
      "rate": 2421,
      "pth": 2422,
      "STRING": 2423,
      "quire": 2424,
      "NESS": 2425,
      "Ġeither": 2426,
      "CMD": 2427,
      "unter": 2428,
      "(_": 2429,
      "Ġnon": 2430,
      "Ġover": 2431,
      "\"));\\": 2432,
      "/*:": 2433,
      "Comp": 2434,
      "iff": 2435,
      "Ġrec": 2436,
      "ĠTO": 2437,
      "Ġsupport": 2438,
      "THER": 2439,
      "server": 2440,
      "79": 2441,
      ",-": 2442,
      "POSE": 2443,
      "ĠInc": 2444,
      "LOC": 2445,
      "formation": 2446,
      "Ġformat": 2447,
      "ource": 2448,
      "window": 2449,
      "SD": 2450,
      "Ġrout": 2451,
      "61": 2452,
      "Ġmask": 2453,
      "Ġcmd": 2454,
      "FE": 2455,
      "tcp": 2456,
      "command": 2457,
      "INSN": 2458,
      "way": 2459,
      "buff": 2460,
      "sqlite": 2461,
      "Ġheader": 2462,
      "Ġfound": 2463,
      "QI": 2464,
      "ĠFIT": 2465,
      "Ġmodify": 2466,
      "rq": 2467,
      "prev": 2468,
      "SUP": 2469,
      "Ġ();\\": 2470,
      "nown": 2471,
      "sample": 2472,
      "URPOSE": 2473,
      "Ġprocess": 2474,
      "Ġfloat": 2475,
      "****************************************************************************": 2476,
      "Ġbo": 2477,
      "ict": 2478,
      "chan": 2479,
      "tcon": 2480,
      "pd": 2481,
      "params": 2482,
      "amp": 2483,
      "ERCHAN": 2484,
      "rel": 2485,
      "CONT": 2486,
      "ULAR": 2487,
      "ĠLI": 2488,
      "oper": 2489,
      "{\"": 2490,
      "ĠMAX": 2491,
      "bd": 2492,
      "Ġtarget": 2493,
      "mov": 2494,
      "Sh": 2495,
      "parent": 2496,
      "51": 2497,
      "xfe": 2498,
      "Ġvariable": 2499,
      "PRINT": 2500,
      "ho": 2501,
      "ĠXML": 2502,
      "Ġthan": 2503,
      "CTL": 2504,
      "PREFIXED": 2505,
      "TABILITY": 2506,
      "ĠFITNESS": 2507,
      "cfg": 2508,
      "ERCHANTABILITY": 2509,
      "update": 2510,
      "Ġcontain": 2511,
      "For": 2512,
      "Ġ/*\\": 2513,
      "EP": 2514,
      "ĠPCI": 2515,
      "ba": 2516,
      "SIG": 2517,
      "Op": 2518,
      "save": 2519,
      "Ġstream": 2520,
      "TIME": 2521,
      "TRIB": 2522,
      "ses": 2523,
      "Ġprovide": 2524,
      "Ġsymbol": 2525,
      "ĠPURPOSE": 2526,
      "Ġ13": 2527,
      "flow": 2528,
      ").": 2529,
      "Ġpath": 2530,
      "Ġ199": 2531,
      "Ġchannel": 2532,
      "sing": 2533,
      "${": 2534,
      "lient": 2535,
      "OD": 2536,
      "medi": 2537,
      "Ġar": 2538,
      "ping": 2539,
      "Ġmsg": 2540,
      "BY": 2541,
      "WORD": 2542,
      "TICULAR": 2543,
      "NOT": 2544,
      "INVALID": 2545,
      "ĠPARTICULAR": 2546,
      "Ġ};\\": 2547,
      "DULE": 2548,
      "pci": 2549,
      "Ġ{\"": 2550,
      "tN": 2551,
      "win": 2552,
      "ĠCheck": 2553,
      "MC": 2554,
      "Ġargument": 2555,
      "Expr": 2556,
      "AG": 2557,
      "double": 2558,
      "options": 2559,
      "idget": 2560,
      "boolean": 2561,
      "ivate": 2562,
      "509": 2563,
      "handler": 2564,
      "PyObject": 2565,
      "token": 2566,
      "DEV": 2567,
      "rt": 2568,
      "BITS": 2569,
      "message": 2570,
      "enu": 2571,
      "ializ": 2572,
      "Ġ14": 2573,
      "ĠMERCHANTABILITY": 2574,
      "ces": 2575,
      "PUT": 2576,
      "Ġ11": 2577,
      "TK": 2578,
      "filter": 2579,
      "Ġho": 2580,
      "vice": 2581,
      "Ġhash": 2582,
      "AA": 2583,
      "Ġcontext": 2584,
      "Ġeven": 2585,
      "abase": 2586,
      "ernel": 2587,
      "sv": 2588,
      "Ġlevel": 2589,
      "del": 2590,
      "Ġcor": 2591,
      "RX": 2592,
      "lative": 2593,
      ")\\\\": 2594,
      "Arg": 2595,
      "Ġconditions": 2596,
      "FALSE": 2597,
      "bove": 2598,
      "ECT": 2599,
      "mplement": 2600,
      "util": 2601,
      "Ġinclude": 2602,
      "Ġfind": 2603,
      "dc": 2604,
      "auth": 2605,
      "vol": 2606,
      "inst": 2607,
      "EG": 2608,
      "wait": 2609,
      "okup": 2610,
      "script": 2611,
      "RD": 2612,
      "Ġ->": 2613,
      "left": 2614,
      "Ġmake": 2615,
      "Ġabove": 2616,
      "Ġmessage": 2617,
      "ĠPro": 2618,
      "Ġlink": 2619,
      "Ġmatch": 2620,
      "ĠTr": 2621,
      "ĠUSE": 2622,
      "ADD": 2623,
      "ference": 2624,
      "Ġlocal": 2625,
      "Ġdest": 2626,
      "Ġip": 2627,
      "Page": 2628,
      "color": 2629,
      "UM": 2630,
      "nr": 2631,
      "238": 2632,
      "cript": 2633,
      "Ġcalled": 2634,
      ")),\\": 2635,
      "sync": 2636,
      "Time": 2637,
      "RECT": 2638,
      "ĠTH": 2639,
      "Ġsend": 2640,
      "Ġnow": 2641,
      "uto": 2642,
      "ish": 2643,
      "inary": 2644,
      "parse": 2645,
      "MODULE": 2646,
      "71": 2647,
      "Ġsee": 2648,
      "dbe": 2649,
      ",___": 2650,
      "Ġwritten": 2651,
      "ics": 2652,
      "\\')": 2653,
      "su": 2654,
      "ative": 2655,
      "ĠFor": 2656,
      "SYS": 2657,
      "ĠĠĠĠĠĠĠĠĠĠĠĠĠĠĠĠĠĠĠĠĠĠĠĠĠĠĠĠĠĠĠ": 2658,
      "tdefault": 2659,
      "DEVICE": 2660,
      "Device": 2661,
      "VERSION": 2662,
      "session": 2663,
      "bs": 2664,
      "gle": 2665,
      "ENABLE": 2666,
      "GPIO": 2667,
      "ines": 2668,
      "now": 2669,
      "CTRL": 2670,
      "Ġptr": 2671,
      "Ġafter": 2672,
      "uid": 2673,
      "Ġdone": 2674,
      "Ġlater": 2675,
      "coder": 2676,
      "ii": 2677,
      "Al": 2678,
      "CHAR": 2679,
      "Ġgener": 2680,
      "typ": 2681,
      "PT": 2682,
      "ĠRed": 2683,
      "Ġreceived": 2684,
      "WARE": 2685,
      "Ġdon": 2686,
      "Fr": 2687,
      "coding": 2688,
      "Ġ`": 2689,
      "Ġtw": 2690,
      "ĠAT": 2691,
      "SB": 2692,
      "dup": 2693,
      "late": 2694,
      "MIN": 2695,
      "can": 2696,
      "Ġdistributed": 2697,
      "Status": 2698,
      "adapter": 2699,
      "rd": 2700,
      "Ġoff": 2701,
      "dent": 2702,
      "uration": 2703,
      "RET": 2704,
      "KERN": 2705,
      "vb": 2706,
      "tails": 2707,
      "Ġvalid": 2708,
      "API": 2709,
      "Ġstrlen": 2710,
      "NC": 2711,
      "Write": 2712,
      "Ġeach": 2713,
      "(),": 2714,
      "Ġconnect": 2715,
      "Ġfl": 2716,
      "bp": 2717,
      "AV": 2718,
      "ACK": 2719,
      "Ġsame": 2720,
      "'/*\\": 2721,
      "pass": 2722,
      "Ġobj": 2723,
      "cre": 2724,
      "function": 2725,
      "Ġcontinue": 2726,
      "ped": 2727,
      "MI": 2728,
      "MAGE": 2729,
      "FC": 2730,
      "scan": 2731,
      "common": 2732,
      "Code": 2733,
      "tD": 2734,
      "ĠUn": 2735,
      "TRACE": 2736,
      "kely": 2737,
      "ncase": 2738,
      "SW": 2739,
      "seg": 2740,
      "method": 2741,
      "dl": 2742,
      "()\\": 2743,
      "ormal": 2744,
      "Ġbefore": 2745,
      "quence": 2746,
      "Sy": 2747,
      "mark": 2748,
      "Ġjust": 2749,
      "Ġdirect": 2750,
      "parser": 2751,
      "ĠĠĠĠĠĠĠĠĠĠĠĠĠĠĠĠĠĠĠĠĠĠ": 2752,
      "Ġzero": 2753,
      "]\\": 2754,
      "reset": 2755,
      "tem": 2756,
      "push": 2757,
      "ĠĠĠĠĠĠĠĠĠĠĠĠĠĠĠĠĠĠĠĠĠĠĠĠ": 2758,
      "OBJ": 2759,
      "ception": 2760,
      "Ġio": 2761,
      "drv": 2762,
      "Ġyour": 2763,
      "ature": 2764,
      "Ġprev": 2765,
      "MAC": 2766,
      "Ġhost": 2767,
      "EL": 2768,
      "vec": 2769,
      "leanup": 2770,
      "FAIL": 2771,
      "ights": 2772,
      "Ġflag": 2773,
      "(-": 2774,
      "Ġalready": 2775,
      "Count": 2776,
      "find": 2777,
      "tsize": 2778,
      "Prefixed": 2779,
      "EINVAL": 2780,
      "Ġusing": 2781,
      "nextern": 2782,
      "tfprintf": 2783,
      "destroy": 2784,
      "Ġcr": 2785,
      "WIN": 2786,
      "distribut": 2787,
      "Ġgo": 2788,
      "ORY": 2789,
      "WN": 2790,
      "Ġ(!(": 2791,
      "LOAD": 2792,
      "fail": 2793,
      "Ġdb": 2794,
      "pm": 2795,
      "undef": 2796,
      "RES": 2797,
      "ĠUSB": 2798,
      "bb": 2799,
      "-\\": 2800,
      "ls": 2801,
      "Ġbeen": 2802,
      "tM": 2803,
      "Ġfd": 2804,
      ":%": 2805,
      "Ġpubl": 2806,
      "ious": 2807,
      "ATION": 2808,
      "ĠAD": 2809,
      "AGE": 2810,
      "Ġcharact": 2811,
      ").\\": 2812,
      "child": 2813,
      "PROC": 2814,
      "Ġput": 2815,
      "ĠWITHOUT": 2816,
      "Ġnotice": 2817,
      "ware": 2818,
      "zero": 2819,
      "crypt": 2820,
      "LIST": 2821,
      "Ġdoc": 2822,
      "lete": 2823,
      "pixel": 2824,
      "ger": 2825,
      "COL": 2826,
      "enum": 2827,
      "//\\": 2828,
      "chunk": 2829,
      "symbol": 2830,
      "Ġ(((": 2831,
      "Db": 2832,
      "Def": 2833,
      "iven": 2834,
      "Ġcreate": 2835,
      "NEL": 2836,
      "UTF": 2837,
      "REQ": 2838,
      "ĠAl": 2839,
      "Attr": 2840,
      "Ġcache": 2841,
      "256": 2842,
      "CLUD": 2843,
      "Ġredistribut": 2844,
      "CLUDING": 2845,
      "div": 2846,
      "AUT": 2847,
      "ĠLO": 2848,
      "Ġ17": 2849,
      "Ġtext": 2850,
      "Ġdefine": 2851,
      "Address": 2852,
      "Ġrun": 2853,
      "tcontinue": 2854,
      "WAR": 2855,
      "Entry": 2856,
      "ision": 2857,
      "-+": 2858,
      "CALL": 2859,
      "tR": 2860,
      "Ġits": 2861,
      "setup": 2862,
      "location": 2863,
      "\"))": 2864,
      "fg": 2865,
      "UX": 2866,
      "Ġ*(": 2867,
      "tres": 2868,
      "order": 2869,
      "Comm": 2870,
      "delay": 2871,
      "ASSERT": 2872,
      "not": 2873,
      "duct": 2874,
      "Ġexit": 2875,
      "eee": 2876,
      "ailable": 2877,
      "part": 2878,
      "Ġgr": 2879,
      "DBG": 2880,
      "%%%%%%%%": 2881,
      "::": 2882,
      "pdev": 2883,
      "--;\\": 2884,
      "war": 2885,
      "Buf": 2886,
      "Ġthread": 2887,
      "DEX": 2888,
      "pw": 2889,
      "Handle": 2890,
      "Ġwidth": 2891,
      "START": 2892,
      "ĠNOT": 2893,
      "relative": 2894,
      "},{": 2895,
      "ĠSDL": 2896,
      "ui": 2897,
      "PRIV": 2898,
      "Ġcopyright": 2899,
      ";}\\": 2900,
      "Ġprovided": 2901,
      "ASE": 2902,
      "element": 2903,
      "memory": 2904,
      "Ġspace": 2905,
      "pb": 2906,
      "du": 2907,
      "FTWARE": 2908,
      "defined": 2909,
      "align": 2910,
      "man": 2911,
      "writ": 2912,
      "wise": 2913,
      "pack": 2914,
      "Ġdetails": 2915,
      "peed": 2916,
      "Ġenable": 2917,
      "likely": 2918,
      "QL": 2919,
      "Ġbl": 2920,
      "ĠĠĠĠĠĠĠĠĠĠĠĠĠĠĠĠĠĠĠĠĠĠĠĠĠ": 2921,
      "xcel": 2922,
      "ssl": 2923,
      "lied": 2924,
      "BUFF": 2925,
      "ĠYou": 2926,
      "Ġpc": 2927,
      "ĠPR": 2928,
      "hema": 2929,
      "Ġstore": 2930,
      "mote": 2931,
      "mach": 2932,
      "Ġ\",": 2933,
      "dim": 2934,
      "fa": 2935,
      "DESC": 2936,
      "Ġfunctions": 2937,
      "LOW": 2938,
      "Ġac": 2939,
      "ĠWARRANTY": 2940,
      "pcm": 2941,
      "case": 2942,
      "Ġstack": 2943,
      "ams": 2944,
      "BYTE": 2945,
      "Ġent": 2946,
      "End": 2947,
      "Ġstat": 2948,
      "Ġgen": 2949,
      "http": 2950,
      "Ġredistribute": 2951,
      "}},\\": 2952,
      "dec": 2953,
      "ĠSOFTWARE": 2954,
      "abs": 2955,
      "Ġself": 2956,
      "wir": 2957,
      "Ġargs": 2958,
      "timeout": 2959,
      "SUPPORT": 2960,
      "ĠID": 2961,
      "asic": 2962,
      "remove": 2963,
      "ACT": 2964,
      "Ġproto": 2965,
      "Ġsuccess": 2966,
      "ĠGET": 2967,
      "PU": 2968,
      "xcelValue": 2969,
      "Event": 2970,
      "annot": 2971,
      "ah": 2972,
      "Ġloop": 2973,
      "Ġexp": 2974,
      "Ġpublished": 2975,
      "cle": 2976,
      "Dsp": 2977,
      "sz": 2978,
      "UND": 2979,
      "ugh": 2980,
      "sig": 2981,
      "active": 2982,
      "]=": 2983,
      "ĠAll": 2984,
      "Ġff": 2985,
      "Ġag": 2986,
      "rror": 2987,
      "xy": 2988,
      "ures": 2989,
      "Ġimplied": 2990,
      "Ġdriver": 2991,
      "Ġargv": 2992,
      "FB": 2993,
      "cal": 2994,
      "treg": 2995,
      "gpio": 2996,
      "dat": 2997,
      "Path": 2998,
      ".,": 2999,
      "Ġimage": 3000,
      "HEAD": 3001,
      "ĠCO": 3002,
      "FFFFFFFF": 3003,
      "hes": 3004,
      "GB": 3005,
      "Lock": 3006,
      "cla": 3007,
      "Dis": 3008,
      "ntype": 3009,
      "Ġelement": 3010,
      "bc": 3011,
      "urface": 3012,
      "CFG": 3013,
      "tout": 3014,
      "sponse": 3015,
      "Ġ(%": 3016,
      "NS": 3017,
      "ince": 3018,
      "ĠTHIS": 3019,
      "],\\": 3020,
      "001": 3021,
      "Head": 3022,
      "ĠInt": 3023,
      "pg": 3024,
      "CTX": 3025,
      "mon": 3026,
      "anged": 3027,
      "Ġuseful": 3028,
      "Config": 3029,
      "ATH": 3030,
      "reloc": 3031,
      "vector": 3032,
      "TRY": 3033,
      "ster": 3034,
      "ĠHAVE": 3035,
      "ĠRedistribut": 3036,
      "lyph": 3037,
      "Se": 3038,
      "proto": 3039,
      "xffff": 3040,
      "LY": 3041,
      "range": 3042,
      "LAY": 3043,
      "DMA": 3044,
      "ipher": 3045,
      "IGHT": 3046,
      "Ġlua": 3047,
      "Array": 3048,
      "<<<<<<<<": 3049,
      "depth": 3050,
      "tect": 3051,
      "callback": 3052,
      "view": 3053,
      "Ġpci": 3054,
      "fin": 3055,
      "SUB": 3056,
      "Ġman": 3057,
      "nal": 3058,
      "process": 3059,
      "ACE": 3060,
      "label": 3061,
      "pected": 3062,
      "gh": 3063,
      "TIES": 3064,
      "stop": 3065,
      "IFT": 3066,
      "CM": 3067,
      "loop": 3068,
      "Ġdatabase": 3069,
      "USB": 3070,
      "{{": 3071,
      "Ġind": 3072,
      "Des": 3073,
      "ĠSTR": 3074,
      "Ġwarr": 3075,
      "tdata": 3076,
      "Tab": 3077,
      "resh": 3078,
      "Src": 3079,
      "limit": 3080,
      "Ġwindow": 3081,
      "na": 3082,
      "Ġimplement": 3083,
      "pression": 3084,
      "PCI": 3085,
      "Ġleft": 3086,
      "attern": 3087,
      "mi": 3088,
      "tfree": 3089,
      "ĠĠĠĠĠĠĠĠĠĠĠĠĠĠĠĠĠĠĠĠĠĠĠĠĠĠ": 3090,
      "]->": 3091,
      "bi": 3092,
      "Ġcomple": 3093,
      "blk": 3094,
      "PS": 3095,
      "Item": 3096,
      "tstr": 3097,
      "pointer": 3098,
      "tify": 3099,
      "attribute": 3100,
      "decl": 3101,
      "Ġmodule": 3102,
      "Ġinterrupt": 3103,
      "Ġtwo": 3104,
      "lc": 3105,
      "eeded": 3106,
      "ring": 3107,
      "ĠDEBUG": 3108,
      "ins": 3109,
      "Length": 3110,
      "pid": 3111,
      "))->": 3112,
      "gener": 3113,
      "down": 3114,
      "CUR": 3115,
      "TREE": 3116,
      "Ġinformation": 3117,
      "Vdbe": 3118,
      "Ġusb": 3119,
      "*(": 3120,
      "ĠIt": 3121,
      "_,": 3122,
      "ntypedef": 3123,
      "ALLOC": 3124,
      "////////": 3125,
      "ĠWARRANTIES": 3126,
      "Ġed": 3127,
      "tream": 3128,
      "rev": 3129,
      "Ġacc": 3130,
      "rix": 3131,
      "SHIFT": 3132,
      "cause": 3133,
      "INTER": 3134,
      ">>": 3135,
      "\"),": 3136,
      "IST": 3137,
      "Func": 3138,
      "anty": 3139,
      "ĠDA": 3140,
      "Ġgtk": 3141,
      "YPE": 3142,
      "VAR": 3143,
      "pC": 3144,
      "comple": 3145,
      "Ġsection": 3146,
      "Ġload": 3147,
      "BB": 3148,
      "------------------------------------------------------------------------": 3149,
      "Open": 3150,
      "ĠFLA": 3151,
      "slot": 3152,
      "Ġwarranty": 3153,
      "Ġlibrary": 3154,
      "clear": 3155,
      "ility": 3156,
      "eff": 3157,
      "SM": 3158,
      "ating": 3159,
      "ĠIMP": 3160,
      "ĠInit": 3161,
      "From": 3162,
      "BUFFER": 3163,
      "CPU": 3164,
      "Ġrb": 3165,
      "ĠRT": 3166,
      "prefix": 3167,
      "the": 3168,
      "SG": 3169,
      "ose": 3170,
      "ĠOUT": 3171,
      "Ġ;": 3172,
      "wd": 3173,
      "DIR": 3174,
      "Ġidx": 3175,
      "TEST": 3176,
      "ĠCH": 3177,
      "aster": 3178,
      "Ġ(_": 3179,
      "Ġreset": 3180,
      "ARD": 3181,
      "Ġenv": 3182,
      "OFFSET": 3183,
      "oth": 3184,
      "Ġreturned": 3185,
      "Ġ*__": 3186,
      "ĠPNG": 3187,
      "Ġbool": 3188,
      "Is": 3189,
      "run": 3190,
      "tlen": 3191,
      "Ġhope": 3192,
      "Ġmultip": 3193,
      "rough": 3194,
      "ody": 3195,
      "PRIVATE": 3196,
      "dbg": 3197,
      "BLOCK": 3198,
      "Ġrange": 3199,
      "utton": 3200,
      "nl": 3201,
      "Offset": 3202,
      "ause": 3203,
      "Text": 3204,
      "Ġinline": 3205,
      "ĠCh": 3206,
      "ips": 3207,
      "://": 3208,
      "MBOL": 3209,
      "Ġax": 3210,
      "VIDE": 3211,
      "chr": 3212,
      "place": 3213,
      "MACH": 3214,
      "tC": 3215,
      "Ġwhere": 3216,
      "ways": 3217,
      "icate": 3218,
      "types": 3219,
      "ferenc": 3220,
      "hs": 3221,
      "select": 3222,
      "ycle": 3223,
      "Number": 3224,
      "DSP": 3225,
      "\\')\\": 3226,
      "expr": 3227,
      "model": 3228,
      "No": 3229,
      "Byte": 3230,
      "stride": 3231,
      "OST": 3232,
      "HAND": 3233,
      "Ġgroup": 3234,
      "Ġpass": 3235,
      "troll": 3236,
      "WARN": 3237,
      "Ġalong": 3238,
      "URN": 3239,
      "vc": 3240,
      "CLK": 3241,
      "mission": 3242,
      "UNUSED": 3243,
      "PARAM": 3244,
      "real": 3245,
      "Ġword": 3246,
      "Ġdocument": 3247,
      "Ref": 3248,
      "Ġallow": 3249,
      "CLASS": 3250,
      "abfd": 3251,
      "descr": 3252,
      "SRC": 3253,
      "FUNC": 3254,
      "Ġgiven": 3255,
      "Ġ100": 3256,
      "ĠFR": 3257,
      "scale": 3258,
      "ĠĠĠĠĠĠĠĠĠĠĠĠĠĠĠĠĠĠĠĠĠĠĠĠĠĠĠĠĠ": 3259,
      "Ġorder": 3260,
      "Ġinterface": 3261,
      "orig": 3262,
      "Ġlow": 3263,
      "Ġmy": 3264,
      "ĠMPI": 3265,
      "Ġcontrol": 3266,
      "tmemcpy": 3267,
      "cat": 3268,
      "oken": 3269,
      "ĠTE": 3270,
      "sid": 3271,
      "unlikely": 3272,
      "ĠAC": 3273,
      "ĠOpen": 3274,
      "Ġgl": 3275,
      "very": 3276,
      "da": 3277,
      "Ġbinary": 3278,
      "Ġ:\\": 3279,
      "tbl": 3280,
      "LIB": 3281,
      "362": 3282,
      "Pager": 3283,
      "WI": 3284,
      "lem": 3285,
      "EXPORT": 3286,
      "RED": 3287,
      "Ġwait": 3288,
      "ek": 3289,
      "ĠIR": 3290,
      "Ġ19": 3291,
      "pha": 3292,
      "PD": 3293,
      "imum": 3294,
      "Ġdebug": 3295,
      "aint": 3296,
      "tract": 3297,
      "rop": 3298,
      "Ġreser": 3299,
      "Ġinsn": 3300,
      "Ġrequire": 3301,
      "Ġbecause": 3302,
      "ATTR": 3303,
      "Ġform": 3304,
      "Ġroutine": 3305,
      "over": 3306,
      "TAG": 3307,
      "FUNCTION": 3308,
      "content": 3309,
      "ingle": 3310,
      "IRQ": 3311,
      "Ġlimit": 3312,
      "tPORT": 3313,
      "LAN": 3314,
      "release": 3315,
      "TRUE": 3316,
      "ra": 3317,
      "OPEN": 3318,
      "ARGET": 3319,
      "term": 3320,
      "Ġmain": 3321,
      "FL": 3322,
      "ĠReturns": 3323,
      "Ġdescript": 3324,
      "urb": 3325,
      "Ġtag": 3326,
      "Ġseg": 3327,
      "Mod": 3328,
      ",&": 3329,
      "192": 3330,
      "ourn": 3331,
      "DEFAULT": 3332,
      "option": 3333,
      "LIC": 3334,
      "audio": 3335,
      "global": 3336,
      "task": 3337,
      "lan": 3338,
      "ĠExcelValue": 3339,
      "Ġref": 3340,
      "MX": 3341,
      "Ġargc": 3342,
      "thing": 3343,
      "'/*": 3344,
      "HAS": 3345,
      "arm": 3346,
      "direct": 3347,
      "PIO": 3348,
      "TS": 3349,
      "orts": 3350,
      "pix": 3351,
      "igger": 3352,
      "LIED": 3353,
      "struction": 3354,
      "Ġchunk": 3355,
      "isters": 3356,
      "ĠDMA": 3357,
      "PTR": 3358,
      "xfd": 3359,
      "Ġalso": 3360,
      "nSQLITE": 3361,
      "less": 3362,
      "ournal": 3363,
      "(%": 3364,
      "tG": 3365,
      "DST": 3366,
      "exec": 3367,
      "Ġmac": 3368,
      "xfc": 3369,
      "Ser": 3370,
      "Format": 3371,
      "gn": 3372,
      ")[": 3373,
      "tstatus": 3374,
      "Ġsl": 3375,
      "names": 3376,
      "INDEX": 3377,
      "DA": 3378,
      "-+-+": 3379,
      "glew": 3380,
      "socket": 3381,
      "Ġclose": 3382,
      "Ġselect": 3383,
      "IMIT": 3384,
      "Frame": 3385,
      "Ġspecified": 3386,
      "ĠDAMAGE": 3387,
      "Ġmethod": 3388,
      "Ġsm": 3389,
      "api": 3390,
      "Pos": 3391,
      "Ġreturns": 3392,
      "cg": 3393,
      "signal": 3394,
      "OBJECT": 3395,
      "224": 3396,
      "oint": 3397,
      "BUS": 3398,
      "itor": 3399,
      "bind": 3400,
      "mul": 3401,
      "ARY": 3402,
      "property": 3403,
      "Ġavailable": 3404,
      "ypto": 3405,
      "Ġfix": 3406,
      "Ġorig": 3407,
      "ĠIMPLIED": 3408,
      "Ġclient": 3409,
      "Ġdir": 3410,
      "Ġenum": 3411,
      "Start": 3412,
      "PP": 3413,
      "Block": 3414,
      "Stream": 3415,
      "Log": 3416,
      "elect": 3417,
      "andard": 3418,
      "dump": 3419,
      "tinfo": 3420,
      "ĠAdd": 3421,
      "UNK": 3422,
      "show": 3423,
      "Image": 3424,
      "}[": 3425,
      "ĠĠĠĠĠĠĠĠĠĠĠĠĠĠĠĠĠĠĠĠĠĠĠĠĠĠĠĠĠĠ": 3426,
      "pkt": 3427,
      "Ġtoken": 3428,
      "ian": 3429,
      "110": 3430,
      "troller": 3431,
      "done": 3432,
      "SYMBOL": 3433,
      "has": 3434,
      "Ġexist": 3435,
      "Ġsample": 3436,
      "mpty": 3437,
      "internal": 3438,
      "Ġbus": 3439,
      "Check": 3440,
      "[(": 3441,
      "BACK": 3442,
      "Ġmemcpy": 3443,
      "GOT": 3444,
      "INK": 3445,
      "tun": 3446,
      "Ġsecond": 3447,
      "DIRECT": 3448,
      "EXP": 3449,
      "PHY": 3450,
      "display": 3451,
      "ulti": 3452,
      "pParse": 3453,
      "query": 3454,
      "FMT": 3455,
      "REL": 3456,
      "Ġmat": 3457,
      "erm": 3458,
      "Ġvol": 3459,
      "Ġthrough": 3460,
      "Ġmodif": 3461,
      "\"),\\": 3462,
      "inc": 3463,
      "BR": 3464,
      "url": 3465,
      "shift": 3466,
      "Ġmalloc": 3467,
      "Ġet": 3468,
      "ily": 3469,
      "Ġright": 3470,
      "tset": 3471,
      "Ġ40": 3472,
      "NV": 3473,
      "Ġ18": 3474,
      "ĠLIMIT": 3475,
      "other": 3476,
      "lineno": 3477,
      "Ġtry": 3478,
      "bio": 3479,
      "TIM": 3480,
      "Ġupdate": 3481,
      "Ġsn": 3482,
      "ideo": 3483,
      "CAP": 3484,
      "ner": 3485,
      "Window": 3486,
      "trc": 3487,
      "aces": 3488,
      "ITY": 3489,
      "SPE": 3490,
      "Ġrecord": 3491,
      "DECREF": 3492,
      "TABLE": 3493,
      "COM": 3494,
      "FREE": 3495,
      "Ġ\\',\\'": 3496,
      "hi": 3497,
      "trace": 3498,
      "ignore": 3499,
      "yte": 3500,
      "Class": 3501,
      "just": 3502,
      "ward": 3503,
      "Ġim": 3504,
      "ults": 3505,
      "vp": 3506,
      "Next": 3507,
      "------": 3508,
      "MPLE": 3509,
      "Ġreq": 3510,
      "uc": 3511,
      "ĠĠĠĠĠĠĠĠĠĠĠĠĠĠĠĠĠĠĠĠĠĠĠĠĠĠĠĠ": 3512,
      "Long": 3513,
      "....": 3514,
      "Ġbet": 3515,
      "Ġinode": 3516,
      "wr": 3517,
      "UNPREFIXED": 3518,
      "Ġrights": 3519,
      "Ġserver": 3520,
      "FORMAT": 3521,
      "ITS": 3522,
      "Ġinteger": 3523,
      "emu": 3524,
      "dig": 3525,
      "egin": 3526,
      "tmemset": 3527,
      "Ġmark": 3528,
      "Map": 3529,
      "Ġclass": 3530,
      "OPER": 3531,
      "Ġskip": 3532,
      "tdo": 3533,
      "Ġirq": 3534,
      "ENOMEM": 3535,
      "Ġcost": 3536,
      "ĠSC": 3537,
      "IND": 3538,
      "NET": 3539,
      "cket": 3540,
      "domain": 3541,
      "cel": 3542,
      "Base": 3543,
      "ELE": 3544,
      "PY": 3545,
      "Ġcontent": 3546,
      "prop": 3547,
      "wh": 3548,
      "ade": 3549,
      "Ġparameters": 3550,
      "dm": 3551,
      "Channel": 3552,
      "ĠCL": 3553,
      "GTH": 3554,
      "total": 3555,
      "atile": 3556,
      "tj": 3557,
      "])\\": 3558,
      "Ġsup": 3559,
      "tpr": 3560,
      "ĠSHA": 3561,
      "GA": 3562,
      "ansp": 3563,
      "build": 3564,
      "//!": 3565,
      "side": 3566,
      "Header": 3567,
      "opcode": 3568,
      "(\"\\\\": 3569,
      "operand": 3570,
      "ĠFIX": 3571,
      "SIGN": 3572,
      "Ġ(__": 3573,
      "empty": 3574,
      "frag": 3575,
      "sem": 3576,
      "Ġqueue": 3577,
      "known": 3578,
      "247": 3579,
      "fx": 3580,
      "Ġvir": 3581,
      "uff": 3582,
      "HW": 3583,
      "Proc": 3584,
      "Ġvec": 3585,
      "LBL": 3586,
      "OID": 3587,
      "Call": 3588,
      "Ġcallback": 3589,
      "Obj": 3590,
      "dict": 3591,
      "EVENT": 3592,
      "Ġreserved": 3593,
      "append": 3594,
      "step": 3595,
      "ointer": 3596,
      "Bit": 3597,
      "Ġ...": 3598,
      "nv": 3599,
      "ENTRY": 3600,
      "254": 3601,
      "Ġhf": 3602,
      "ram": 3603,
      "Ġour": 3604,
      "ynam": 3605,
      "\\',\\'": 3606,
      "Ġclock": 3607,
      "aved": 3608,
      "ĠDB": 3609,
      "system": 3610,
      "ĠBUT": 3611,
      "cul": 3612,
      "=(": 3613,
      "Ġabuf": 3614,
      "Ġroot": 3615,
      "Ġitem": 3616,
      "Ġspecific": 3617,
      "================================================================": 3618,
      "rv": 3619,
      ")),": 3620,
      "Rec": 3621,
      "Ġchange": 3622,
      "Ġsystem": 3623,
      "latform": 3624,
      "Idx": 3625,
      "Hash": 3626,
      "Ġcre": 3627,
      "hp": 3628,
      "Ġauth": 3629,
      "Ġpriv": 3630,
      "hci": 3631,
      "tach": 3632,
      "go": 3633,
      "resol": 3634,
      "Addr": 3635,
      "tz": 3636,
      "Sub": 3637,
      "flush": 3638,
      "ĠNo": 3639,
      "Ġsave": 3640,
      "ELD": 3641,
      "tings": 3642,
      "VEL": 3643,
      "anges": 3644,
      "Ġparent": 3645,
      "ments": 3646,
      "tROM": 3647,
      "pending": 3648,
      "00000001": 3649,
      "Ġ\\'%": 3650,
      "Ġaccess": 3651,
      "ynamic": 3652,
      "264": 3653,
      "probe": 3654,
      "LONG": 3655,
      "BC": 3656,
      "lx": 3657,
      "Per": 3658,
      "terror": 3659,
      "TP": 3660,
      "ĠDIS": 3661,
      "ĠRead": 3662,
      "argc": 3663,
      "bool": 3664,
      "hal": 3665,
      "Ġ\");\\": 3666,
      "ASN": 3667,
      "noun": 3668,
      "Ġscan": 3669,
      "round": 3670,
      "nT": 3671,
      "ason": 3672,
      "xfb": 3673,
      "Ġtotal": 3674,
      "Ġparse": 3675,
      "font": 3676,
      "hd": 3677,
      "xbd": 3678,
      "leg": 3679,
      "disable": 3680,
      "ONLY": 3681,
      "Ġcharacter": 3682,
      "xec": 3683,
      "ummy": 3684,
      "####": 3685,
      "ĠERR": 3686,
      "ibutes": 3687,
      "ĠPH": 3688,
      "non": 3689,
      "Ġdisable": 3690,
      "Flags": 3691,
      "ANGE": 3692,
      "gb": 3693,
      "ifo": 3694,
      "Ġ//\\": 3695,
      "NODE": 3696,
      "Ġbr": 3697,
      "FRAME": 3698,
      "Ġtoo": 3699,
      "video": 3700,
      "ineno": 3701,
      "Ġclear": 3702,
      "Ġps": 3703,
      "Ġdiscla": 3704,
      "Ġsure": 3705,
      "pipe": 3706,
      "leep": 3707,
      "Memory": 3708,
      "Ġexec": 3709,
      "ĠLIABILITY": 3710,
      "Ġ*);\\": 3711,
      "RA": 3712,
      "son": 3713,
      "LENGTH": 3714,
      "ĠCONST": 3715,
      "Ġmemset": 3716,
      "board": 3717,
      "ĠTI": 3718,
      "xdd": 3719,
      "Ġdistribution": 3720,
      "essage": 3721,
      "ension": 3722,
      "vo": 3723,
      "Ġcolor": 3724,
      "OPT": 3725,
      "ending": 3726,
      "ĠLIMITED": 3727,
      "imple": 3728,
      "atom": 3729,
      "lookup": 3730,
      "Ġthem": 3731,
      "tst": 3732,
      "tty": 3733,
      "ency": 3734,
      "retval": 3735,
      "Ġ255": 3736,
      "Ġsingle": 3737,
      "freq": 3738,
      "clock": 3739,
      "doc": 3740,
      "ĠLo": 3741,
      "present": 3742,
      "TRIBUTE": 3743,
      "PAGE": 3744,
      "Ġpixel": 3745,
      "Ġdif": 3746,
      "asy": 3747,
      "actor": 3748,
      "ĠCPU": 3749,
      "Port": 3750,
      "pdate": 3751,
      "URCE": 3752,
      "ATIVE": 3753,
      "icode": 3754,
      "ĠSY": 3755,
      "iod": 3756,
      "Ġsw": 3757,
      "/****************************************************************************": 3758,
      "tual": 3759,
      "COUN": 3760,
      "Struct": 3761,
      "ĠCA": 3762,
      "trl": 3763,
      "ilter": 3764,
      "sup": 3765,
      "change": 3766,
      "cli": 3767,
      "ĠPG": 3768,
      "vt": 3769,
      "pio": 3770,
      "Th": 3771,
      "widget": 3772,
      "ren": 3773,
      "SHA": 3774,
      "ĠASN": 3775,
      "bh": 3776,
      "SED": 3777,
      "lex": 3778,
      "gx": 3779,
      "PATH": 3780,
      "Do": 3781,
      "REAM": 3782,
      "\":": 3783,
      "LEVEL": 3784,
      "ĠUSA": 3785,
      "layer": 3786,
      "sof": 3787,
      "Ġtx": 3788,
      "nx": 3789,
      "bin": 3790,
      "plication": 3791,
      "ha": 3792,
      "utf": 3793,
      "tmutex": 3794,
      "Ġ*)__": 3795,
      "Ġproduct": 3796,
      "ORS": 3797,
      "eb": 3798,
      "ARGS": 3799,
      "Ġ\"/": 3800,
      "lu": 3801,
      "Ġsince": 3802,
      "NA": 3803,
      "Ġva": 3804,
      "Ġwant": 3805,
      "mv": 3806,
      "II": 3807,
      "Ġheight": 3808,
      "Ġchild": 3809,
      "region": 3810,
      "Ġli": 3811,
      "ane": 3812,
      "airo": 3813,
      "Ġhold": 3814,
      "Create": 3815,
      "search": 3816,
      "ches": 3817,
      "tbuf": 3818,
      "ĠCR": 3819,
      "ĠPar": 3820,
      "INC": 3821,
      "300": 3822,
      "ROL": 3823,
      "Ġ30": 3824,
      "Ġparser": 3825,
      "Trans": 3826,
      "icy": 3827,
      "decode": 3828,
      "serial": 3829,
      "rs": 3830,
      "ORE": 3831,
      "sions": 3832,
      "Ġtp": 3833,
      "etch": 3834,
      "unit": 3835,
      "Ġprior": 3836,
      "400": 3837,
      "Ġposs": 3838,
      "minor": 3839,
      ")*": 3840,
      "Ġfull": 3841,
      "Ġdocumentation": 3842,
      "MPL": 3843,
      "ĠSSL": 3844,
      "ayload": 3845,
      "++]": 3846,
      "Ġneeded": 3847,
      "EEE": 3848,
      "delete": 3849,
      "entries": 3850,
      "ttmp": 3851,
      "power": 3852,
      "xbe": 3853,
      "stdio": 3854,
      "elem": 3855,
      "ĠYY": 3856,
      "Ġtop": 3857,
      "Inter": 3858,
      "Ġfiles": 3859,
      "ĠĠĠĠĠĠĠĠĠĠĠĠĠĠĠĠĠĠĠĠĠĠĠĠĠĠĠĠĠĠĠĠĠĠĠ": 3860,
      "***/\\": 3861,
      "Ġcinfo": 3862,
      "ĠCUR": 3863,
      "Ġifmt": 3864,
      "312": 3865,
      "IGN": 3866,
      "Tuple": 3867,
      "Ġinitializ": 3868,
      "kernel": 3869,
      "ĠBY": 3870,
      "Schema": 3871,
      "tq": 3872,
      "Msg": 3873,
      "Ġvector": 3874,
      "240": 3875,
      "ĠNote": 3876,
      "ĠFILE": 3877,
      "ioctl": 3878,
      "Ġbeing": 3879,
      "Ġoptions": 3880,
      "xbf": 3881,
      "ĠIRQ": 3882,
      "0000000000000000": 3883,
      "Ġslot": 3884,
      "Print": 3885,
      "Ġsprintf": 3886,
      "Ġinvalid": 3887,
      "ough": 3888,
      "313": 3889,
      "vma": 3890,
      "Ġtimeout": 3891,
      "tX": 3892,
      "Ġob": 3893,
      "lection": 3894,
      "KER": 3895,
      "Ġalways": 3896,
      "ĠGPIO": 3897,
      "hf": 3898,
      "PM": 3899,
      "Ġallocate": 3900,
      "angle": 3901,
      "ĠRedistributions": 3902,
      "tval": 3903,
      "avctx": 3904,
      "alk": 3905,
      "Ġsignal": 3906,
      "Ġocc": 3907,
      "ae": 3908,
      "bad": 3909,
      "access": 3910,
      "ized": 3911,
      "Ġ*)&": 3912,
      "nconst": 3913,
      "Ġfields": 3914,
      "Ġ+\\": 3915,
      "andom": 3916,
      "ling": 3917,
      "AUTH": 3918,
      "Ġfilter": 3919,
      "pace": 3920,
      "Ġdel": 3921,
      "raph": 3922,
      "ypes": 3923,
      "cx": 3924,
      "Ġdisclaimer": 3925,
      "tlist": 3926,
      "2000": 3927,
      "Ġalign": 3928,
      "=\\": 3929,
      "ĠCRC": 3930,
      "UCT": 3931,
      "Ġconnection": 3932,
      "channels": 3933,
      "arge": 3934,
      "xxxx": 3935,
      "www": 3936,
      "SUPPORTED": 3937,
      "nMODULE": 3938,
      "____": 3939,
      "BAD": 3940,
      "Token": 3941,
      "FAILURE": 3942,
      "Max": 3943,
      "Ġthey": 3944,
      "ĠSQL": 3945,
      "ov": 3946,
      "yle": 3947,
      "orage": 3948,
      "\\\\\\\\": 3949,
      "Ġ{__": 3950,
      "sel": 3951,
      "Of": 3952,
      "SOURCE": 3953,
      "Or": 3954,
      "Ġ128": 3955,
      "ĠEn": 3956,
      "USH": 3957,
      "ĠComp": 3958,
      "flash": 3959,
      "position": 3960,
      "Ġrequired": 3961,
      "ĠTEST": 3962,
      "strlen": 3963,
      "restore": 3964,
      "cinfo": 3965,
      "/**": 3966,
      "OPTION": 3967,
      "ĠOn": 3968,
      "ĠSI": 3969,
      "interface": 3970,
      "ĠWHE": 3971,
      "Ġhw": 3972,
      "draw": 3973,
      "Ġentries": 3974,
      "ARB": 3975,
      "tvb": 3976,
      "ardware": 3977,
      "ĠSET": 3978,
      "compress": 3979,
      "Ġerrno": 3980,
      "ias": 3981,
      "Var": 3982,
      "dn": 3983,
      "Ġhttp": 3984,
      "Ġsum": 3985,
      "ced": 3986,
      "ĠOTHER": 3987,
      "MAR": 3988,
      "ETH": 3989,
      "TRACT": 3990,
      "ĠTh": 3991,
      "resource": 3992,
      "Ġpol": 3993,
      "full": 3994,
      "descript": 3995,
      "VM": 3996,
      "keep": 3997,
      "blocks": 3998,
      "ids": 3999,
      "Ġdirectory": 4000,
      "ĠTYPE": 4001,
      "\")\\": 4002,
      "LOB": 4003,
      "ination": 4004,
      "olute": 4005,
      "Ġfre": 4006,
      "interrupt": 4007,
      "clineno": 4008,
      "PFN": 4009,
      "uri": 4010,
      "Ġmm": 4011,
      "ĠReg": 4012,
      "Ġ31": 4013,
      "tifier": 4014,
      "Ġel": 4015,
      "80000000": 4016,
      "Ġpix": 4017,
      "dt": 4018,
      "tNULL": 4019,
      "Ġrel": 4020,
      "gc": 4021,
      "Ġphy": 4022,
      "</": 4023,
      "Ġreal": 4024,
      "Ġsym": 4025,
      "button": 4026,
      "361": 4027,
      "Ġiter": 4028,
      "vir": 4029,
      "xeb": 4030,
      "lines": 4031,
      "ĠDI": 4032,
      "Ġ25": 4033,
      "screen": 4034,
      "icon": 4035,
      "FLAGS": 4036,
      "Ġtimer": 4037,
      "plat": 4038,
      "rad": 4039,
      "Ġ28": 4040,
      "\\':": 4041,
      "SCAL": 4042,
      "az": 4043,
      "tsk": 4044,
      "LOCAL": 4045,
      "FIELD": 4046,
      "amily": 4047,
      "uf": 4048,
      "enter": 4049,
      "insert": 4050,
      "iS": 4051,
      "tkfree": 4052,
      "ialog": 4053,
      "Ġsocket": 4054,
      "CONTROL": 4055,
      "INCLUDING": 4056,
      "ĠĠĠĠĠĠĠĠĠĠĠĠĠĠĠĠĠĠĠĠĠĠĠĠĠĠĠĠĠĠĠĠĠ": 4057,
      "ipe": 4058,
      "));": 4059,
      "ĠBFD": 4060,
      "Ġbuild": 4061,
      "Qu": 4062,
      "ĠSU": 4063,
      "Ġallocated": 4064,
      "101": 4065,
      "ARRAY": 4066,
      "Ġmach": 4067,
      "Ġngx": 4068,
      "Ġshift": 4069,
      "tom": 4070,
      "ually": 4071,
      "agic": 4072,
      "cell": 4073,
      "PK": 4074,
      "Ġretval": 4075,
      "ered": 4076,
      "Ġinternal": 4077,
      "Ġskb": 4078,
      "archive": 4079,
      "area": 4080,
      "Ġ\\',": 4081,
      "Ġempty": 4082,
      "erge": 4083,
      "__);\\": 4084,
      "atal": 4085,
      "Ġcolumn": 4086,
      "Ġ48": 4087,
      "oston": 4088,
      "123": 4089,
      "VED": 4090,
      "*,": 4091,
      "Ġagain": 4092,
      "Ġdisplay": 4093,
      "qp": 4094,
      "ĠSo": 4095,
      "with": 4096,
      "tW": 4097,
      "TEXT": 4098,
      "STREAM": 4099,
      "Ġwhat": 4100,
      "Opt": 4101,
      "ĠFLD": 4102,
      "job": 4103,
      "pad": 4104,
      "imm": 4105,
      "RIP": 4106,
      "oot": 4107,
      "ITEM": 4108,
      "wl": 4109,
      "Ġnames": 4110,
      "soc": 4111,
      "Private": 4112,
      "Ġregisters": 4113,
      "HANDLE": 4114,
      "df": 4115,
      "ĠFA": 4116,
      "Ġprob": 4117,
      "Ġcould": 4118,
      "\\'\\\\": 4119,
      "GTK": 4120,
      "values": 4121,
      "Ġfp": 4122,
      "tA": 4123,
      "menu": 4124,
      "gress": 4125,
      "Ġhigh": 4126,
      "tV": 4127,
      "ĠBoston": 4128,
      "ertex": 4129,
      "Ġlook": 4130,
      "Row": 4131,
      "Ġhandler": 4132,
      "CKET": 4133,
      "Ġprevious": 4134,
      "angu": 4135,
      "RESS": 4136,
      "Ġpe": 4137,
      "ĠDe": 4138,
      "ĠFF": 4139,
      "alt": 4140,
      "Ġfra": 4141,
      "ĠEN": 4142,
      "ORM": 4143,
      "seek": 4144,
      "null": 4145,
      "QUEN": 4146,
      "+=": 4147,
      "Ġglobal": 4148,
      "Temp": 4149,
      "wc": 4150,
      "Ġbad": 4151,
      "Ġ\\\\\"": 4152,
      "OLD": 4153,
      "Ġ*)(": 4154,
      "Ġfe": 4155,
      "ĠDis": 4156,
      "aff": 4157,
      "Ġstd": 4158,
      "DP": 4159,
      "+\\": 4160,
      "sf": 4161,
      "ials": 4162,
      "Color": 4163,
      "Ġcannot": 4164,
      "Ġelf": 4165,
      "):": 4166,
      "Handler": 4167,
      "lit": 4168,
      "stmt": 4169,
      "Ġpa": 4170,
      "Ġcontains": 4171,
      "Line": 4172,
      "grap": 4173,
      "Ġsv": 4174,
      "ief": 4175,
      "Ġ22": 4176,
      "spi": 4177,
      "Ġcounter": 4178,
      "ĠSy": 4179,
      "Ġthese": 4180,
      "ear": 4181,
      "MALL": 4182,
      "reply": 4183,
      "DS": 4184,
      "Ġver": 4185,
      "Ġabout": 4186,
      "elete": 4187,
      "Ġcop": 4188,
      "**/\\": 4189,
      "tio": 4190,
      "ĠUNUSED": 4191,
      "ferenced": 4192,
      "Ġlicense": 4193,
      "connection": 4194,
      "Ġhead": 4195,
      "ntmp": 4196,
      "XIS": 4197,
      "NEM": 4198,
      "Ġretain": 4199,
      "Ġfilename": 4200,
      "Ġieee": 4201,
      "OPERAND": 4202,
      "Ġsig": 4203,
      "ĠRes": 4204,
      "ĠLes": 4205,
      ")&": 4206,
      "nbreak": 4207,
      ">=": 4208,
      "Input": 4209,
      "anch": 4210,
      "recv": 4211,
      "itle": 4212,
      "METH": 4213,
      "Ġrx": 4214,
      "*//*:": 4215,
      "vis": 4216,
      "}}": 4217,
      "ĠLesser": 4218,
      "Ġ\\',\\',": 4219,
      "tnew": 4220,
      "RIGHT": 4221,
      "ĠBE": 4222,
      "pB": 4223,
      "Element": 4224,
      "++){\\": 4225,
      "record": 4226,
      "ĠUINT": 4227,
      "ĠNT": 4228,
      "GRO": 4229,
      "ffffff": 4230,
      "Ġconvert": 4231,
      "peer": 4232,
      "__;": 4233,
      "ĠDo": 4234,
      "sure": 4235,
      "RETURN": 4236,
      "patch": 4237,
      "Ġcap": 4238,
      "SEC": 4239,
      "ĠMP": 4240,
      "Ġ23": 4241,
      "ĠKEY": 4242,
      "response": 4243,
      "Ġlp": 4244,
      "ht": 4245,
      "TRAN": 4246,
      ",/*": 4247,
      "cursor": 4248,
      "Ġposition": 4249,
      "LC": 4250,
      "Ġotherwise": 4251,
      "Test": 4252,
      "ameters": 4253,
      "Ġ256": 4254,
      "ĠTIM": 4255,
      "surface": 4256,
      "Ġwould": 4257,
      "ĠVALUE": 4258,
      "found": 4259,
      "tstate": 4260,
      "phys": 4261,
      "peg": 4262,
      "WARNING": 4263,
      "RESET": 4264,
      "COUNT": 4265,
      "sched": 4266,
      "CONF": 4267,
      "Ġ51": 4268,
      "mux": 4269,
      "xef": 4270,
      "tad": 4271,
      "Message": 4272,
      "Command": 4273,
      "ution": 4274,
      "anguage": 4275,
      "nchar": 4276,
      "brief": 4277,
      "ĠCOP": 4278,
      "CAST": 4279,
      "!\\\\": 4280,
      "Dst": 4281,
      "CRE": 4282,
      "ape": 4283,
      "graph": 4284,
      "untime": 4285,
      "CORE": 4286,
      "ĠON": 4287,
      "ppend": 4288,
      "Ent": 4289,
      "Ġ(-": 4290,
      "Ġdist": 4291,
      "SEL": 4292,
      "mount": 4293,
      "tresult": 4294,
      "AF": 4295,
      "high": 4296,
      "sin": 4297,
      "master": 4298,
      "ERNAL": 4299,
      "counter": 4300,
      "Ġder": 4301,
      "irection": 4302,
      "Ġneg": 4303,
      "WID": 4304,
      "ĠFunction": 4305,
      "nEXPORT": 4306,
      "oci": 4307,
      "Ġul": 4308,
      "ANT": 4309,
      "ĠDATA": 4310,
      "ĠSPE": 4311,
      "Ġreloc": 4312,
      "ULTI": 4313,
      "Ġcycle": 4314,
      "fill": 4315,
      "hc": 4316,
      "xbb": 4317,
      "rp": 4318,
      ",%": 4319,
      "fields": 4320,
      "chain": 4321,
      "tassert": 4322,
      "ĠMNEM": 4323,
      "txt": 4324,
      "basic": 4325,
      ")==": 4326,
      "ove": 4327,
      "Ġinsert": 4328,
      "Ġdecl": 4329,
      "ĠMO": 4330,
      "straint": 4331,
      "ĠTe": 4332,
      "prom": 4333,
      "Ġchip": 4334,
      "irm": 4335,
      "rm": 4336,
      "items": 4337,
      "bf": 4338,
      "evel": 4339,
      "mitted": 4340,
      "DRV": 4341,
      "Ġoperation": 4342,
      "rank": 4343,
      "okie": 4344,
      "Ġoperand": 4345,
      "rtx": 4346,
      "Ġmight": 4347,
      "ERRUP": 4348,
      "ACTIVE": 4349,
      "RB": 4350,
      "tion": 4351,
      "Ġdig": 4352,
      "pages": 4353,
      "tI": 4354,
      "hether": 4355,
      "cpi": 4356,
      "Ġpas": 4357,
      "Mask": 4358,
      "ĠSW": 4359,
      "AMETER": 4360,
      "generic": 4361,
      "body": 4362,
      "tsc": 4363,
      "Ġcairo": 4364,
      "PCM": 4365,
      "8000": 4366,
      "ĠIF": 4367,
      "vid": 4368,
      "ĠCOPY": 4369,
      "Ġ\"-": 4370,
      "wm": 4371,
      "Ġ26": 4372,
      "plic": 4373,
      "ween": 4374,
      "cor": 4375,
      "xfa": 4376,
      "encode": 4377,
      "225": 4378,
      "ste": 4379,
      "variable": 4380,
      "PROTO": 4381,
      "band": 4382,
      "ĠDEF": 4383,
      "ffect": 4384,
      "Cell": 4385,
      "gg": 4386,
      "800": 4387,
      "ERO": 4388,
      "Ġ]": 4389,
      "IMP": 4390,
      "Param": 4391,
      "until": 4392,
      "Ġsys": 4393,
      "rep": 4394,
      "track": 4395,
      "220": 4396,
      "tsnd": 4397,
      ")((": 4398,
      "Ġ::": 4399,
      "TC": 4400,
      "Ġplatform": 4401,
      "PEG": 4402,
      "Ġcorrect": 4403,
      ")-": 4404,
      "pk": 4405,
      "GLE": 4406,
      "Ġ21": 4407,
      "Ġ\\'[": 4408,
      "ings": 4409,
      "duce": 4410,
      "ĠNDR": 4411,
      "bers": 4412,
      "Ġattribute": 4413,
      "Ġes": 4414,
      "Ġos": 4415,
      "tDEBUG": 4416,
      "extra": 4417,
      "Ġ\\']": 4418,
      "ANK": 4419,
      "Ġsearch": 4420,
      ",(": 4421,
      "Request": 4422,
      "Ġdoesn": 4423,
      "mr": 4424,
      "instance": 4425,
      "CONST": 4426,
      "ĠĠĠĠĠĠĠĠĠĠĠĠĠĠĠĠĠĠĠĠĠĠĠĠĠĠĠĠĠĠĠĠĠĠ": 4427,
      "Ġstop": 4428,
      "Tx": 4429,
      "verse": 4430,
      "Ġ&(": 4431,
      "Ġcard": 4432,
      "post": 4433,
      "uv": 4434,
      "THREAD": 4435,
      "Ġignore": 4436,
      "Ġdown": 4437,
      "erved": 4438,
      "Ġwin": 4439,
      "Component": 4440,
      "IE": 4441,
      "service": 4442,
      "make": 4443,
      "BF": 4444,
      "ĠWrite": 4445,
      "invalid": 4446,
      "ferent": 4447,
      "sole": 4448,
      "XML": 4449,
      "ea": 4450,
      "ĠSUB": 4451,
      "SDL": 4452,
      "ĠCreate": 4453,
      "ĠNum": 4454,
      "Parser": 4455,
      "got": 4456,
      "pR": 4457,
      "att": 4458,
      "ture": 4459,
      "METHOD": 4460,
      "curr": 4461,
      "9999": 4462,
      "Ġrt": 4463,
      "Result": 4464,
      "Ġopcode": 4465,
      "idge": 4466,
      "DF": 4467,
      ")\",": 4468,
      "ĠEVENT": 4469,
      "QUE": 4470,
      "Bytes": 4471,
      "machine": 4472,
      "SEQUEN": 4473,
      "Cmd": 4474,
      "Ġ${": 4475,
      "DT": 4476,
      "ita": 4477,
      "tL": 4478,
      "Ġmis": 4479,
      "stamp": 4480,
      "cleanup": 4481,
      "Ġpermission": 4482,
      "Ġsd": 4483,
      "upported": 4484,
      "Doc": 4485,
      "802": 4486,
      "ular": 4487,
      "ĠWh": 4488,
      "vs": 4489,
      "ressed": 4490,
      "fi": 4491,
      "tuple": 4492,
      "MOD": 4493,
      "iltin": 4494,
      "neg": 4495,
      "Select": 4496,
      "Ġboth": 4497,
      "IAL": 4498,
      "ga": 4499,
      "aded": 4500,
      "Cursor": 4501,
      "tvoid": 4502,
      "Ġdiv": 4503,
      "Mac": 4504,
      "Ġpossible": 4505,
      "lm": 4506,
      "ĠSN": 4507,
      "loor": 4508,
      "ĠAF": 4509,
      "scal": 4510,
      "TRIBUT": 4511,
      "STACK": 4512,
      "EGER": 4513,
      "POINT": 4514,
      "Cache": 4515,
      ")+": 4516,
      "SYNC": 4517,
      "He": 4518,
      "120": 4519,
      "PFNGL": 4520,
      "boot": 4521,
      "LOAT": 4522,
      "Module": 4523,
      "bitmap": 4524,
      "ĠTL": 4525,
      "tNDR": 4526,
      "Ġprefix": 4527,
      "only": 4528,
      "USER": 4529,
      "Ġmd": 4530,
      "lua": 4531,
      "REA": 4532,
      "Ġfailure": 4533,
      "pose": 4534,
      "IPH": 4535,
      "Ġbetween": 4536,
      "Ġreference": 4537,
      "Ġsupported": 4538,
      "alet": 4539,
      "Ġhap": 4540,
      "LINK": 4541,
      "fw": 4542,
      "speed": 4543,
      "KERNEL": 4544,
      "tok": 4545,
      "())": 4546,
      "integer": 4547,
      "Ġfill": 4548,
      "NOWN": 4549,
      "js": 4550,
      "RM": 4551,
      "GO": 4552,
      "Ġmov": 4553,
      "HEADER": 4554,
      "ssize": 4555,
      "ĠDAMAGES": 4556,
      "Ġsec": 4557,
      "Ġtask": 4558,
      "stdlib": 4559,
      "cope": 4560,
      "strdup": 4561,
      "ĠDes": 4562,
      "iro": 4563,
      "errupts": 4564,
      "twrite": 4565,
      "sequence": 4566,
      "YP": 4567,
      "Ġabort": 4568,
      "Ġ1000": 4569,
      "ents": 4570,
      "skip": 4571,
      "ific": 4572,
      "acc": 4573,
      "ĠARG": 4574,
      "atures": 4575,
      "ĠRL": 4576,
      "Ġconfiguration": 4577,
      "Ġremove": 4578,
      "Ġ27": 4579,
      "CLE": 4580,
      "big": 4581,
      "owner": 4582,
      "locate": 4583,
      "++,": 4584,
      "nodes": 4585,
      "ĠMAC": 4586,
      "Ġndr": 4587,
      "Ġwhether": 4588,
      "Ġsect": 4589,
      "uch": 4590,
      "Ġsetup": 4591,
      "DM": 4592,
      "111": 4593,
      "ĠĠĠĠĠĠĠĠĠĠĠĠĠĠĠĠĠĠĠĠĠĠĠĠĠĠĠĠĠĠĠĠĠĠĠĠĠĠĠ": 4594,
      "ous": 4595,
      "ayer": 4596,
      "xea": 4597,
      "tcur": 4598,
      "media": 4599,
      "Ġ59": 4600,
      "ĠĠĠĠĠĠĠĠĠĠĠĠĠĠĠĠĠĠĠĠĠĠĠĠĠĠĠĠĠĠĠĠĠĠĠĠ": 4601,
      "SF": 4602,
      "ĠGFP": 4603,
      "platform": 4604,
      "Failed": 4605,
      ")|": 4606,
      "Ġkrb": 4607,
      "percap": 4608,
      "percapita": 4609,
      "gor": 4610,
      "Ġ(;": 4611,
      "ader": 4612,
      "CIAL": 4613,
      "PIX": 4614,
      "multip": 4615,
      "ĠNone": 4616,
      "\\');\\": 4617,
      "MATCH": 4618,
      "bound": 4619,
      "NEW": 4620,
      "MARK": 4621,
      "agick": 4622,
      "Ġfs": 4623,
      "disk": 4624,
      "Ġspecial": 4625,
      "None": 4626,
      "Ġextra": 4627,
      "ler": 4628,
      "CACHE": 4629,
      "DIP": 4630,
      "Net": 4631,
      "Ġsa": 4632,
      "ability": 4633,
      "Ġinstruction": 4634,
      "ox": 4635,
      "DECL": 4636,
      "uring": 4637,
      "pf": 4638,
      "Ġpool": 4639,
      "TIAL": 4640,
      "Ġ_(\"": 4641,
      "resolve": 4642,
      "Ġcursor": 4643,
      "Invalid": 4644,
      "Ġcostpercapita": 4645,
      "mid": 4646,
      "Ġsuch": 4647,
      "Ġway": 4648,
      "ĠXXX": 4649,
      "ities": 4650,
      "Ġhow": 4651,
      "->_": 4652,
      "Ġdecode": 4653,
      "Current": 4654,
      "true": 4655,
      "ava": 4656,
      "<\\": 4657,
      "twpa": 4658,
      "ĠNE": 4659,
      "MEMORY": 4660,
      "ALIGN": 4661,
      "sql": 4662,
      "Ġauto": 4663,
      "());\\": 4664,
      "arning": 4665,
      "Ġmeans": 4666,
      "Ġph": 4667,
      "Filter": 4668,
      "Ġ<<<<<<<<<": 4669,
      "rerror": 4670,
      "ĠATTRIBUTE": 4671,
      "TARGET": 4672,
      "xaa": 4673,
      "Ġ<<<<<<<<<<<<<": 4674,
      "Ġ<<<<<<<<<<<<<<\\": 4675,
      "FACE": 4676,
      "Ġoccur": 4677,
      "ENSE": 4678,
      "Dir": 4679,
      "-*/\\": 4680,
      "cn": 4681,
      "Ġpower": 4682,
      "Ġctxt": 4683,
      "ĠJS": 4684,
      "Ġ..": 4685,
      "Ġdifferent": 4686,
      "Ġexpression": 4687,
      "REC": 4688,
      "Ġbeg": 4689,
      "pAd": 4690,
      "app": 4691,
      "MUX": 4692,
      "Ġdim": 4693,
      "*/=": 4694,
      "500": 4695,
      "xbc": 4696,
      "keys": 4697,
      "dsp": 4698,
      "ĠTX": 4699,
      "ĠPr": 4700,
      "Ġassoci": 4701,
      "STRUCT": 4702,
      "Ġface": 4703,
      "Vertex": 4704,
      "Ġbound": 4705,
      "failed": 4706,
      "nif": 4707,
      "ĠINCLUDING": 4708,
      "pic": 4709,
      "ĠTcl": 4710,
      "bot": 4711,
      "************": 4712,
      "points": 4713,
      "Ġ~(": 4714,
      "LIM": 4715,
      "Pt": 4716,
      "ĠAL": 4717,
      ":\\\\": 4718,
      "roll": 4719,
      "ansport": 4720,
      "xcc": 4721,
      "ugin": 4722,
      ")/": 4723,
      "Packet": 4724,
      "Ġuntil": 4725,
      "Ġdec": 4726,
      "RELOC": 4727,
      "itional": 4728,
      "rout": 4729,
      "IMM": 4730,
      "Ġpoints": 4731,
      "COLOR": 4732,
      "how": 4733,
      "EA": 4734,
      "%%%%%%%%%%%%%%%%": 4735,
      "xFFFFFFFF": 4736,
      "ired": 4737,
      "Ġdescriptor": 4738,
      "Ġimplementation": 4739,
      "usage": 4740,
      "Ġ\\'[\\',": 4741,
      "tot": 4742,
      "sector": 4743,
      "ended": 4744,
      "diff": 4745,
      "Ġlabel": 4746,
      "aque": 4747,
      "avail": 4748,
      "Ġarguments": 4749,
      "bar": 4750,
      "RATE": 4751,
      "Ġrelease": 4752,
      "tstatic": 4753,
      "tpro": 4754,
      "ĠInitialize": 4755,
      "ĠIO": 4756,
      "ubyte": 4757,
      "tpci": 4758,
      "ĠFLASH": 4759,
      "Ġconn": 4760,
      "ASK": 4761,
      "Ġ\\']\\',": 4762,
      "tid": 4763,
      "BS": 4764,
      "Ġpack": 4765,
      "pfn": 4766,
      "swap": 4767,
      "Ġevery": 4768,
      "Ġparam": 4769,
      "tle": 4770,
      "GPL": 4771,
      "Ġactive": 4772,
      "Ġshow": 4773,
      "IGH": 4774,
      "\"\\\\": 4775,
      "SERVED": 4776,
      "opts": 4777,
      "ĠVal": 4778,
      "Host": 4779,
      "*/;\\": 4780,
      "Ġmater": 4781,
      "ATCH": 4782,
      "ecess": 4783,
      "RGB": 4784,
      "ĠTK": 4785,
      "tool": 4786,
      "Ġmon": 4787,
      "ĠAXIS": 4788,
      "ĠEXPRE": 4789,
      "dist": 4790,
      "ĠAUT": 4791,
      "lace": 4792,
      "csi": 4793,
      "Function": 4794,
      "BI": 4795,
      "RST": 4796,
      "notify": 4797,
      "DD": 4798,
      "endor": 4799,
      "IME": 4800,
      "ĠData": 4801,
      "cho": 4802,
      "ni": 4803,
      "crement": 4804,
      "116": 4805,
      "ports": 4806,
      "eft": 4807,
      "alette": 4808,
      "cription": 4809,
      "The": 4810,
      "Ġgimp": 4811,
      "ĠCl": 4812,
      "Ġmacro": 4813,
      "press": 4814,
      "ISING": 4815,
      "Ġaction": 4816,
      "poll": 4817,
      "Ġsockaddr": 4818,
      "WAIT": 4819,
      "fifo": 4820,
      "snd": 4821,
      "column": 4822,
      "ĠARR": 4823,
      "tems": 4824,
      "pare": 4825,
      "ssid": 4826,
      "pri": 4827,
      "ident": 4828,
      "files": 4829,
      "adc": 4830,
      "Ġknow": 4831,
      "axis": 4832,
      "ĠPORT": 4833,
      "Control": 4834,
      "VR": 4835,
      "HOST": 4836,
      "Ġavoid": 4837,
      "Iter": 4838,
      "tep": 4839,
      "Ġ!(": 4840,
      "ĠPROVIDE": 4841,
      "Ġfrag": 4842,
      "ISTER": 4843,
      "ĠSER": 4844,
      "Ġdma": 4845,
      "Ġmove": 4846,
      "ethod": 4847,
      "scsi": 4848,
      "Ġgot": 4849,
      "Ġkernel": 4850,
      "APP": 4851,
      "ncmp": 4852,
      "oin": 4853,
      "Ġow": 4854,
      "ICT": 4855,
      "ENSION": 4856,
      "~~": 4857,
      "exception": 4858,
      "pop": 4859,
      "cipher": 4860,
      "absolute": 4861,
      "ARCH": 4862,
      "BIO": 4863,
      "Ġgint": 4864,
      "PIN": 4865,
      "ntax": 4866,
      "Debug": 4867,
      "ĠAn": 4868,
      "Link": 4869,
      "mpeg": 4870,
      "xed": 4871,
      "512": 4872,
      "Ġcell": 4873,
      "ever": 4874,
      "auto": 4875,
      "Ġchanged": 4876,
      "Output": 4877,
      "complete": 4878,
      "Ġblocks": 4879,
      "Ġdi": 4880,
      "Ġ56": 4881,
      "Ġinstance": 4882,
      "Ġnull": 4883,
      "IPS": 4884,
      "User": 4885,
      "Ġtcg": 4886,
      "reshold": 4887,
      "cairo": 4888,
      "tis": 4889,
      "ĠSHALL": 4890,
      "ĠPer": 4891,
      "netdev": 4892,
      "Ġ50": 4893,
      "WM": 4894,
      "Ġlike": 4895,
      "ĠOMX": 4896,
      "PARAMETER": 4897,
      ")->_": 4898,
      "ĠPROVIDED": 4899,
      "ĠARRAY": 4900,
      "SYM": 4901,
      "POW": 4902,
      "ĠRX": 4903,
      "This": 4904,
      "oi": 4905,
      "LETE": 4906,
      "Hz": 4907,
      "nout": 4908,
      "delta": 4909,
      "UNKNOWN": 4910,
      "Ġrtx": 4911,
      "pull": 4912,
      "blob": 4913,
      "Level": 4914,
      "Ġfin": 4915,
      "Ġtransfer": 4916,
      "ified": 4917,
      "INPUT": 4918,
      "600": 4919,
      "alin": 4920,
      "sens": 4921,
      "curity": 4922,
      "):\\": 4923,
      "On": 4924,
      "nm": 4925,
      "dh": 4926,
      "SPACE": 4927,
      "tim": 4928,
      "ĠSEM": 4929,
      "Ġtermin": 4930,
      "\"))\\": 4931,
      "Ġpthread": 4932,
      "Ġvariables": 4933,
      "MAND": 4934,
      "Ġrate": 4935,
      "Ġconf": 4936,
      "Mutex": 4937,
      "wrap": 4938,
      "PRINTF": 4939,
      "ĠGLubyte": 4940,
      "sta": 4941,
      "Ġvis": 4942,
      "pattern": 4943,
      "break": 4944,
      "Ġmachine": 4945,
      "bt": 4946,
      "ZERO": 4947,
      "Inst": 4948,
      "ĠMEM": 4949,
      "equal": 4950,
      "ĠNumber": 4951,
      "Ġ\".": 4952,
      "ivers": 4953,
      "rows": 4954,
      "cred": 4955,
      "Ġbelow": 4956,
      "ios": 4957,
      "CHANNEL": 4958,
      "213": 4959,
      "ĠStat": 4960,
      "any": 4961,
      "warning": 4962,
      "Group": 4963,
      "Ġdc": 4964,
      "POS": 4965,
      "xFE": 4966,
      "ĠMake": 4967,
      "DENT": 4968,
      "RELATIVE": 4969,
      "inux": 4970,
      "pon": 4971,
      "Ġfunc": 4972,
      "ints": 4973,
      "med": 4974,
      "BD": 4975,
      "Ġquery": 4976,
      "dw": 4977,
      "Ġstep": 4978,
      "xFFFF": 4979,
      "TRIBUTORS": 4980,
      "mult": 4981,
      "xee": 4982,
      "ILED": 4983,
      "gorith": 4984,
      "Ġnever": 4985,
      "GROUP": 4986,
      "tctx": 4987,
      "HAVE": 4988,
      "Ġseq": 4989,
      "_(": 4990,
      "final": 4991,
      "<=": 4992,
      "pan": 4993,
      "ĠCONTRIBUTORS": 4994,
      "jor": 4995,
      "ĠLIABLE": 4996,
      "Ġsession": 4997,
      "ĠWHETHER": 4998,
      "ĠError": 4999,
      "250": 5000,
      "ĠEnd": 5001,
      "Ġmaterials": 5002,
      "ĠARISING": 5003,
      "ached": 5004,
      "Ġpassed": 5005,
      "Ġ60": 5006,
      "Ġsequence": 5007,
      "Point": 5008,
      "ĠOut": 5009,
      "pair": 5010,
      "245": 5011,
      "tF": 5012,
      "Ġleast": 5013,
      "enabled": 5014,
      "ĠACPI": 5015,
      "expected": 5016,
      "xxx": 5017,
      "eq": 5018,
      "none": 5019,
      "tcmd": 5020,
      "Ġexpected": 5021,
      "Ġstatement": 5022,
      "utdown": 5023,
      "SIB": 5024,
      "FG": 5025,
      "Valid": 5026,
      "CG": 5027,
      "Ġsz": 5028,
      "------------------------": 5029,
      "aps": 5030,
      "Delete": 5031,
      "iority": 5032,
      "ibrary": 5033,
      "ĠASSERT": 5034,
      "GIN": 5035,
      "Ġinitial": 5036,
      "BN": 5037,
      "Ġcnt": 5038,
      "xba": 5039,
      "EVP": 5040,
      "rule": 5041,
      "Ġ29": 5042,
      "********************************************************************": 5043,
      "216": 5044,
      "RS": 5045,
      "========================================================================": 5046,
      "Ġsmall": 5047,
      "Ġep": 5048,
      "ĠSIG": 5049,
      "GX": 5050,
      "ecessary": 5051,
      "ĠHOW": 5052,
      "Field": 5053,
      "24753": 5054,
      "Ġcb": 5055,
      "Ġcleanup": 5056,
      "Ġ*_": 5057,
      "ANY": 5058,
      "family": 5059,
      "Ġhappen": 5060,
      "217": 5061,
      "RANGE": 5062,
      "ru": 5063,
      "YY": 5064,
      "Ġinitialize": 5065,
      "[-": 5066,
      "RESULT": 5067,
      "Ġnormal": 5068,
      "ĠOPEN": 5069,
      "Ġinstead": 5070,
      "vals": 5071,
      "Ġassume": 5072,
      "ĠSD": 5073,
      "Ġmodification": 5074,
      "tos": 5075,
      "Ġbased": 5076,
      "0001": 5077,
      "FIL": 5078,
      "HDR": 5079,
      "Ġdg": 5080,
      "dv": 5081,
      "Ġedge": 5082,
      "tip": 5083,
      "Ġstill": 5084,
      "maining": 5085,
      "Ġtransaction": 5086,
      "zip": 5087,
      "changed": 5088,
      "intr": 5089,
      "Ġstored": 5090,
      "ĠERROR": 5091,
      "1111": 5092,
      "acy": 5093,
      "style": 5094,
      "109": 5095,
      "ĠBO": 5096,
      "ĠArray": 5097,
      "Ġpages": 5098,
      "remote": 5099,
      "ĠCONTRACT": 5100,
      "112": 5101,
      "MEDI": 5102,
      "HASH": 5103,
      "tpar": 5104,
      "ĠBUS": 5105,
      "uspend": 5106,
      "second": 5107,
      "Ġpp": 5108,
      "COPY": 5109,
      "ĠTREE": 5110,
      "Pixel": 5111,
      "Ġendif": 5112,
      "FILL": 5113,
      "iler": 5114,
      "Ġ1024": 5115,
      "Ġwr": 5116,
      "DOWN": 5117,
      "semb": 5118,
      "NEXT": 5119,
      "ĠSu": 5120,
      "PF": 5121,
      "alpha": 5122,
      "PLY": 5123,
      "TLS": 5124,
      "mapping": 5125,
      "smb": 5126,
      "ĠCHE": 5127,
      "EXIT": 5128,
      "xor": 5129,
      "glyph": 5130,
      "lv": 5131,
      "atomic": 5132,
      "FLOAT": 5133,
      "Ġpt": 5134,
      "Ġfmt": 5135,
      "CLI": 5136,
      "ĠCal": 5137,
      "(\\'": 5138,
      "ISC": 5139,
      "oft": 5140,
      "COMM": 5141,
      "PLAY": 5142,
      ",$": 5143,
      "Ġ00": 5144,
      "ĠEnable": 5145,
      "CONNE": 5146,
      "ttemp": 5147,
      "Que": 5148,
      "normal": 5149,
      "SID": 5150,
      "ization": 5151,
      "MAG": 5152,
      "HLBL": 5153,
      "Ġkeep": 5154,
      "ARM": 5155,
      "SAMPLE": 5156,
      "report": 5157,
      "nG": 5158,
      "Ġcrypto": 5159,
      "EQ": 5160,
      "Ġenough": 5161,
      "ĠMB": 5162,
      "Ġshared": 5163,
      "false": 5164,
      "Ġcc": 5165,
      "bose": 5166,
      "PROM": 5167,
      "Copy": 5168,
      "Enable": 5169,
      "1024": 5170,
      "OMIT": 5171,
      "MAN": 5172,
      "TIFF": 5173,
      "Ġemit": 5174,
      "223": 5175,
      "UST": 5176,
      "pn": 5177,
      "Ġwithin": 5178,
      "hook": 5179,
      "*/(": 5180,
      "Ġaudio": 5181,
      "ĠBASE": 5182,
      "Ġdepth": 5183,
      "Ġdelta": 5184,
      "quency": 5185,
      "Ġhdr": 5186,
      "../": 5187,
      "////////////////": 5188,
      "Ġok": 5189,
      "]));\\": 5190,
      "TIMER": 5191,
      "ĠCHECK": 5192,
      "ĠSL": 5193,
      "UDIO": 5194,
      "TING": 5195,
      "Ġneeds": 5196,
      "Alloc": 5197,
      "252": 5198,
      "WISE": 5199,
      "irmware": 5200,
      "CTOR": 5201,
      "Ġstalin": 5202,
      "nunsigned": 5203,
      "Ġhardware": 5204,
      "nder": 5205,
      "Widget": 5206,
      "114": 5207,
      "ĠCY": 5208,
      "Ġstandard": 5209,
      "UBLE": 5210,
      "Ġpg": 5211,
      "ĠSV": 5212,
      "VOID": 5213,
      "ioc": 5214,
      "Left": 5215,
      "SELE": 5216,
      "Ġappro": 5217,
      "begin": 5218,
      "ĠDISCLA": 5219,
      "ino": 5220,
      "cons": 5221,
      "tpriv": 5222,
      "Bool": 5223,
      "Thread": 5224,
      "Ġ(\\": 5225,
      "inline": 5226,
      "puts": 5227,
      "irqrestore": 5228,
      "cture": 5229,
      "210": 5230,
      "ĠIEEE": 5231,
      "Ġstride": 5232,
      "ĠTest": 5233,
      "ĠWhen": 5234,
      "ĠCode": 5235,
      "IA": 5236,
      "Term": 5237,
      "each": 5238,
      "gine": 5239,
      "ANCE": 5240,
      "argument": 5241,
      "Ġer": 5242,
      "pert": 5243,
      "Ġcycles": 5244,
      "acter": 5245,
      "gmt": 5246,
      "Update": 5247,
      "xdf": 5248,
      "mix": 5249,
      "Ġdissect": 5250,
      "tls": 5251,
      "Ġcharacters": 5252,
      "POWER": 5253,
      "sam": 5254,
      "Ġassociated": 5255,
      "Ġresponse": 5256,
      "ĠEXPRESS": 5257,
      "Connect": 5258,
      "ĠMIN": 5259,
      "quant": 5260,
      "nmodule": 5261,
      "culate": 5262,
      "UInt": 5263,
      "DOW": 5264,
      "Ġvideo": 5265,
      "Ġopval": 5266,
      "ĠCGEN": 5267,
      "Ġexpr": 5268,
      "ĠWM": 5269,
      "ĠPC": 5270,
      "moved": 5271,
      "]\\\\": 5272,
      "des": 5273,
      "tndr": 5274,
      "Ġ##": 5275,
      "Ġoverflow": 5276,
      "pS": 5277,
      "frames": 5278,
      "encoding": 5279,
      "resp": 5280,
      "Ġdelete": 5281,
      "builtin": 5282,
      "Ġmultiple": 5283,
      "sort": 5284,
      "gdb": 5285,
      "PASS": 5286,
      "ĠĠĠĠĠĠĠĠĠĠĠĠĠĠĠĠĠĠĠĠĠĠĠĠĠĠĠĠĠĠĠĠĠĠĠĠĠĠĠĠĠĠĠĠĠĠĠĠĠĠĠĠĠĠĠĠĠĠĠĠĠĠĠĠĠĠĠĠĠĠ": 5287,
      "DCT": 5288,
      "au": 5289,
      "ĠUTF": 5290,
      "NORM": 5291,
      "COD": 5292,
      "Ġmutex": 5293,
      "ĠOpenSSL": 5294,
      "Ġenabled": 5295,
      "(&(": 5296,
      "imal": 5297,
      "COND": 5298,
      "Last": 5299,
      "acl": 5300,
      "matrix": 5301,
      "127": 5302,
      "bn": 5303,
      "UMP": 5304,
      "BUSY": 5305,
      "mx": 5306,
      "ACCESS": 5307,
      "tdb": 5308,
      "tribut": 5309,
      "Ġsetting": 5310,
      "Ġcontents": 5311,
      "rf": 5312,
      "stdout": 5313,
      "227": 5314,
      "Ġdomain": 5315,
      "Ġextract": 5316,
      "ĠFUN": 5317,
      "ric": 5318,
      "mpi": 5319,
      "xffffffff": 5320,
      "Ġcaller": 5321,
      "[%": 5322,
      "uns": 5323,
      ".\");\\": 5324,
      "cert": 5325,
      "Ġexcept": 5326,
      "rw": 5327,
      "fra": 5328,
      "-+-+-+-+": 5329,
      "ĠALL": 5330,
      "ProcAddress": 5331,
      "ĠMem": 5332,
      "199": 5333,
      "Ġreferenced": 5334,
      "Ġ),\\": 5335,
      "ĠFAIL": 5336,
      "Tree": 5337,
      "EXPR": 5338,
      "Ġsegment": 5339,
      "AE": 5340,
      "unknown": 5341,
      "Method": 5342,
      "104": 5343,
      "shared": 5344,
      "***\\": 5345,
      "Ġast": 5346,
      "ĠOther": 5347,
      "respon": 5348,
      "lk": 5349,
      "nse": 5350,
      "ĠĠĠĠĠĠĠĠĠĠĠĠĠĠĠĠĠĠĠĠĠĠĠĠĠĠĠĠĠĠĠĠĠĠĠĠĠ": 5351,
      "offsets": 5352,
      "nn": 5353,
      "Ġresource": 5354,
      "attrs": 5355,
      "ĠOTHERWISE": 5356,
      "MPTY": 5357,
      "ctr": 5358,
      "ys": 5359,
      "hing": 5360,
      "Desc": 5361,
      "Ġtak": 5362,
      "rpc": 5363,
      "ĠAM": 5364,
      "clip": 5365,
      "UI": 5366,
      "ROW": 5367,
      "Ġuses": 5368,
      "samples": 5369,
      "river": 5370,
      "safe": 5371,
      "Ġ35": 5372,
      "ri": 5373,
      "XP": 5374,
      "Ġoriginal": 5375,
      "*/=/*": 5376,
      "Ġsimple": 5377,
      "ulong": 5378,
      "Ġencoding": 5379,
      "ging": 5380,
      "inf": 5381,
      "Scan": 5382,
      "Ġ34": 5383,
      "TIMEOUT": 5384,
      "Ġsvn": 5385,
      "xfs": 5386,
      "Ġnecessary": 5387,
      "ĠTORT": 5388,
      "icient": 5389,
      "sptr": 5390,
      "Ġapplication": 5391,
      "Ġ33": 5392,
      "ĠSPECIAL": 5393,
      "Ġrepresent": 5394,
      "Ġmb": 5395,
      "CLO": 5396,
      "ATURE": 5397,
      "aux": 5398,
      "termin": 5399,
      "Ġmpi": 5400,
      "zone": 5401,
      "lper": 5402,
      "tact": 5403,
      "ĠName": 5404,
      "Ġms": 5405,
      "amma": 5406,
      "umns": 5407,
      "LT": 5408,
      "INCREF": 5409,
      "istr": 5410,
      "mail": 5411,
      "102": 5412,
      "texture": 5413,
      "Ġmet": 5414,
      "VIDEO": 5415,
      "ung": 5416,
      "yg": 5417,
      "nf": 5418,
      "SEQUENTIAL": 5419,
      "108": 5420,
      "Ġnr": 5421,
      "ĠTODO": 5422,
      "plus": 5423,
      "_(\"": 5424,
      "pixels": 5425,
      "Ġflash": 5426,
      "Process": 5427,
      "dep": 5428,
      "STORE": 5429,
      "Ġ36": 5430,
      "\");": 5431,
      "ERS": 5432,
      "Ġjournal": 5433,
      "View": 5434,
      "bg": 5435,
      "ADDRESS": 5436,
      "Ġyet": 5437,
      "SV": 5438,
      "ĠAUTH": 5439,
      "ponse": 5440,
      "events": 5441,
      "Ġproc": 5442,
      "ndo": 5443,
      "tainer": 5444,
      "GC": 5445,
      "ĠNEG": 5446,
      "ĠHW": 5447,
      "ĠPAGE": 5448,
      "Ġroutines": 5449,
      "switch": 5450,
      "interp": 5451,
      "Ġ80": 5452,
      "Ġboard": 5453,
      "note": 5454,
      "AIN": 5455,
      "Ġwpa": 5456,
      "Ġblk": 5457,
      "hr": 5458,
      "ĠEFI": 5459,
      "rece": 5460,
      "perties": 5461,
      "CNT": 5462,
      "settings": 5463,
      "Exten": 5464,
      "Del": 5465,
      "INET": 5466,
      "Ġssize": 5467,
      "ĠBu": 5468,
      "Ġack": 5469,
      "Ġallocation": 5470,
      "ĠSEC": 5471,
      "SETTING": 5472,
      "Ġregs": 5473,
      "UEST": 5474,
      "xt": 5475,
      "{\"\\": 5476,
      "tected": 5477,
      "Ġcreated": 5478,
      "member": 5479,
      "izes": 5480,
      "ĠTo": 5481,
      "Ġadded": 5482,
      "errors": 5483,
      "tDBG": 5484,
      "va": 5485,
      "Ġarea": 5486,
      "Ġ132": 5487,
      "EVER": 5488,
      "ĠNot": 5489,
      "152": 5490,
      "Sign": 5491,
      "LED": 5492,
      "Ġ);": 5493,
      "Ġsim": 5494,
      "Ġsmb": 5495,
      "edge": 5496,
      "ĠBU": 5497,
      "Ġfall": 5498,
      "udp": 5499,
      "INTERNAL": 5500,
      "DED": 5501,
      "ĠThere": 5502,
      "Ġpkt": 5503,
      "Ġtvb": 5504,
      "Ġapr": 5505,
      "Column": 5506,
      "132": 5507,
      "gorithm": 5508,
      "VALID": 5509,
      ">\\\\": 5510,
      "ACPI": 5511,
      "Ġgchar": 5512,
      "STATIC": 5513,
      "Ġix": 5514,
      "STK": 5515,
      "204": 5516,
      "Reader": 5517,
      "SPI": 5518,
      "Parameter": 5519,
      "OUTPUT": 5520,
      "HIGH": 5521,
      "Ġduring": 5522,
      "UID": 5523,
      "Params": 5524,
      "Seg": 5525,
      "fv": 5526,
      "gid": 5527,
      "*)\"": 5528,
      "Ġpid": 5529,
      "Flag": 5530,
      "izer": 5531,
      "ĠPHY": 5532,
      "Ġnb": 5533,
      "Ġpresent": 5534,
      "elif": 5535,
      "LOBAL": 5536,
      "Ġtables": 5537,
      "&&": 5538,
      "Ġdelay": 5539,
      "ĠUART": 5540,
      "Ġloc": 5541,
      "Ġmany": 5542,
      "Display": 5543,
      "iph": 5544,
      "Ġanother": 5545,
      "Ġerrors": 5546,
      "icro": 5547,
      "expression": 5548,
      "Ġbegin": 5549,
      "ĠCMD": 5550,
      "=-": 5551,
      "crc": 5552,
      "230": 5553,
      "UART": 5554,
      "ĠGO": 5555,
      "390": 5556,
      "232": 5557,
      "105": 5558,
      "uart": 5559,
      "ĠDO": 5560,
      "tretval": 5561,
      "ĠĠĠĠĠĠĠĠĠĠĠĠĠĠĠĠĠĠĠĠĠĠĠĠĠĠĠĠĠĠĠĠĠĠĠĠĠĠ": 5562,
      "ĠINDIRECT": 5563,
      "GetProcAddress": 5564,
      "Draw": 5565,
      "Ġcalls": 5566,
      "ĠBIT": 5567,
      "ĠRA": 5568,
      "ĠMNG": 5569,
      "ĠUse": 5570,
      "overflow": 5571,
      "atter": 5572,
      "ĠStr": 5573,
      "359": 5574,
      "pear": 5575,
      "Ġpin": 5576,
      "Ġts": 5577,
      "Ġpm": 5578,
      "lic": 5579,
      "LP": 5580,
      "STD": 5581,
      "Ġpj": 5582,
      "VEND": 5583,
      "cam": 5584,
      "ĠPointer": 5585,
      "nE": 5586,
      "istory": 5587,
      "Ġsort": 5588,
      "Ġincludes": 5589,
      "160": 5590,
      "Ġtcp": 5591,
      ",__": 5592,
      "ILD": 5593,
      "agma": 5594,
      "221": 5595,
      "IDE": 5596,
      "ĠBN": 5597,
      "ources": 5598,
      "222": 5599,
      "Client": 5600,
      "RIPTION": 5601,
      "Ġsuccessful": 5602,
      "Ġnl": 5603,
      "/\\'": 5604,
      "Ġaxis": 5605,
      "FITS": 5606,
      "FIFO": 5607,
      "mpt": 5608,
      "LF": 5609,
      "Ġdesc": 5610,
      "ĠPOS": 5611,
      "Ġbest": 5612,
      "Ġparams": 5613,
      "Ġderived": 5614,
      "Ġmaximum": 5615,
      "rrc": 5616,
      "STIT": 5617,
      "INTEGER": 5618,
      "COMMAND": 5619,
      "NI": 5620,
      "Width": 5621,
      "fh": 5622,
      "pts": 5623,
      "248": 5624,
      "cluding": 5625,
      "unregister": 5626,
      "Ġgu": 5627,
      "convert": 5628,
      "Ġlocation": 5629,
      "twrit": 5630,
      "async": 5631,
      "ĠDIRECT": 5632,
      "231": 5633,
      "mtd": 5634,
      "Ġ\"\",": 5635,
      "REGISTER": 5636,
      "tput": 5637,
      "ĠCONSEQUENTIAL": 5638,
      "Ġic": 5639,
      "Ġpermitted": 5640,
      "Ġunit": 5641,
      "GS": 5642,
      "DIV": 5643,
      "toffset": 5644,
      "Exp": 5645,
      "ĠFIXME": 5646,
      "Release": 5647,
      "ĠTrue": 5648,
      "STITUTE": 5649,
      "xaf": 5650,
      "Ġreport": 5651,
      "Ġfts": 5652,
      "protocol": 5653,
      "Ġregion": 5654,
      "strict": 5655,
      "ĠStatus": 5656,
      "cv": 5657,
      "lower": 5658,
      "Ġ*=": 5659,
      "MR": 5660,
      "lap": 5661,
      "Close": 5662,
      "Ġencode": 5663,
      "tick": 5664,
      "iface": 5665,
      "Ġib": 5666,
      "let": 5667,
      "CY": 5668,
      "ĠPyTuple": 5669,
      "tadd": 5670,
      "Ġinterrupts": 5671,
      "ched": 5672,
      "Ġdump": 5673,
      "ants": 5674,
      "written": 5675,
      "0100": 5676,
      "IVER": 5677,
      "ĠPROC": 5678,
      "Ġdefinit": 5679,
      "Ġscal": 5680,
      "zz": 5681,
      "ĠPROFITS": 5682,
      "Ġsnprintf": 5683,
      "FLASH": 5684,
      "Ġraw": 5685,
      "ĠLOSS": 5686,
      "002": 5687,
      "(!__": 5688,
      "ĠRESERVED": 5689,
      ")\",\\": 5690,
      "transfer": 5691,
      "Ġsem": 5692,
      "Ġcurrently": 5693,
      "ITION": 5694,
      "Ġcomplete": 5695,
      "VOL": 5696,
      "fff": 5697,
      "4000": 5698,
      "BSD": 5699,
      "Bits": 5700,
      "FILTER": 5701,
      "Not": 5702,
      "Ġeth": 5703,
      "samp": 5704,
      "mf": 5705,
      "ged": 5706,
      "If": 5707,
      "pPager": 5708,
      "tile": 5709,
      "UA": 5710,
      "MAIN": 5711,
      "Rel": 5712,
      "simple": 5713,
      "reader": 5714,
      "Ġtypes": 5715,
      "Ġspeed": 5716,
      "Loc": 5717,
      "Ġmost": 5718,
      "ĠDef": 5719,
      "hell": 5720,
      "WIDTH": 5721,
      "ĠAd": 5722,
      "177": 5723,
      "strncmp": 5724,
      "cost": 5725,
      "ĠOK": 5726,
      "warn": 5727,
      "compat": 5728,
      "words": 5729,
      "__\\": 5730,
      "WINDOW": 5731,
      "tH": 5732,
      "Ġdid": 5733,
      "texit": 5734,
      "ives": 5735,
      "FIN": 5736,
      "ĠSh": 5737,
      "GENCE": 5738,
      "Gener": 5739,
      "Ġforms": 5740,
      "krb": 5741,
      "Ġhandl": 5742,
      "LIGENCE": 5743,
      "Callback": 5744,
      "Version": 5745,
      "ĠOp": 5746,
      "ATOR": 5747,
      "fre": 5748,
      "*)(/*": 5749,
      "emit": 5750,
      "Ġrule": 5751,
      "Ġdestination": 5752,
      "Ġcurr": 5753,
      "tsp": 5754,
      "ĠNEGLIGENCE": 5755,
      "day": 5756,
      "xac": 5757,
      "/************************************************************************": 5758,
      "AUTO": 5759,
      "Queue": 5760,
      "FFFFFFFFuLL": 5761,
      "ere": 5762,
      "202": 5763,
      "SIC": 5764,
      "irqsave": 5765,
      "ĠSPI": 5766,
      "dialog": 5767,
      "WOR": 5768,
      "plit": 5769,
      "Ġnothing": 5770,
      "ĠSERVICE": 5771,
      "ĠRegister": 5772,
      "Ġ::=": 5773,
      "tBIO": 5774,
      "license": 5775,
      "Space": 5776,
      "TV": 5777,
      "Ġtm": 5778,
      "urpose": 5779,
      "prec": 5780,
      "Ġut": 5781,
      "Action": 5782,
      "LOT": 5783,
      "BOOL": 5784,
      "GOTREF": 5785,
      "ONT": 5786,
      "openssl": 5787,
      "Ġplace": 5788,
      "TOK": 5789,
      "115": 5790,
      "Ġ*/,\\": 5791,
      "Ġtrace": 5792,
      "heap": 5793,
      "oll": 5794,
      "Ġstrcmp": 5795,
      "ĠConfig": 5796,
      "RENT": 5797,
      "ipv": 5798,
      "AAAA": 5799,
      "tdebug": 5800,
      "ĠTIFF": 5801,
      "EB": 5802,
      "Ġ37": 5803,
      "feature": 5804,
      "VENDOR": 5805,
      "Ġtrack": 5806,
      "Ġglyph": 5807,
      "Ġvm": 5808,
      "ĠTRACE": 5809,
      "REQUEST": 5810,
      "volume": 5811,
      "lots": 5812,
      "Ġavio": 5813,
      "!!": 5814,
      "DISABLE": 5815,
      "Ġstrcpy": 5816,
      "ĠCur": 5817,
      "Ġsent": 5818,
      "ws": 5819,
      "/%": 5820,
      "ĠSUCH": 5821,
      "ĠOr": 5822,
      "Ġfont": 5823,
      "147": 5824,
      "LIMIT": 5825,
      "ately": 5826,
      "iov": 5827,
      "386": 5828,
      "goto": 5829,
      "ĠFind": 5830,
      "Ġmultiply": 5831,
      "Ġcontroller": 5832,
      "Ġdrm": 5833,
      "tast": 5834,
      "And": 5835,
      "fetch": 5836,
      "STOP": 5837,
      "DOUBLE": 5838,
      "212": 5839,
      "226": 5840,
      "unmap": 5841,
      "Timer": 5842,
      "Ġchain": 5843,
      "targ": 5844,
      "SIBILITY": 5845,
      "softc": 5846,
      "alg": 5847,
      "Ġonce": 5848,
      "Ġrequested": 5849,
      "Ġ\\\\\"%": 5850,
      "uni": 5851,
      "title": 5852,
      "tE": 5853,
      "Ġabs": 5854,
      "DY": 5855,
      "360": 5856,
      "384": 5857,
      "gain": 5858,
      "Ġdp": 5859,
      "Ġbitmap": 5860,
      "Ġactually": 5861,
      "Ġrv": 5862,
      "Ġterm": 5863,
      "Ġdes": 5864,
      "Rate": 5865,
      "Ġscale": 5866,
      "hl": 5867,
      "Ġpending": 5868,
      "ĠStart": 5869,
      "Ġprotocol": 5870,
      "180": 5871,
      "Hdr": 5872,
      "icast": 5873,
      "kind": 5874,
      "Ġavctx": 5875,
      "pBt": 5876,
      "sq": 5877,
      "Ġround": 5878,
      "tsprintf": 5879,
      "Ġpattern": 5880,
      "Ġpy": 5881,
      "abuf": 5882,
      "10000": 5883,
      "oo": 5884,
      "??": 5885,
      "Can": 5886,
      "ges": 5887,
      "234": 5888,
      "Ġomap": 5889,
      "ĠIX": 5890,
      "MAJ": 5891,
      "dk": 5892,
      "SELECT": 5893,
      "chars": 5894,
      "INTR": 5895,
      "Ġ63": 5896,
      "force": 5897,
      "ĠCC": 5898,
      "finish": 5899,
      "compare": 5900,
      "iterator": 5901,
      "vars": 5902,
      "ĠFI": 5903,
      "intf": 5904,
      "nic": 5905,
      "Send": 5906,
      "Register": 5907,
      "xad": 5908,
      "ground": 5909,
      "Ġ129": 5910,
      "MPI": 5911,
      "Os": 5912,
      "iteral": 5913,
      ".%": 5914,
      "LK": 5915,
      "xcf": 5916,
      "fname": 5917,
      "ncpy": 5918,
      "Ġvia": 5919,
      "().\\": 5920,
      "CONTEXT": 5921,
      "Ġcore": 5922,
      "Ġ46": 5923,
      "VERT": 5924,
      "policy": 5925,
      "component": 5926,
      "ĠComm": 5927,
      "UC": 5928,
      "imary": 5929,
      "HD": 5930,
      "RAM": 5931,
      "wpa": 5932,
      "magic": 5933,
      "Trace": 5934,
      "Ġns": 5935,
      "Ġlines": 5936,
      "Ġdisk": 5937,
      "iffies": 5938,
      "ialized": 5939,
      "Req": 5940,
      "ĠPlace": 5941,
      "Ġscreen": 5942,
      "Dest": 5943,
      "ĠTARGET": 5944,
      "Ġmodel": 5945,
      "ifs": 5946,
      "tex": 5947,
      "Ġhal": 5948,
      "Ġdraw": 5949,
      "As": 5950,
      "twritel": 5951,
      "ieee": 5952,
      "FAILED": 5953,
      "Ġwho": 5954,
      "ĠRedistribution": 5955,
      "Tag": 5956,
      "Ġ99": 5957,
      "Ġ330": 5958,
      "descriptor": 5959,
      "Ġcomponent": 5960,
      "IOC": 5961,
      "lt": 5962,
      "Ġrad": 5963,
      "Ġclk": 5964,
      "light": 5965,
      "Stack": 5966,
      "Ġmapping": 5967,
      "xde": 5968,
      "206": 5969,
      "RUN": 5970,
      "PG": 5971,
      "scrib": 5972,
      "}[$": 5973,
      "ĠOtherwise": 5974,
      "iop": 5975,
      "Ġvirtual": 5976,
      "Response": 5977,
      "xab": 5978,
      "IZ": 5979,
      "VEC": 5980,
      "tptr": 5981,
      "ulator": 5982,
      "ĠNow": 5983,
      "Record": 5984,
      "************************************************": 5985,
      "tadata": 5986,
      "qui": 5987,
      "Reset": 5988,
      "BLK": 5989,
      "ĠLOG": 5990,
      "need": 5991,
      "215": 5992,
      "nu": 5993,
      "resume": 5994,
      "Ġfinal": 5995,
      "criptor": 5996,
      "();": 5997,
      "vf": 5998,
      "single": 5999,
      "Spec": 6000,
      "plan": 6001,
      "1307": 6002,
      "ITCH": 6003,
      "ĠFile": 6004,
      "ĠAPI": 6005,
      "payload": 6006,
      "ABS": 6007,
      "ness": 6008,
      "Ġii": 6009,
      "Btree": 6010,
      "Ġqemu": 6011,
      "207": 6012,
      "Ġreason": 6013,
      "MAJOR": 6014,
      "ĠDescription": 6015,
      "Ġsigned": 6016,
      "TON": 6017,
      "Ġactual": 6018,
      "Ġld": 6019,
      "ĠFS": 6020,
      "multiply": 6021,
      "contents": 6022,
      "ĠFROM": 6023,
      "pub": 6024,
      "Ġelements": 6025,
      "oice": 6026,
      "ĠPT": 6027,
      "ustom": 6028,
      "UV": 6029,
      "allow": 6030,
      "ifier": 6031,
      "ĠpParse": 6032,
      "ENV": 6033,
      "lash": 6034,
      "Ġeffect": 6035,
      "Ġadapter": 6036,
      "BT": 6037,
      "Ġ>>=": 6038,
      "Ġvp": 6039,
      "DATE": 6040,
      "itive": 6041,
      "encoder": 6042,
      "Ġlookup": 6043,
      "Stmt": 6044,
      "Ġiden": 6045,
      "drvdata": 6046,
      "ĠFalse": 6047,
      "resses": 6048,
      "Load": 6049,
      "Ġwere": 6050,
      "Ġcs": 6051,
      "flate": 6052,
      "Oper": 6053,
      "ĠSuite": 6054,
      "password": 6055,
      "Ġ2000": 6056,
      "Ġcause": 6057,
      "Ġtheir": 6058,
      "verify": 6059,
      "ĠCall": 6060,
      "Ġbuff": 6061,
      "Ġsimp": 6062,
      "tic": 6063,
      "BIG": 6064,
      "BEGIN": 6065,
      "Ġwriting": 6066,
      "Ġmv": 6067,
      "ĠNUM": 6068,
      "layout": 6069,
      "NORMAL": 6070,
      "quot": 6071,
      "stems": 6072,
      "Ġrepro": 6073,
      "tat": 6074,
      "700": 6075,
      ")/*:": 6076,
      "Ġsaved": 6077,
      "ĠPO": 6078,
      "Ġ[%": 6079,
      "Ġboot": 6080,
      "MULTI": 6081,
      "6000": 6082,
      "\",-": 6083,
      "interval": 6084,
      "xce": 6085,
      "Ġserial": 6086,
      "UREMENT": 6087,
      "ĠSIZE": 6088,
      "Ġappear": 6089,
      "\",\"": 6090,
      "Ġapp": 6091,
      "===\\": 6092,
      "Ġflush": 6093,
      "Ġnegative": 6094,
      "ssages": 6095,
      "\\'\\'": 6096,
      "ured": 6097,
      "Ġreading": 6098,
      "sess": 6099,
      "ĠEXT": 6100,
      "lxml": 6101,
      "pV": 6102,
      "Ġchanges": 6103,
      "fast": 6104,
      "kip": 6105,
      "Ġarchive": 6106,
      "bridge": 6107,
      "Ġbig": 6108,
      "ĠGOOD": 6109,
      "SZ": 6110,
      "gs": 6111,
      "ĠWORD": 6112,
      "ĠMD": 6113,
      "pll": 6114,
      "ĠPTR": 6115,
      "XT": 6116,
      "ctype": 6117,
      "Ġpeer": 6118,
      "ĠMV": 6119,
      "ĠPJ": 6120,
      "RN": 6121,
      "MAGIC": 6122,
      "meta": 6123,
      "EW": 6124,
      "ĠCopy": 6125,
      "ĠAllocate": 6126,
      "HAL": 6127,
      "201": 6128,
      "help": 6129,
      "tcl": 6130,
      "Ġservice": 6131,
      "ĠOPENSSL": 6132,
      "Ġdup": 6133,
      "Internal": 6134,
      "ACC": 6135,
      "proxy": 6136,
      "DRAM": 6137,
      "Ġcorrespon": 6138,
      "Find": 6139,
      "ulate": 6140,
      "mer": 6141,
      "ĠLOC": 6142,
      "tnum": 6143,
      "JO": 6144,
      "ĠpTab": 6145,
      "xdb": 6146,
      "sfmt": 6147,
      "VdbeAdd": 6148,
      "ĠxmlChar": 6149,
      "template": 6150,
      "thon": 6151,
      "substream": 6152,
      "inet": 6153,
      "ulk": 6154,
      "Ġ45": 6155,
      "ĠExpr": 6156,
      "dentry": 6157,
      "236": 6158,
      "period": 6159,
      "cookie": 6160,
      "MLS": 6161,
      "InitStruct": 6162,
      "ĠSTRICT": 6163,
      "attach": 6164,
      "RESP": 6165,
      "ĠIB": 6166,
      "xae": 6167,
      "vr": 6168,
      "ather": 6169,
      "BOX": 6170,
      "vfs": 6171,
      "Ġpointers": 6172,
      "hex": 6173,
      "Ġcons": 6174,
      "CONNECT": 6175,
      "Ġreally": 6176,
      "rdev": 6177,
      "/*------------------------------------------------------------------------": 6178,
      "CODEC": 6179,
      "divide": 6180,
      "route": 6181,
      "ĠGC": 6182,
      "Service": 6183,
      "STA": 6184,
      "gt": 6185,
      "Ġins": 6186,
      "Ġequal": 6187,
      "ĠĠĠĠĠĠĠĠĠĠĠĠĠĠĠĠĠĠĠĠĠĠĠĠĠĠĠĠĠĠĠĠĠĠĠĠĠĠĠĠĠ": 6188,
      "ĠMod": 6189,
      "pW": 6190,
      "Act": 6191,
      "hcd": 6192,
      "Ġdeterm": 6193,
      "ĠLIB": 6194,
      "ĠARE": 6195,
      "Min": 6196,
      "ĠOS": 6197,
      "Ġmid": 6198,
      "dynamic": 6199,
      "IMED": 6200,
      "alias": 6201,
      "hid": 6202,
      "VdbeAddOp": 6203,
      "IPHER": 6204,
      "Default": 6205,
      "QUI": 6206,
      "rtl": 6207,
      "Ġ**)": 6208,
      "FULL": 6209,
      "Enc": 6210,
      "ctet": 6211,
      "network": 6212,
      "taddr": 6213,
      "IDX": 6214,
      "Ġ\\'/\\'": 6215,
      "Ġjob": 6216,
      "Ġexception": 6217,
      "203": 6218,
      "por": 6219,
      "ius": 6220,
      "ĠETH": 6221,
      "ĠEVEN": 6222,
      "pybuffer": 6223,
      "YPTO": 6224,
      "OLE": 6225,
      "spf": 6226,
      "REGS": 6227,
      "pdata": 6228,
      "ĠTHEORY": 6229,
      "tered": 6230,
      "244": 6231,
      "CLEAR": 6232,
      "eap": 6233,
      "encrypt": 6234,
      "tusb": 6235,
      "dx": 6236,
      "Ġ(*(": 6237,
      "MBER": 6238,
      "ĠINTERRUP": 6239,
      "EIO": 6240,
      "VISED": 6241,
      "dummy": 6242,
      "rand": 6243,
      "ĠGTK": 6244,
      "profile": 6245,
      "Ġra": 6246,
      "Uint": 6247,
      "Ġadjust": 6248,
      "Ġreproduce": 6249,
      "mmu": 6250,
      "img": 6251,
      "1301": 6252,
      "ateg": 6253,
      "SRMLS": 6254,
      "Ġcopies": 6255,
      "ĠADVISED": 6256,
      "ĠSERVICES": 6257,
      "ATED": 6258,
      "Ġwrap": 6259,
      "Ġfixed": 6260,
      "((\"": 6261,
      "where": 6262,
      "SCAN": 6263,
      "205": 6264,
      "Ġprocessing": 6265,
      "Ġmaster": 6266,
      "reference": 6267,
      "ĠLW": 6268,
      "235": 6269,
      "DIPSETTING": 6270,
      "mediate": 6271,
      "Ġresol": 6272,
      "bank": 6273,
      "nprintf": 6274,
      "2110": 6275,
      "comment": 6276,
      "Ġpad": 6277,
      "Ġupd": 6278,
      "clus": 6279,
      "Ġcfg": 6280,
      "Ġwarning": 6281,
      "Ġov": 6282,
      "CIDENT": 6283,
      "Ġbp": 6284,
      "ĠTT": 6285,
      "ĠPOSSIBILITY": 6286,
      "Ġbuffers": 6287,
      "CIDENTAL": 6288,
      "tlog": 6289,
      "Ġlarge": 6290,
      "sha": 6291,
      "ĠThese": 6292,
      "ece": 6293,
      "ĠGtk": 6294,
      "lb": 6295,
      "ĠEXE": 6296,
      "ctp": 6297,
      "Ġchan": 6298,
      "ĠMS": 6299,
      "casecmp": 6300,
      "IDI": 6301,
      "Range": 6302,
      "ĠINCIDENTAL": 6303,
      "tkey": 6304,
      "dirty": 6305,
      "Clear": 6306,
      "Ctx": 6307,
      "ĠFrank": 6308,
      "nowled": 6309,
      "SES": 6310,
      "GER": 6311,
      "ĠGOODS": 6312,
      "INESS": 6313,
      "ifth": 6314,
      "ĠSe": 6315,
      "214": 6316,
      "Ret": 6317,
      "ĠReset": 6318,
      "ENODEV": 6319,
      "Ġframes": 6320,
      "pData": 6321,
      "ĠPROCUREMENT": 6322,
      "MV": 6323,
      "Ctrl": 6324,
      "aration": 6325,
      "tINVALC": 6326,
      "ĠGIMP": 6327,
      "ĠWAY": 6328,
      "ĠClear": 6329,
      "Ġindic": 6330,
      "Ġstrerror": 6331,
      "Cfg": 6332,
      "ĠSTAT": 6333,
      "ĠPPC": 6334,
      "MON": 6335,
      "SCII": 6336,
      "ĠTemple": 6337,
      "117": 6338,
      "Ġ));\\": 6339,
      "txml": 6340,
      "Ġunknown": 6341,
      "Ġ\"(": 6342,
      "ĠHOWEVER": 6343,
      "())\\": 6344,
      "Query": 6345,
      "opaque": 6346,
      "segment": 6347,
      "Ġpipe": 6348,
      "resources": 6349,
      "ome": 6350,
      "Ġperform": 6351,
      "2111": 6352,
      "Ġ2002": 6353,
      "TIF": 6354,
      "POINTER": 6355,
      "320": 6356,
      "ĠTable": 6357,
      "treq": 6358,
      "246": 6359,
      "ĠCAUSED": 6360,
      "PRI": 6361,
      "gno": 6362,
      "Destroy": 6363,
      "legal": 6364,
      "130": 6365,
      "abort": 6366,
      ")*/\\": 6367,
      "MPLARY": 6368,
      "ĠDBG": 6369,
      "Ġ158": 6370,
      "iant": 6371,
      "PLL": 6372,
      "Back": 6373,
      "REGION": 6374,
      "ession": 6375,
      "260": 6376,
      "ĠNe": 6377,
      "ĠNC": 6378,
      "ĠEXEMPLARY": 6379,
      "ĠPA": 6380,
      "FROM": 6381,
      "Ġ((*": 6382,
      "CLU": 6383,
      "ĠBUSINESS": 6384,
      "RSA": 6385,
      "124": 6386,
      "RR": 6387,
      "Ġfb": 6388,
      "Ġdynamic": 6389,
      "ĠADC": 6390,
      "Ġvolatile": 6391,
      "ĠSUBSTITUTE": 6392,
      "bucket": 6393,
      "ĠPK": 6394,
      "PEND": 6395,
      "validate": 6396,
      "().": 6397,
      "Ġrunning": 6398,
      "FW": 6399,
      "Ġbasic": 6400,
      "tmsg": 6401,
      "xcb": 6402,
      "Malloc": 6403,
      "SiS": 6404,
      "spin": 6405,
      "tms": 6406,
      "xdc": 6407,
      "ĠDISCLAIMED": 6408,
      "adow": 6409,
      "Ġnp": 6410,
      "pA": 6411,
      "tore": 6412,
      "Float": 6413,
      "||": 6414,
      "Right": 6415,
      "nerr": 6416,
      "Ġsamples": 6417,
      "pragma": 6418,
      "Font": 6419,
      "istics": 6420,
      "Met": 6421,
      "253": 6422,
      "kw": 6423,
      "164": 6424,
      "ntry": 6425,
      "ĠHT": 6426,
      "Content": 6427,
      "svc": 6428,
      "ĠProject": 6429,
      "covery": 6430,
      "PACK": 6431,
      "]+": 6432,
      "ERE": 6433,
      "Ġprivate": 6434,
      "ĠHandle": 6435,
      "sound": 6436,
      "accept": 6437,
      "Cap": 6438,
      "Interface": 6439,
      "Ġ02111": 6440,
      "ĠCor": 6441,
      "Ġinv": 6442,
      "srv": 6443,
      "Ġcd": 6444,
      "lush": 6445,
      "Ġdevices": 6446,
      "Io": 6447,
      "Source": 6448,
      "storage": 6449,
      "ĠType": 6450,
      "tskb": 6451,
      "ĠDev": 6452,
      "003": 6453,
      "dyn": 6454,
      "Ġadb": 6455,
      "Ġacpi": 6456,
      "Ġeap": 6457,
      "ks": 6458,
      "arc": 6459,
      ")(-": 6460,
      "Rect": 6461,
      "structure": 6462,
      "acpi": 6463,
      "upper": 6464,
      "book": 6465,
      "242": 6466,
      "ĠINTERRUPTION": 6467,
      "Ġown": 6468,
      "%\\": 6469,
      "ĠFranklin": 6470,
      "DONE": 6471,
      "Ġselected": 6472,
      "orary": 6473,
      "Ġsepar": 6474,
      "endian": 6475,
      "ensions": 6476,
      "MALLOC": 6477,
      "ĠWR": 6478,
      "GINE": 6479,
      "lang": 6480,
      "Ġfn": 6481,
      "DN": 6482,
      "Ġgdb": 6483,
      "xfer": 6484,
      "losure": 6485,
      "Ġstrm": 6486,
      "Ġjump": 6487,
      "Ġalpha": 6488,
      "program": 6489,
      "ibility": 6490,
      "adding": 6491,
      "Ġ54": 6492,
      "Rn": 6493,
      "transform": 6494,
      "urces": 6495,
      "NON": 6496,
      "DELAY": 6497,
      "Return": 6498,
      "ELEM": 6499,
      "Ġnetwork": 6500,
      "anner": 6501,
      "tas": 6502,
      "JIT": 6503,
      "241": 6504,
      "ĠFirst": 6505,
      "Global": 6506,
      "factor": 6507,
      "Ġ44": 6508,
      "Ġ--------------------------------": 6509,
      "Cnt": 6510,
      "Ġpop": 6511,
      "tap": 6512,
      "Ġ\"../": 6513,
      "peat": 6514,
      "INS": 6515,
      "ĠFloor": 6516,
      "915": 6517,
      "EFAULT": 6518,
      "Ġforce": 6519,
      "progress": 6520,
      "Auth": 6521,
      "170": 6522,
      "wb": 6523,
      "----------------------------------------------------------------------": 6524,
      "ĠFifth": 6525,
      "ĠExit": 6526,
      "ble": 6527,
      "Ġless": 6528,
      "ANE": 6529,
      "gnu": 6530,
      "ĠRTC": 6531,
      "]))": 6532,
      "ĠREAD": 6533,
      "Ġenc": 6534,
      "lain": 6535,
      "journal": 6536,
      "Printf": 6537,
      "[\\\\\"": 6538,
      "ernet": 6539,
      "devices": 6540,
      "ym": 6541,
      "QUAL": 6542,
      "ĠTCP": 6543,
      "orld": 6544,
      "fm": 6545,
      "MEDIA": 6546,
      "CALLBACK": 6547,
      "Ġcommon": 6548,
      "ically": 6549,
      "SOR": 6550,
      "Ġtake": 6551,
      "!\\": 6552,
      "CHANGE": 6553,
      "Ġtty": 6554,
      "cy": 6555,
      "Ġmenu": 6556,
      "ĠRem": 6557,
      "Ġ02110": 6558,
      "java": 6559,
      "ĠĠĠĠĠĠĠĠĠĠĠĠĠĠĠĠĠĠĠĠĠĠĠĠĠĠĠĠĠĠĠĠĠĠĠĠĠĠĠĠ": 6560,
      "ILL": 6561,
      "bm": 6562,
      "Ġthose": 6563,
      "ĠGLE": 6564,
      "anted": 6565,
      "Ġpost": 6566,
      "multi": 6567,
      "ĠHFILL": 6568,
      "iomem": 6569,
      "],${": 6570,
      "idle": 6571,
      "QUEUE": 6572,
      "digit": 6573,
      "REEN": 6574,
      "ĠDR": 6575,
      "metr": 6576,
      "faces": 6577,
      "ĠLibrary": 6578,
      "dy": 6579,
      "wind": 6580,
      "237": 6581,
      "Ġhton": 6582,
      "Ġgboolean": 6583,
      "serv": 6584,
      "107": 6585,
      "ofs": 6586,
      "Ġdummy": 6587,
      "ĠTSRMLS": 6588,
      "ock": 6589,
      "riter": 6590,
      "runtime": 6591,
      "Ġlayer": 6592,
      "STER": 6593,
      "Tex": 6594,
      "Coll": 6595,
      "263": 6596,
      "Ġresults": 6597,
      "Ġsector": 6598,
      "crypto": 6599,
      "manager": 6600,
      "ĠPort": 6601,
      "Ġlet": 6602,
      "Ġ**\\": 6603,
      "kill": 6604,
      "004": 6605,
      "verbose": 6606,
      "Ġappropri": 6607,
      "Ġgenerate": 6608,
      "GENER": 6609,
      "tch": 6610,
      "cryp": 6611,
      "mgr": 6612,
      "ĠĠĠĠĠĠĠĠĠĠĠĠĠĠĠĠĠĠĠĠĠĠĠĠĠĠĠĠĠĠĠĠĠĠĠĠĠĠĠĠĠĠĠ": 6613,
      "decoder": 6614,
      "ĠRET": 6615,
      "Ġsched": 6616,
      "BLANK": 6617,
      "ĠCOPYRIGHT": 6618,
      "Ġconstant": 6619,
      "SSAGE": 6620,
      "Ġ``": 6621,
      "106": 6622,
      "Ġmatrix": 6623,
      "lim": 6624,
      "spr": 6625,
      "Ġguint": 6626,
      "Ġ2007": 6627,
      "Ġath": 6628,
      "Ġ?\\": 6629,
      "Ġremote": 6630,
      "ĠVersion": 6631,
      "Ġbox": 6632,
      "ki": 6633,
      "AX": 6634,
      "zalloc": 6635,
      "ĠMT": 6636,
      "EXEC": 6637,
      "Instance": 6638,
      "strings": 6639,
      "Ġprop": 6640,
      "picture": 6641,
      "Ġlower": 6642,
      "vas": 6643,
      "tFLAG": 6644,
      "SCALAR": 6645,
      "JS": 6646,
      "netif": 6647,
      "CAN": 6648,
      "UTEX": 6649,
      "Ġdiff": 6650,
      "Ġoptim": 6651,
      "Change": 6652,
      "FLAC": 6653,
      "ists": 6654,
      "Ġassign": 6655,
      "syn": 6656,
      "fprintf": 6657,
      "Ġallowed": 6658,
      "dot": 6659,
      "ixed": 6660,
      "methods": 6661,
      "ĠNew": 6662,
      "rtc": 6663,
      "msp": 6664,
      "ites": 6665,
      "nan": 6666,
      "ĠGF": 6667,
      "mmc": 6668,
      "zName": 6669,
      "Ġdisabled": 6670,
      "volatile": 6671,
      "GLee": 6672,
      "233": 6673,
      "ĠEND": 6674,
      "Ġnetdev": 6675,
      "ferences": 6676,
      "Ġma": 6677,
      "aml": 6678,
      "?\\": 6679,
      "Ġdele": 6680,
      "TCP": 6681,
      "ĠSNDRV": 6682,
      "Ġ2001": 6683,
      "Ġ\\'-": 6684,
      "Property": 6685,
      "tinit": 6686,
      "scall": 6687,
      "Ġ42": 6688,
      "Ġsuper": 6689,
      "Ġ53": 6690,
      "disp": 6691,
      "otion": 6692,
      "Ġremoved": 6693,
      "SQL": 6694,
      "Ġcompress": 6695,
      "after": 6696,
      "tpos": 6697,
      "Ġscsi": 6698,
      "Ġobjects": 6699,
      "ĠUpdate": 6700,
      "\\'\\": 6701,
      "Ġaxutil": 6702,
      "YPT": 6703,
      "ĠPM": 6704,
      "OVER": 6705,
      "strm": 6706,
      "RW": 6707,
      "ertif": 6708,
      "suspend": 6709,
      "Ġproperty": 6710,
      "LEFT": 6711,
      "._": 6712,
      "PHA": 6713,
      "tsh": 6714,
      "Sample": 6715,
      "wire": 6716,
      "DIM": 6717,
      "Ġcalling": 6718,
      "ĠOutput": 6719,
      "Ġ161": 6720,
      "affs": 6721,
      "reser": 6722,
      "Ġattemp": 6723,
      "children": 6724,
      "slice": 6725,
      "xca": 6726,
      "Ġcompute": 6727,
      "Ġetc": 6728,
      "644": 6729,
      "aced": 6730,
      "243": 6731,
      "MOVE": 6732,
      "Ġ2003": 6733,
      "System": 6734,
      "Ġ57": 6735,
      "Ġrtl": 6736,
      "MG": 6737,
      "ifi": 6738,
      "SERVER": 6739,
      "Power": 6740,
      "INLINE": 6741,
      "tgl": 6742,
      "ably": 6743,
      "Ġwell": 6744,
      "ĠValue": 6745,
      "vision": 6746,
      "Ġturn": 6747,
      "Ġ39": 6748,
      "fds": 6749,
      "ixcore": 6750,
      "cq": 6751,
      "INV": 6752,
      "aud": 6753,
      "bss": 6754,
      "Rx": 6755,
      "ĠFFmpeg": 6756,
      "inv": 6757,
      "ENTER": 6758,
      "tsoft": 6759,
      "ATT": 6760,
      "ĠBIO": 6761,
      "parm": 6762,
      "Ġsync": 6763,
      "Ġpush": 6764,
      "aris": 6765,
      "SIM": 6766,
      "nel": 6767,
      "ĠpExpr": 6768,
      "Ġreply": 6769,
      "ĠInput": 6770,
      "Ġmade": 6771,
      "tification": 6772,
      "Ġcontribut": 6773,
      "140": 6774,
      "structor": 6775,
      "BUT": 6776,
      "xdr": 6777,
      "uted": 6778,
      "allocate": 6779,
      "INED": 6780,
      "CSR": 6781,
      "GLOBAL": 6782,
      "lg": 6783,
      "103": 6784,
      "Ġflow": 6785,
      "134": 6786,
      "Ġinitialized": 6787,
      "eh": 6788,
      "Part": 6789,
      "tstrcpy": 6790,
      "arrier": 6791,
      "unts": 6792,
      "Ġ^=": 6793,
      "Ġ2005": 6794,
      "Menu": 6795,
      "ĠSQLite": 6796,
      "super": 6797,
      "ĠDet": 6798,
      "Ġ2006": 6799,
      "mtab": 6800,
      "xcd": 6801,
      "arp": 6802,
      "commit": 6803,
      "WL": 6804,
      "]),": 6805,
      "Ġ79": 6806,
      "CMP": 6807,
      "Mat": 6808,
      "Ġ52": 6809,
      "Ġproject": 6810,
      "Ġchannels": 6811,
      "infos": 6812,
      "AUDIO": 6813,
      "coff": 6814,
      "Ġsb": 6815,
      "ĠARM": 6816,
      "ĠAuth": 6817,
      "Equal": 6818,
      "Server": 6819,
      "Ġring": 6820,
      "]==": 6821,
      "Ġcx": 6822,
      "Ġaccept": 6823,
      "Ġnfs": 6824,
      "XPath": 6825,
      "istered": 6826,
      "vance": 6827,
      "nit": 6828,
      "257": 6829,
      "CIPHER": 6830,
      "coord": 6831,
      "Local": 6832,
      "__((": 6833,
      "Ġ512": 6834,
      "Pointer": 6835,
      "tained": 6836,
      "EF": 6837,
      "113": 6838,
      "Pol": 6839,
      "Ġcontaining": 6840,
      "PACKET": 6841,
      "ĠIndex": 6842,
      "ffix": 6843,
      "Ġatoi": 6844,
      "ĠCK": 6845,
      "Ġisn": 6846,
      "Ġconversion": 6847,
      "origin": 6848,
      "Ġtc": 6849,
      "Save": 6850,
      "007": 6851,
      "Coord": 6852,
      "memcpy": 6853,
      "ĠPL": 6854,
      "Ġrest": 6855,
      "rcv": 6856,
      "Limit": 6857,
      "ĠExp": 6858,
      "ĠSK": 6859,
      "soap": 6860,
      "mk": 6861,
      "Ġphys": 6862,
      "Ġcompat": 6863,
      "Ġincluded": 6864,
      "tbuffer": 6865,
      "STEM": 6866,
      "sim": 6867,
      "EAP": 6868,
      "Dict": 6869,
      "Audio": 6870,
      "ĠParse": 6871,
      "ĠSize": 6872,
      "tRT": 6873,
      "olume": 6874,
      "Ġside": 6875,
      "All": 6876,
      "150": 6877,
      "tprint": 6878,
      "TEMP": 6879,
      "priority": 6880,
      "327": 6881,
      "grp": 6882,
      "Ġarch": 6883,
      ":;\\": 6884,
      "Ġgpio": 6885,
      "SCSI": 6886,
      "Ġpublic": 6887,
      "split": 6888,
      "Ġ%\\": 6889,
      "Ġ97": 6890,
      "lass": 6891,
      "cryptsoft": 6892,
      "++;": 6893,
      "backend": 6894,
      "Ġ47": 6895,
      "Ġcases": 6896,
      "Ġexists": 6897,
      "Ġatom": 6898,
      "slow": 6899,
      "tBUG": 6900,
      "isc": 6901,
      "Dat": 6902,
      "jump": 6903,
      "Ġreceive": 6904,
      "vi": 6905,
      "wap": 6906,
      "*);\\": 6907,
      "front": 6908,
      "ADC": 6909,
      "Ġpackets": 6910,
      "Ġft": 6911,
      "gd": 6912,
      "Ġ229": 6913,
      "ĠpPager": 6914,
      "Ġ=>": 6915,
      "ĠPyErr": 6916,
      "Ġusage": 6917,
      "ORDER": 6918,
      "--)": 6919,
      "REV": 6920,
      "Ġds": 6921,
      "BYTES": 6922,
      "initialize": 6923,
      "emon": 6924,
      "Up": 6925,
      "roma": 6926,
      "ULONG": 6927,
      "iron": 6928,
      "rn": 6929,
      "Entity": 6930,
      "Ġwp": 6931,
      "valu": 6932,
      "Ġmak": 6933,
      "=\"": 6934,
      "dog": 6935,
      "ording": 6936,
      "ĠMASK": 6937,
      "SEND": 6938,
      "xda": 6939,
      "vendor": 6940,
      "SCALE": 6941,
      "{(": 6942,
      "ification": 6943,
      "pthread": 6944,
      "144": 6945,
      "Child": 6946,
      "Sync": 6947,
      "Domain": 6948,
      "ens": 6949,
      "048": 6950,
      "pCtx": 6951,
      "tlong": 6952,
      "Ġ2010": 6953,
      "Attrib": 6954,
      "Ġexternal": 6955,
      "ĠADD": 6956,
      "tvalue": 6957,
      "ĠRC": 6958,
      "GLO": 6959,
      "UNLOCK": 6960,
      "random": 6961,
      "########": 6962,
      "Ġbind": 6963,
      "tPH": 6964,
      "ENABLED": 6965,
      "snprintf": 6966,
      "atio": 6967,
      "inity": 6968,
      "locked": 6969,
      "ĠEric": 6970,
      "IFY": 6971,
      "JUMP": 6972,
      "saved": 6973,
      "Ġcmp": 6974,
      "movq": 6975,
      "ĠpW": 6976,
      "Ġ87": 6977,
      "Ġ2008": 6978,
      "Ġstarting": 6979,
      "Ġscr": 6980,
      "Ġview": 6981,
      "glewGetProcAddress": 6982,
      "ENUM": 6983,
      "Ġnodes": 6984,
      "LOOP": 6985,
      "Ġevents": 6986,
      "Ġ38": 6987,
      "Ġoc": 6988,
      "Ġnd": 6989,
      "CLIENT": 6990,
      "eck": 6991,
      "aaaa": 6992,
      "blue": 6993,
      "ĠLD": 6994,
      "FEATURE": 6995,
      "props": 6996,
      "ĠPROP": 6997,
      "attributes": 6998,
      "SCR": 6999,
      "==\\": 7000,
      "ERY": 7001,
      "ceed": 7002,
      "Ġvan": 7003,
      "istent": 7004,
      "wp": 7005,
      "expand": 7006,
      "charset": 7007,
      "DES": 7008,
      "Ġexample": 7009,
      "Ġ231": 7010,
      "DAT": 7011,
      "Ġ\\'.": 7012,
      "Ġsets": 7013,
      "xBF": 7014,
      "home": 7015,
      "ĠBT": 7016,
      "Ġ\"<": 7017,
      "acity": 7018,
      "prog": 7019,
      "*/)),": 7020,
      "WORK": 7021,
      "drive": 7022,
      "Ġ65": 7023,
      "251": 7024,
      "erride": 7025,
      "NUMBER": 7026,
      "green": 7027,
      "udo": 7028,
      "Ġui": 7029,
      "ĠSend": 7030,
      "Ġpers": 7031,
      "hold": 7032,
      "Ġ*((": 7033,
      "PAD": 7034,
      "conv": 7035,
      "unused": 7036,
      "PKEY": 7037,
      "Short": 7038,
      "Ass": 7039,
      "Ġhandling": 7040,
      "GF": 7041,
      "Ġauthor": 7042,
      "watch": 7043,
      "ĠSE": 7044,
      "aligned": 7045,
      "Ġdistribute": 7046,
      "Ġ2004": 7047,
      "memcmp": 7048,
      "Report": 7049,
      "sensor": 7050,
      "NL": 7051,
      "Ġupper": 7052,
      "standard": 7053,
      "ĠBit": 7054,
      "Ġvolume": 7055,
      "Ġattributes": 7056,
      "HCI": 7057,
      "Ġstrings": 7058,
      "SHORT": 7059,
      "GRAM": 7060,
      "eeprom": 7061,
      "Ġ(_(\"": 7062,
      "tcount": 7063,
      "Height": 7064,
      "weak": 7065,
      "nil": 7066,
      "ĠSMB": 7067,
      "Ext": 7068,
      "Ġsymbols": 7069,
      "Ġobtain": 7070,
      "FIRST": 7071,
      "ĠAss": 7072,
      "ĠTrans": 7073,
      "Vector": 7074,
      "PPC": 7075,
      "Ġclause": 7076,
      "Program": 7077,
      "iction": 7078,
      "plugin": 7079,
      "++);\\": 7080,
      "Ġmodified": 7081,
      "ĠLoc": 7082,
      "entity": 7083,
      "FORM": 7084,
      "ze": 7085,
      "Ġtab": 7086,
      "Exception": 7087,
      "ĠAP": 7088,
      "tmax": 7089,
      "nump": 7090,
      "tection": 7091,
      "Ġanything": 7092,
      "Win": 7093,
      "bat": 7094,
      "012": 7095,
      "ssi": 7096,
      "tevent": 7097,
      "ĠMode": 7098,
      "First": 7099,
      "RTC": 7100,
      "Ġacknowled": 7101,
      "radio": 7102,
      "SIX": 7103,
      "ĠpB": 7104,
      "supported": 7105,
      "oung": 7106,
      "XDECREF": 7107,
      "145": 7108,
      "Ġrpc": 7109,
      "PDF": 7110,
      "ĠWindow": 7111,
      "ĠDisable": 7112,
      "Ġ77": 7113,
      "FFFFFF": 7114,
      "Ġplay": 7115,
      "Ġ49": 7116,
      "prepare": 7117,
      "tbool": 7118,
      ",(\"": 7119,
      "ngx": 7120,
      "nPFNGL": 7121,
      "Ġcrc": 7122,
      "Ġcodec": 7123,
      "ĠDon": 7124,
      "seudo": 7125,
      "features": 7126,
      "ĠIPT": 7127,
      "146": 7128,
      "adap": 7129,
      "ĠOPT": 7130,
      "Ġcondition": 7131,
      "shutdown": 7132,
      "html": 7133,
      "*************************************************************************/\\": 7134,
      "168": 7135,
      "OpenSSL": 7136,
      "Ġ43": 7137,
      "pred": 7138,
      "nxml": 7139,
      "eep": 7140,
      "depen": 7141,
      "Ġ{(": 7142,
      "Ġnor": 7143,
      "Ġnto": 7144,
      "Ġappropriate": 7145,
      "unist": 7146,
      "ĠFRAME": 7147,
      "cent": 7148,
      "ilities": 7149,
      "BUTTON": 7150,
      "ĠMax": 7151,
      "nP": 7152,
      "136": 7153,
      "Multi": 7154,
      "Ġasn": 7155,
      "pat": 7156,
      "ĠNet": 7157,
      "Slot": 7158,
      "ĠNGX": 7159,
      "controller": 7160,
      "tgtk": 7161,
      "ĠNOTE": 7162,
      "vl": 7163,
      "Wait": 7164,
      "Man": 7165,
      "tudelay": 7166,
      "nL": 7167,
      "px": 7168,
      "Ġband": 7169,
      "---": 7170,
      "HZ": 7171,
      "cover": 7172,
      "ry": 7173,
      "mu": 7174,
      "tSET": 7175,
      "Ġsomething": 7176,
      "helper": 7177,
      "SEQ": 7178,
      "Ġproper": 7179,
      "Ġdw": 7180,
      "Ġwrong": 7181,
      "cu": 7182,
      "transport": 7183,
      "Ġlarg": 7184,
      "ĠEVP": 7185,
      "Ġpair": 7186,
      "NR": 7187,
      "EEK": 7188,
      "Ġtrigger": 7189,
      "270": 7190,
      "Ġpixels": 7191,
      "ĠDW": 7192,
      "Ġclean": 7193,
      "UNIT": 7194,
      "DH": 7195,
      "899": 7196,
      "Ġsi": 7197,
      "SCHE": 7198,
      "ComponentPrivate": 7199,
      "edit": 7200,
      "QUERY": 7201,
      "Ġmessages": 7202,
      "399": 7203,
      "***": 7204,
      "Ġ324": 7205,
      "allocated": 7206,
      "uchar": 7207,
      "Ġrd": 7208,
      "ndx": 7209,
      "DIAN": 7210,
      "ĠĠĠĠĠĠĠĠĠĠĠĠĠĠĠĠĠĠĠĠĠĠĠĠĠĠĠĠĠĠĠĠĠĠĠĠĠĠĠĠĠĠ": 7211,
      "orb": 7212,
      "curs": 7213,
      "Could": 7214,
      "effect": 7215,
      "SIGNED": 7216,
      "tregister": 7217,
      "GT": 7218,
      "mouse": 7219,
      "quires": 7220,
      "SING": 7221,
      "OPENSSL": 7222,
      "kcontrol": 7223,
      "xEE": 7224,
      "FLD": 7225,
      "Ġsafe": 7226,
      "ONENT": 7227,
      "PARM": 7228,
      "container": 7229,
      "drm": 7230,
      "USR": 7231,
      "STEP": 7232,
      "AUTHOR": 7233,
      "DEP": 7234,
      "ENC": 7235,
      "ĠPa": 7236,
      "strcasecmp": 7237,
      "ifp": 7238,
      "ĠAS": 7239,
      "ĠTime": 7240,
      "chron": 7241,
      "BEL": 7242,
      "nto": 7243,
      "mes": 7244,
      "trt": 7245,
      "OLEAN": 7246,
      "Bo": 7247,
      "which": 7248,
      "CHED": 7249,
      "clist": 7250,
      "cluster": 7251,
      "cid": 7252,
      "Ġcodes": 7253,
      "sequ": 7254,
      "ecere": 7255,
      "ĠCOL": 7256,
      "unistd": 7257,
      "RI": 7258,
      "ĠFRV": 7259,
      "ĠWIN": 7260,
      "tport": 7261,
      "Ġoffsetof": 7262,
      "ĠTCL": 7263,
      "plt": 7264,
      "ĠPI": 7265,
      "Ġtv": 7266,
      "Ġrandom": 7267,
      "SCALARS": 7268,
      "CU": 7269,
      "trfs": 7270,
      "isa": 7271,
      "major": 7272,
      "Ġdetermine": 7273,
      "Ġrect": 7274,
      "CN": 7275,
      "Ġstuff": 7276,
      "pP": 7277,
      ")\");\\": 7278,
      "ĠNET": 7279,
      "Ġ58": 7280,
      "Ġproces": 7281,
      "UNI": 7282,
      "118": 7283,
      "SEG": 7284,
      "MESSAGE": 7285,
      "Ġapply": 7286,
      "Ġafs": 7287,
      "ising": 7288,
      "Descriptor": 7289,
      "Unknown": 7290,
      "ĠEAP": 7291,
      "154": 7292,
      "AnUnprefixed": 7293,
      "ength": 7294,
      "Ġheap": 7295,
      "Ġpi": 7296,
      "vsp": 7297,
      "ĠLWIP": 7298,
      "Red": 7299,
      "Ġ55": 7300,
      "caps": 7301,
      "ertificate": 7302,
      "tdevice": 7303,
      "Ġincluding": 7304,
      "PN": 7305,
      "ighb": 7306,
      "cast": 7307,
      "tocol": 7308,
      "Ġ2009": 7309,
      "ĠVM": 7310,
      "mpl": 7311,
      "xAA": 7312,
      "Ġinitialization": 7313,
      "MUTEX": 7314,
      "cw": 7315,
      "Ġ-\\": 7316,
      "EXTENSION": 7317,
      "=\\'": 7318,
      "ROP": 7319,
      "tlv": 7320,
      "ipheral": 7321,
      "tname": 7322,
      "Ġ322": 7323,
      "XY": 7324,
      "JECT": 7325,
      "ĠTMP": 7326,
      "HS": 7327,
      "arts": 7328,
      "Ġexpect": 7329,
      "tSSL": 7330,
      "tol": 7331,
      "ĠSA": 7332,
      "ĠAVERROR": 7333,
      "IMAGE": 7334,
      "Ġsubject": 7335,
      "DAC": 7336,
      "UBLIC": 7337,
      "operands": 7338,
      "FLOW": 7339,
      "unref": 7340,
      "indirect": 7341,
      "ĠCS": 7342,
      "wake": 7343,
      "tSDL": 7344,
      "ĠSP": 7345,
      "LAST": 7346,
      "Ġbutton": 7347,
      "LER": 7348,
      ")]": 7349,
      "Ġexisting": 7350,
      "Ġtestcase": 7351,
      "Append": 7352,
      "ĠOnly": 7353,
      "Ġdirectly": 7354,
      "aving": 7355,
      "palette": 7356,
      "Ġincrement": 7357,
      "pExpr": 7358,
      "]]": 7359,
      "adjust": 7360,
      "*)&": 7361,
      "writel": 7362,
      "Ġremaining": 7363,
      "directory": 7364,
      "buffers": 7365,
      "coeff": 7366,
      "VIRT": 7367,
      "extent": 7368,
      "ĠYoung": 7369,
      "reserved": 7370,
      "TECT": 7371,
      "Codec": 7372,
      "merge": 7373,
      "scope": 7374,
      "tfs": 7375,
      "slave": 7376,
      "MIX": 7377,
      "Ġrows": 7378,
      "apd": 7379,
      "usec": 7380,
      "Ġtimes": 7381,
      "ĠDC": 7382,
      "ĠCn": 7383,
      "Off": 7384,
      "Ġnote": 7385,
      "SIS": 7386,
      "550": 7387,
      "Ġcoeff": 7388,
      "Ġgood": 7389,
      "atype": 7390,
      "kp": 7391,
      "description": 7392,
      "ĠHow": 7393,
      "Ġrelocation": 7394,
      "Setup": 7395,
      "ĠINVALID": 7396,
      "ĠKey": 7397,
      "310": 7398,
      "3333": 7399,
      "900": 7400,
      "pTab": 7401,
      "Ġbb": 7402,
      "LICENSE": 7403,
      "ĠDEFAULT": 7404,
      "=-=-": 7405,
      "WD": 7406,
      "VT": 7407,
      "gtk": 7408,
      "PNG": 7409,
      "Ġrs": 7410,
      "Ġ),": 7411,
      "legacy": 7412,
      "|\\": 7413,
      "Ed": 7414,
      "Ġ68": 7415,
      "Ġcomplain": 7416,
      "HO": 7417,
      "Ġswap": 7418,
      "rsa": 7419,
      "960": 7420,
      "dns": 7421,
      "Ġ(\"%": 7422,
      "Ġssl": 7423,
      "ĠAUTHOR": 7424,
      "FAT": 7425,
      "ttx": 7426,
      "aset": 7427,
      "ĠOB": 7428,
      "utils": 7429,
      "prob": 7430,
      "eric": 7431,
      "stand": 7432,
      "Seq": 7433,
      "_)\\": 7434,
      "xAC": 7435,
      "tdma": 7436,
      "tPIN": 7437,
      "IRO": 7438,
      "voke": 7439,
      "nop": 7440,
      "tget": 7441,
      "ĠELF": 7442,
      "ĠBuffer": 7443,
      "Ġcare": 7444,
      "Driver": 7445,
      "have": 7446,
      "Fts": 7447,
      "wq": 7448,
      "Ġoperations": 7449,
      "ĠProcess": 7450,
      "mmap": 7451,
      "Ġfuns": 7452,
      "Ġprec": 7453,
      "Ġgenerated": 7454,
      "csr": 7455,
      "ĠCOM": 7456,
      "ross": 7457,
      "Ġidesc": 7458,
      "Ġfunsio": 7459,
      "126": 7460,
      "Ġmult": 7461,
      "look": 7462,
      "tor": 7463,
      "POLL": 7464,
      "Ġ&\\": 7465,
      "Ġbot": 7466,
      "sdp": 7467,
      "tables": 7468,
      "leave": 7469,
      "ĠAnd": 7470,
      "Gtk": 7471,
      "Ġexact": 7472,
      "________": 7473,
      "CASE": 7474,
      "DEFINE": 7475,
      "CONN": 7476,
      "ĠTx": 7477,
      "Ġunused": 7478,
      "PKCS": 7479,
      "ĠEOF": 7480,
      "Information": 7481,
      "xFC": 7482,
      "........": 7483,
      "ĠMay": 7484,
      "Ġtalloc": 7485,
      "external": 7486,
      "LABEL": 7487,
      "nS": 7488,
      "TRI": 7489,
      "til": 7490,
      "GOTO": 7491,
      "ĠSub": 7492,
      "Ġwm": 7493,
      "licenses": 7494,
      "'#": 7495,
      "lict": 7496,
      "Ġ/*************************************************************************/\\": 7497,
      "INTERRUP": 7498,
      "SYSTEM": 7499,
      "Ġcorresponding": 7500,
      "tdst": 7501,
      "Ġrl": 7502,
      "Ġ------------------------------------------------------------------------": 7503,
      "ĠLog": 7504,
      "dispatch": 7505,
      "Ġproducts": 7506,
      "Ġrestore": 7507,
      "Ġkeys": 7508,
      ")?": 7509,
      "Ġcomb": 7510,
      "Ġcompare": 7511,
      "HTTP": 7512,
      "ndis": 7513,
      "reason": 7514,
      "860": 7515,
      "Ġ(;;": 7516,
      "direction": 7517,
      "xBC": 7518,
      "Ġ655": 7519,
      "rgb": 7520,
      "Ġnv": 7521,
      "Over": 7522,
      "elo": 7523,
      "CREATE": 7524,
      "ACCE": 7525,
      "tfloat": 7526,
      "Ġ41": 7527,
      "metadata": 7528,
      "ILT": 7529,
      "DIG": 7530,
      "Ġmuch": 7531,
      "Ġadditional": 7532,
      "Decl": 7533,
      "nand": 7534,
      "156": 7535,
      "console": 7536,
      "gimp": 7537,
      ")},\\": 7538,
      "ively": 7539,
      "dram": 7540,
      "ĠCOMP": 7541,
      "=\\\\\"": 7542,
      "ĠTAG": 7543,
      "SIVE": 7544,
      "orse": 7545,
      "Ġoperator": 7546,
      "Ġai": 7547,
      "ĠDevice": 7548,
      "rsp": 7549,
      "Ġitself": 7550,
      "ENDIAN": 7551,
      "DEFINED": 7552,
      "Ġ96": 7553,
      "CARD": 7554,
      "Ġ<<=": 7555,
      "\";": 7556,
      "ĠControl": 7557,
      "xBD": 7558,
      "Ġsal": 7559,
      "nat": 7560,
      "two": 7561,
      "Option": 7562,
      "headers": 7563,
      "ĠWait": 7564,
      "]*": 7565,
      "parameters": 7566,
      "clusive": 7567,
      "Ġinflate": 7568,
      "Ġready": 7569,
      "Ġuv": 7570,
      "ĠBAD": 7571,
      "RU": 7572,
      "Le": 7573,
      "Ġ127": 7574,
      "player": 7575,
      "uster": 7576,
      "Ġ}},\\": 7577,
      "cancel": 7578,
      "ĠFP": 7579,
      "Ġconstraint": 7580,
      "TOKEN": 7581,
      "Ġexpress": 7582,
      "Ġaccording": 7583,
      "Ġ**/\\": 7584,
      "IPV": 7585,
      "xBE": 7586,
      "ĠpS": 7587,
      "166": 7588,
      "ĠPRE": 7589,
      "ĠStre": 7590,
      "405": 7591,
      "Ġ1999": 7592,
      ".\",": 7593,
      "Ġcm": 7594,
      "Ġextension": 7595,
      "Ġunix": 7596,
      "Ġunion": 7597,
      "jpeg": 7598,
      "Target": 7599,
      "ĠSYS": 7600,
      "Ġworks": 7601,
      "plied": 7602,
      "pcb": 7603,
      "ĠCHAR": 7604,
      "les": 7605,
      "tri": 7606,
      "*-": 7607,
      "Order": 7608,
      "ount": 7609,
      "Ġil": 7610,
      "Ġstrchr": 7611,
      ")!=": 7612,
      "GLEW": 7613,
      "Trigger": 7614,
      "Generic": 7615,
      "Ġsr": 7616,
      "ival": 7617,
      "shot": 7618,
      "lsa": 7619,
      "tone": 7620,
      "@@": 7621,
      "Ġdefinition": 7622,
      "Ġcommands": 7623,
      "plane": 7624,
      "ĠAddress": 7625,
      "Ġatt": 7626,
      "ially": 7627,
      "math": 7628,
      "tup": 7629,
      "licate": 7630,
      "tread": 7631,
      "Ġgive": 7632,
      "UAL": 7633,
      "ĠCFG": 7634,
      "xBB": 7635,
      "TOP": 7636,
      "dend": 7637,
      "engine": 7638,
      "CHUNK": 7639,
      "ĠHAS": 7640,
      "Ġmerge": 7641,
      "ISH": 7642,
      "tig": 7643,
      "LEX": 7644,
      "CATE": 7645,
      "orture": 7646,
      "most": 7647,
      "Ġstructures": 7648,
      "misc": 7649,
      "realloc": 7650,
      "LV": 7651,
      "Ġsplit": 7652,
      "pv": 7653,
      "tsizeof": 7654,
      "ĠCLA": 7655,
      "ĠFIFO": 7656,
      "137": 7657,
      "complex": 7658,
      "DEN": 7659,
      "uncate": 7660,
      "era": 7661,
      "ĠRS": 7662,
      "ayout": 7663,
      "125": 7664,
      "Adapter": 7665,
      "Ġappend": 7666,
      "Ġpromote": 7667,
      "ĠLL": 7668,
      "Ġig": 7669,
      "vertex": 7670,
      "ĠHOST": 7671,
      "ĠWLAN": 7672,
      "ĠConvert": 7673,
      "Word": 7674,
      "ĠSWIG": 7675,
      "specific": 7676,
      "ĠOMAP": 7677,
      "Ġgre": 7678,
      "sep": 7679,
      "SENT": 7680,
      "ĠBut": 7681,
      "ĠMODE": 7682,
      "restart": 7683,
      "Ġpackage": 7684,
      "GON": 7685,
      "threads": 7686,
      "sage": 7687,
      "ĠMSG": 7688,
      "asn": 7689,
      "Ġ62": 7690,
      "join": 7691,
      "tstart": 7692,
      "ĠSer": 7693,
      "Ġgeneric": 7694,
      "dle": 7695,
      "Extension": 7696,
      "Ġdestroy": 7697,
      "ALPHA": 7698,
      "WITH": 7699,
      "ĠSEEK": 7700,
      "ttype": 7701,
      "fid": 7702,
      "Ġpriority": 7703,
      "ĠND": 7704,
      "uce": 7705,
      "Ġwords": 7706,
      "nid": 7707,
      "ĠWORDINDEX": 7708,
      "ilename": 7709,
      "\\\\\",": 7710,
      "ender": 7711,
      "CLOSE": 7712,
      "tsnprintf": 7713,
      "DRIVER": 7714,
      "see": 7715,
      "ĠMULTI": 7716,
      "COMPONENT": 7717,
      "phase": 7718,
      "SAFE": 7719,
      "digest": 7720,
      "SPR": 7721,
      "Ġdx": 7722,
      "Ġcolumns": 7723,
      "asure": 7724,
      "Date": 7725,
      "Ġmatches": 7726,
      "busy": 7727,
      "Ġutf": 7728,
      "mar": 7729,
      "parameter": 7730,
      "Ind": 7731,
      "Ġurb": 7732,
      "nbool": 7733,
      "pwr": 7734,
      "ĠCODEC": 7735,
      "nuint": 7736,
      "ĠStreet": 7737,
      "Ctxt": 7738,
      "ĠSelect": 7739,
      "sources": 7740,
      "Ġ{{{": 7741,
      "constant": 7742,
      "spca": 7743,
      "nz": 7744,
      "rypt": 7745,
      "icmp": 7746,
      "Ġhalf": 7747,
      "825": 7748,
      "gm": 7749,
      "asses": 7750,
      "SLOT": 7751,
      "ALCON": 7752,
      "tclose": 7753,
      "pinfo": 7754,
      "367": 7755,
      "Root": 7756,
      "ittle": 7757,
      "ĠLIC": 7758,
      "Ġentire": 7759,
      "Character": 7760,
      "Match": 7761,
      "LM": 7762,
      "xAB": 7763,
      "Ġnumbers": 7764,
      "ĠKIND": 7765,
      "ĠCALL": 7766,
      "toutb": 7767,
      "INTERFACE": 7768,
      "perm": 7769,
      "ĠUNIT": 7770,
      "Ġtemporary": 7771,
      "CLOCK": 7772,
      "Exc": 7773,
      "Ġtim": 7774,
      "erpc": 7775,
      "Unicode": 7776,
      "SPEC": 7777,
      "nenum": 7778,
      "RAW": 7779,
      "ĠEE": 7780,
      "aults": 7781,
      "groups": 7782,
      "Ġci": 7783,
      "eof": 7784,
      "Ġreplace": 7785,
      "Ġdeal": 7786,
      "ĠER": 7787,
      "Ġctrl": 7788,
      "Ġmtd": 7789,
      "NOP": 7790,
      "Ġseconds": 7791,
      "Ġ*****************************************************************************": 7792,
      "Ġsettings": 7793,
      "UPDATE": 7794,
      "Ġcom": 7795,
      "crtc": 7796,
      "adb": 7797,
      "999": 7798,
      "RING": 7799,
      "277": 7800,
      "thw": 7801,
      "VC": 7802,
      "share": 7803,
      "ĠpOp": 7804,
      "ene": 7805,
      "EMPTY": 7806,
      "la": 7807,
      "Common": 7808,
      "ropy": 7809,
      "assemb": 7810,
      "\".": 7811,
      "Ġss": 7812,
      "020": 7813,
      "Ġ\":": 7814,
      "Ġgt": 7815,
      "THIS": 7816,
      "anel": 7817,
      "INITIAL": 7818,
      "IW": 7819,
      "DESCRIPTION": 7820,
      "ACTION": 7821,
      "cape": 7822,
      "weight": 7823,
      "ik": 7824,
      "Connection": 7825,
      "ĠRCC": 7826,
      "BIN": 7827,
      "timestamp": 7828,
      "shape": 7829,
      "ĠAp": 7830,
      "ĠCAN": 7831,
      "/****************************************************************************\\": 7832,
      "ĠSince": 7833,
      "Ġca": 7834,
      "Ġvery": 7835,
      "Ġdecoder": 7836,
      "transaction": 7837,
      "DEST": 7838,
      "Ġcoord": 7839,
      "Ġfails": 7840,
      "vcpu": 7841,
      "greg": 7842,
      "ĠEP": 7843,
      "rer": 7844,
      "GIVE": 7845,
      "writer": 7846,
      "Ġident": 7847,
      "rup": 7848,
      "SMB": 7849,
      "Ġfopen": 7850,
      "}},": 7851,
      "Ġverify": 7852,
      "esc": 7853,
      "tleneck": 7854,
      "gdbarch": 7855,
      "assoc": 7856,
      "egr": 7857,
      "mips": 7858,
      "pM": 7859,
      "Ġmx": 7860,
      "Chunk": 7861,
      "VIEW": 7862,
      "extension": 7863,
      "ĠSCSI": 7864,
      "howto": 7865,
      "plicit": 7866,
      "Ġcopied": 7867,
      "Ġdistance": 7868,
      "PED": 7869,
      "mixer": 7870,
      "267": 7871,
      "141": 7872,
      "ĠPF": 7873,
      "soft": 7874,
      "lation": 7875,
      "pitch": 7876,
      "initialized": 7877,
      "Attribute": 7878,
      "processor": 7879,
      "Ġrtems": 7880,
      "~~~~": 7881,
      "LCD": 7882,
      "Ġ78": 7883,
      "ĠLICENSE": 7884,
      "Ġ\\':": 7885,
      "ĠENABLE": 7886,
      "INST": 7887,
      "Compare": 7888,
      "119": 7889,
      "poly": 7890,
      "ENGINE": 7891,
      "reserve": 7892,
      "ĠFr": 7893,
      "COR": 7894,
      "Ġmember": 7895,
      "OPTIONAL": 7896,
      "...\\": 7897,
      "plug": 7898,
      "364": 7899,
      "CRYPT": 7900,
      "tBN": 7901,
      "Ġagainst": 7902,
      "Ġbin": 7903,
      "Magick": 7904,
      "Ġcontainer": 7905,
      "ccb": 7906,
      "tRNA": 7907,
      "adata": 7908,
      "DUMP": 7909,
      "MIPS": 7910,
      "DCTSIZE": 7911,
      "266": 7912,
      "Ġ*****": 7913,
      "\"(": 7914,
      "coll": 7915,
      "ĠLE": 7916,
      "alle": 7917,
      "ĠLine": 7918,
      "Video": 7919,
      "Ġbranch": 7920,
      "Ġlanguage": 7921,
      "flex": 7922,
      "Ġoperands": 7923,
      "Ġ180": 7924,
      "partition": 7925,
      "more": 7926,
      "STATS": 7927,
      "ĠIs": 7928,
      "MF": 7929,
      "iden": 7930,
      "Ġmatching": 7931,
      ")\"\\": 7932,
      "GIVEREF": 7933,
      "ĠDT": 7934,
      "fault": 7935,
      "xDB": 7936,
      "ĠSome": 7937,
      "pers": 7938,
      "Old": 7939,
      "]))\\": 7940,
      "nfs": 7941,
      "die": 7942,
      "readl": 7943,
      "Ġstats": 7944,
      "elt": 7945,
      "--)\\": 7946,
      "Ġnc": 7947,
      "mng": 7948,
      "Ġpayload": 7949,
      "nreturn": 7950,
      "ifr": 7951,
      "ĠMM": 7952,
      "arry": 7953,
      "bottleneck": 7954,
      "aut": 7955,
      "276": 7956,
      "FAST": 7957,
      "capture": 7958,
      "ĠINIT": 7959,
      "Ġpartic": 7960,
      "ĠDESC": 7961,
      "bigint": 7962,
      "Build": 7963,
      "structions": 7964,
      "CODING": 7965,
      "Ġextern": 7966,
      "Ġtre": 7967,
      "Ġbank": 7968,
      ")){\\": 7969,
      "parms": 7970,
      "dbus": 7971,
      "Ġpd": 7972,
      "best": 7973,
      "ĠpC": 7974,
      "Ġvf": 7975,
      "leaf": 7976,
      "unix": 7977,
      "xAF": 7978,
      "Ġ(--": 7979,
      "INUX": 7980,
      "Ġ=================================================================": 7981,
      "tend": 7982,
      "Ġpic": 7983,
      "Ġstrdup": 7984,
      "tPINMUX": 7985,
      "Direct": 7986,
      "Stride": 7987,
      "Ġfname": 7988,
      "Ġsq": 7989,
      "LS": 7990,
      "ocket": 7991,
      "ĠGimp": 7992,
      "iw": 7993,
      "xBA": 7994,
      "Ġ%.": 7995,
      "ENU": 7996,
      "xmit": 7997,
      "Ġ\"\");\\": 7998,
      "acing": 7999,
      "cols": 8000,
      "union": 8001,
      "366": 8002,
      "Ġfast": 8003,
      "virt": 8004,
      "ĠCurrent": 8005,
      "Ġdirection": 8006,
      "ĠPrint": 8007,
      "xAD": 8008,
      "ĠOrig": 8009,
      "ven": 8010,
      "Ġaddresses": 8011,
      "ITER": 8012,
      "isp": 8013,
      "retry": 8014,
      "ĠxmlSchema": 8015,
      "Ġgranted": 8016,
      "SEM": 8017,
      "Ġdrop": 8018,
      "lcd": 8019,
      "ĠInter": 8020,
      "TAIL": 8021,
      "Use": 8022,
      "Ġdm": 8023,
      "WAY": 8024,
      "374": 8025,
      "vd": 8026,
      "xp": 8027,
      "ALI": 8028,
      "\\',\\": 8029,
      "iform": 8030,
      "190": 8031,
      "AW": 8032,
      "Real": 8033,
      "-%": 8034,
      "\"%": 8035,
      "tlp": 8036,
      "Ġelem": 8037,
      "ĠACTION": 8038,
      "Null": 8039,
      "Ġprintk": 8040,
      "Ġ*************************************************************************": 8041,
      "ĠRemove": 8042,
      "006": 8043,
      "tal": 8044,
      "Ġnone": 8045,
      "marker": 8046,
      "Ġmarker": 8047,
      "Unlock": 8048,
      "HC": 8049,
      "threshold": 8050,
      "trap": 8051,
      "Ġdescrib": 8052,
      "tlast": 8053,
      "tZ": 8054,
      "Ġsoap": 8055,
      "0002": 8056,
      "Ġide": 8057,
      "():": 8058,
      "ATOM": 8059,
      "ĠSTATE": 8060,
      "xmm": 8061,
      "BOOT": 8062,
      "stick": 8063,
      "Ġgc": 8064,
      "thdr": 8065,
      "Ġuni": 8066,
      "Are": 8067,
      "Ġalignment": 8068,
      "At": 8069,
      "ves": 8070,
      "Ġspi": 8071,
      "Ġoccurs": 8072,
      "Ġpk": 8073,
      "XEXP": 8074,
      "snap": 8075,
      "RG": 8076,
      "Ġrelative": 8077,
      "80000": 8078,
      "cycle": 8079,
      "Ġdescription": 8080,
      "agement": 8081,
      "Ġ\"_": 8082,
      "Prev": 8083,
      "oked": 8084,
      "jmp": 8085,
      "ĠFL": 8086,
      "Ġrequires": 8087,
      "needed": 8088,
      "090": 8089,
      "ELEMENT": 8090,
      "pNext": 8091,
      "tseq": 8092,
      "ĠpData": 8093,
      "Ġcomment": 8094,
      "disc": 8095,
      "ĠPS": 8096,
      "REAL": 8097,
      "Ġalgorithm": 8098,
      "ĠLCD": 8099,
      "ROOT": 8100,
      "afs": 8101,
      "Ġzone": 8102,
      "Ġ66": 8103,
      "Ġpartial": 8104,
      "800000000": 8105,
      "157": 8106,
      "Ġupdated": 8107,
      "Ġendorse": 8108,
      "ternal": 8109,
      "Ġdl": 8110,
      "__)": 8111,
      "ĠTry": 8112,
      "tflags": 8113,
      "walk": 8114,
      "AMS": 8115,
      "BLE": 8116,
      "ading": 8117,
      "locale": 8118,
      "Ġstorage": 8119,
      "modes": 8120,
      "ĠĠĠĠĠĠĠĠĠĠĠĠĠĠĠĠĠĠĠĠĠĠĠĠĠĠĠĠĠĠĠĠĠĠĠĠĠĠĠĠĠĠĠĠĠĠĠĠĠĠĠĠĠĠĠĠĠĠĠĠĠĠĠĠĠĠĠĠĠĠĠĠĠĠĠĠ": 8121,
      "ued": 8122,
      "ATTRIBUTE": 8123,
      "compressed": 8124,
      "Ġtile": 8125,
      "RESH": 8126,
      "ĠSVN": 8127,
      "Ġsf": 8128,
      "ĠGE": 8129,
      "376": 8130,
      "Begin": 8131,
      "AVA": 8132,
      "261": 8133,
      "ĠInst": 8134,
      "eek": 8135,
      "Model": 8136,
      "307": 8137,
      "udev": 8138,
      "MOV": 8139,
      "Ġchecking": 8140,
      "mii": 8141,
      "Ġgfc": 8142,
      "ĠUnivers": 8143,
      "\\';": 8144,
      "ONSE": 8145,
      "tenum": 8146,
      "Ġchecks": 8147,
      "abilities": 8148,
      "bw": 8149,
      "NAM": 8150,
      "305": 8151,
      "Ġdentry": 8152,
      "colors": 8153,
      "ĠRF": 8154,
      "monitor": 8155,
      "005": 8156,
      "pPage": 8157,
      "streams": 8158,
      "ĠME": 8159,
      "ROUND": 8160,
      "Ġbeginning": 8161,
      "ases": 8162,
      "ĠSpec": 8163,
      "sense": 8164,
      "ĠOpt": 8165,
      "hz": 8166,
      "ĠpFile": 8167,
      "entication": 8168,
      "PIXEL": 8169,
      "420": 8170,
      "linesize": 8171,
      "PULL": 8172,
      "meth": 8173,
      "otg": 8174,
      "tnode": 8175,
      "coming": 8176,
      "False": 8177,
      "165": 8178,
      "Unable": 8179,
      "SOCKET": 8180,
      "Ġequ": 8181,
      "Ġcompile": 8182,
      "Ġcli": 8183,
      "Surface": 8184,
      "ike": 8185,
      "LIG": 8186,
      "pdu": 8187,
      "Sig": 8188,
      "replace": 8189,
      "Ġaround": 8190,
      "370": 8191,
      "lew": 8192,
      "syntax": 8193,
      "ĠCol": 8194,
      "attrib": 8195,
      "OPC": 8196,
      "Lot": 8197,
      "cos": 8198,
      "formed": 8199,
      "arly": 8200,
      "rot": 8201,
      "ĠFLAG": 8202,
      "ropp": 8203,
      "Ġfc": 8204,
      "ĠHD": 8205,
      "Ġmail": 8206,
      "SHARED": 8207,
      "oring": 8208,
      "ited": 8209,
      "avg": 8210,
      "tnv": 8211,
      "__)\\": 8212,
      "Ġsubst": 8213,
      "SINGLE": 8214,
      "Ġcompiler": 8215,
      "Ġclip": 8216,
      "Rowid": 8217,
      "Ġmeta": 8218,
      "ĠĠĠĠĠĠĠĠĠĠĠĠĠĠĠĠĠĠĠĠĠĠĠĠĠĠĠĠĠĠĠĠĠĠĠĠĠĠĠĠĠĠĠĠĠĠĠ": 8219,
      "(~": 8220,
      "Ġ1998": 8221,
      "Ġtransmit": 8222,
      "013": 8223,
      "BOARD": 8224,
      "maph": 8225,
      "tcpu": 8226,
      "codes": 8227,
      "Ġchecksum": 8228,
      "talloc": 8229,
      "ĠLED": 8230,
      "Ġsyn": 8231,
      "Ġbody": 8232,
      "GNU": 8233,
      "elements": 8234,
      "Ġcalcul": 8235,
      "Counter": 8236,
      "pctxt": 8237,
      "trigger": 8238,
      "ISO": 8239,
      "567": 8240,
      "stub": 8241,
      "hrase": 8242,
      "tIN": 8243,
      "Ġforward": 8244,
      "365": 8245,
      "Pool": 8246,
      "167": 8247,
      "ini": 8248,
      "195": 8249,
      "Ġdoing": 8250,
      "bv": 8251,
      "010": 8252,
      "ffs": 8253,
      "regno": 8254,
      "tva": 8255,
      "Ġjs": 8256,
      "tinput": 8257,
      "Ġhelp": 8258,
      "NORE": 8259,
      "129": 8260,
      "running": 8261,
      "ĠFUNCTION": 8262,
      "tags": 8263,
      "Ġ*)((": 8264,
      "SCHEMA": 8265,
      "Bus": 8266,
      "ays": 8267,
      "Ġsg": 8268,
      "Ġsens": 8269,
      "ĠRO": 8270,
      "ANG": 8271,
      "txfs": 8272,
      "Ġtd": 8273,
      "OPCODE": 8274,
      "ĠrC": 8275,
      "dac": 8276,
      "IEEE": 8277,
      "ond": 8278,
      "tlocal": 8279,
      "forms": 8280,
      "pkey": 8281,
      "arn": 8282,
      "srs": 8283,
      "graphic": 8284,
      "ested": 8285,
      "maphore": 8286,
      "compression": 8287,
      "tentry": 8288,
      "erred": 8289,
      "TIFI": 8290,
      "ĠPIX": 8291,
      "DELETE": 8292,
      "ĠSANE": 8293,
      "ARC": 8294,
      "Ġamount": 8295,
      "Ġ*));\\": 8296,
      "BOOLEAN": 8297,
      "pu": 8298,
      "ĠREGB": 8299,
      "correct": 8300,
      "HEX": 8301,
      "ĠDECL": 8302,
      "mq": 8303,
      "014": 8304,
      "Ġknown": 8305,
      "CRC": 8306,
      "SWAP": 8307,
      "ĠĠĠĠĠĠĠĠĠĠĠĠĠĠĠĠĠĠĠĠĠĠĠĠĠĠĠĠĠĠĠĠĠĠĠĠĠĠĠĠĠĠĠĠĠĠĠĠĠĠĠĠĠĠĠĠĠĠĠĠĠĠĠĠĠĠĠĠĠĠĠĠ": 8308,
      "DIMENSION": 8309,
      "ironment": 8310,
      "176": 8311,
      "ldap": 8312,
      "Ġperiod": 8313,
      "ĠCP": 8314,
      "Ġmedi": 8315,
      "ĠLinux": 8316,
      "Ġaligned": 8317,
      "ased": 8318,
      "times": 8319,
      "connected": 8320,
      "ĠMETH": 8321,
      "alog": 8322,
      "ĠOFF": 8323,
      "FIXED": 8324,
      "\"\"": 8325,
      "PyExc": 8326,
      "tthis": 8327,
      "URL": 8328,
      "265": 8329,
      "sleep": 8330,
      "ADAP": 8331,
      "locks": 8332,
      "Ġheld": 8333,
      "chk": 8334,
      "Bl": 8335,
      "utable": 8336,
      "tPHALCON": 8337,
      "xCE": 8338,
      "Ġcdef": 8339,
      "Ġ70": 8340,
      "Ġ2011": 8341,
      "security": 8342,
      "ggle": 8343,
      "ĠVdbe": 8344,
      "850": 8345,
      "ĠĠĠĠĠĠĠĠĠĠĠĠĠĠĠĠĠĠĠĠĠĠĠĠĠĠĠĠĠĠĠĠĠĠĠĠĠĠĠĠĠĠĠĠĠĠĠĠĠĠĠĠĠĠĠĠ": 8346,
      "---*/\\": 8347,
      "scb": 8348,
      "branch": 8349,
      "adr": 8350,
      "CRYPTO": 8351,
      ")\\'": 8352,
      "inder": 8353,
      "324": 8354,
      "ĠĠĠĠĠĠĠĠĠĠĠĠĠĠĠĠĠĠĠĠĠĠĠĠĠĠĠĠĠĠĠĠĠĠĠĠĠĠĠĠĠĠĠĠ": 8355,
      "Ġtick": 8356,
      "ĠCM": 8357,
      "tser": 8358,
      "404": 8359,
      "000000000": 8360,
      "ons": 8361,
      "Normal": 8362,
      "roadc": 8363,
      "Ġhandled": 8364,
      "tnext": 8365,
      "CTP": 8366,
      "ĠAt": 8367,
      "ĠDAC": 8368,
      "failure": 8369,
      "306": 8370,
      "Mgr": 8371,
      "export": 8372,
      "anny": 8373,
      "Ġgf": 8374,
      "tmod": 8375,
      "oriz": 8376,
      "Ġadvert": 8377,
      "Ġpurpose": 8378,
      "xEB": 8379,
      "licit": 8380,
      "uous": 8381,
      "xAE": 8382,
      "CEP": 8383,
      "gamma": 8384,
      "defs": 8385,
      "tsd": 8386,
      "vered": 8387,
      "ection": 8388,
      "ĠRx": 8389,
      "poration": 8390,
      "Ns": 8391,
      "bx": 8392,
      "TRANS": 8393,
      "MII": 8394,
      "Ġ*/,/*": 8395,
      "Ġhi": 8396,
      "Ġwpl": 8397,
      "Ġindicate": 8398,
      "alen": 8399,
      "Ġbeh": 8400,
      "tdprintk": 8401,
      "rid": 8402,
      "derer": 8403,
      "Ġstyle": 8404,
      "Acc": 8405,
      "Ġfirmware": 8406,
      "Ġroute": 8407,
      "ntl": 8408,
      "Face": 8409,
      "Ġloaded": 8410,
      "Ġbetter": 8411,
      "PAL": 8412,
      "640": 8413,
      "cogn": 8414,
      "ĠFE": 8415,
      "Sql": 8416,
      "oh": 8417,
      "Ġindent": 8418,
      "Ġschema": 8419,
      "DISP": 8420,
      "Ġextent": 8421,
      "THON": 8422,
      "nC": 8423,
      "roadcast": 8424,
      "cdev": 8425,
      "vers": 8426,
      "ĠCorporation": 8427,
      "Ġgcc": 8428,
      "-----": 8429,
      "Ġmean": 8430,
      "foo": 8431,
      "ĠLoad": 8432,
      "ĠSTATUS": 8433,
      "endpoint": 8434,
      "fun": 8435,
      "RIPT": 8436,
      "Ġglew": 8437,
      "Ġsurface": 8438,
      "azy": 8439,
      "Ġscript": 8440,
      ">,": 8441,
      "tUINT": 8442,
      "mmio": 8443,
      "Ġdd": 8444,
      "osite": 8445,
      "175": 8446,
      "inish": 8447,
      "Ġge": 8448,
      "Ġfreed": 8449,
      "SRV": 8450,
      "Ġautomat": 8451,
      "ieve": 8452,
      "NOMEM": 8453,
      "ĠWHERE": 8454,
      "oom": 8455,
      "air": 8456,
      "Ġarm": 8457,
      "omap": 8458,
      "tREG": 8459,
      "tvol": 8460,
      "hint": 8461,
      "Ġiv": 8462,
      "CURRENT": 8463,
      "ilt": 8464,
      "Ġorigin": 8465,
      "PROP": 8466,
      "BOSE": 8467,
      "Ġexpand": 8468,
      "slab": 8469,
      "Ġhid": 8470,
      "ĠNL": 8471,
      "MIC": 8472,
      "ĠPRINT": 8473,
      "VECTOR": 8474,
      "ider": 8475,
      "dq": 8476,
      "Ġ\"#": 8477,
      "states": 8478,
      "VertexAttrib": 8479,
      "ELECT": 8480,
      "elist": 8481,
      "Ġweak": 8482,
      "ahead": 8483,
      "Ġ89": 8484,
      "UGO": 8485,
      "304": 8486,
      "DECLA": 8487,
      "Ġproblem": 8488,
      "Ġimplemented": 8489,
      "ĠRES": 8490,
      "READY": 8491,
      "ytes": 8492,
      "SERVICE": 8493,
      "AFF": 8494,
      "assign": 8495,
      "Ġhp": 8496,
      "Ac": 8497,
      "Ġwaiting": 8498,
      "ĠVAR": 8499,
      "ĠMark": 8500,
      "acon": 8501,
      "initial": 8502,
      "loader": 8503,
      "\\'.": 8504,
      "ĠSystem": 8505,
      "Ġvers": 8506,
      "Big": 8507,
      "nM": 8508,
      "Ġ\",\\": 8509,
      "Ġtail": 8510,
      "ĠVER": 8511,
      "Ġ\"=": 8512,
      "Ġgets": 8513,
      "DEON": 8514,
      "rtp": 8515,
      "tINIT": 8516,
      "RESPONSE": 8517,
      "year": 8518,
      "tsrc": 8519,
      "Parameters": 8520,
      "edure": 8521,
      "tfile": 8522,
      "Comple": 8523,
      "Sta": 8524,
      "LEASE": 8525,
      "xCC": 8526,
      "Dec": 8527,
      "Ġpager": 8528,
      "lev": 8529,
      "prot": 8530,
      "Exec": 8531,
      "Integer": 8532,
      "><": 8533,
      "143": 8534,
      "binary": 8535,
      "drop": 8536,
      "LACE": 8537,
      "ĠList": 8538,
      "aves": 8539,
      "ĠChannel": 8540,
      "quired": 8541,
      "275": 8542,
      "194": 8543,
      "ĠMULTIPLY": 8544,
      "Ġhard": 8545,
      "rates": 8546,
      "ĠTCG": 8547,
      "Ġfeatures": 8548,
      "ĠpP": 8549,
      "Ġretry": 8550,
      "irr": 8551,
      "MASTER": 8552,
      "SPEED": 8553,
      "DEL": 8554,
      "Ġquot": 8555,
      "xEC": 8556,
      "macro": 8557,
      "Ġiw": 8558,
      "121": 8559,
      "cii": 8560,
      "Ġpassword": 8561,
      "Ġmissing": 8562,
      "148": 8563,
      "Ġfactor": 8564,
      "ĠFRAMES": 8565,
      "ĠUniversity": 8566,
      "specialize": 8567,
      "heme": 8568,
      "BUILT": 8569,
      "PERM": 8570,
      "tensa": 8571,
      "POOL": 8572,
      "Ġ\"[": 8573,
      "Ġdict": 8574,
      "verage": 8575,
      "xFA": 8576,
      "Ġleg": 8577,
      "EK": 8578,
      "pSrc": 8579,
      "Shm": 8580,
      "258": 8581,
      "panel": 8582,
      "argin": 8583,
      "SMALL": 8584,
      "Ġsimply": 8585,
      "ĠPER": 8586,
      "idate": 8587,
      "curl": 8588,
      "instruction": 8589,
      "tsub": 8590,
      "entr": 8591,
      "Zero": 8592,
      "Ġincre": 8593,
      "forward": 8594,
      "SND": 8595,
      "Ġignored": 8596,
      "VID": 8597,
      "REAS": 8598,
      "Ġ*)\\": 8599,
      "HANDLER": 8600,
      "glGet": 8601,
      "nExcelValue": 8602,
      "Ġasection": 8603,
      "Ġmk": 8604,
      "sections": 8605,
      "Ġ\"\"": 8606,
      "1234": 8607,
      "NING": 8608,
      "calloc": 8609,
      "Ġvs": 8610,
      "169": 8611,
      "OWER": 8612,
      "AST": 8613,
      "FM": 8614,
      "Phy": 8615,
      "//!\\": 8616,
      "tchip": 8617,
      "xfff": 8618,
      "offs": 8619,
      "Ġmulti": 8620,
      "Ġensure": 8621,
      "ĠCOPYING": 8622,
      "sets": 8623,
      "virtual": 8624,
      "IDLE": 8625,
      "Ġjpeg": 8626,
      "dB": 8627,
      "ĠReserved": 8628,
      "Lookup": 8629,
      "chroma": 8630,
      "logy": 8631,
      "tAM": 8632,
      "ighbor": 8633,
      "Ġtevent": 8634,
      "intel": 8635,
      "Ġ,\\": 8636,
      "323": 8637,
      "187": 8638,
      "erc": 8639,
      "ĠDOT": 8640,
      "Sys": 8641,
      "Ġprevent": 8642,
      "bpp": 8643,
      "ROLL": 8644,
      "ĠTILE": 8645,
      "numpy": 8646,
      "198": 8647,
      "Ġcommit": 8648,
      "ĠSTA": 8649,
      "ĠNAME": 8650,
      "Ġitems": 8651,
      "Ġdate": 8652,
      "iphy": 8653,
      "cached": 8654,
      "Ġldb": 8655,
      "trx": 8656,
      "PROG": 8657,
      "/********************************************************************": 8658,
      "Ġ%[": 8659,
      "vlc": 8660,
      "usr": 8661,
      "ao": 8662,
      "450": 8663,
      "Ġmsm": 8664,
      "pybuffernd": 8665,
      "APH": 8666,
      "striction": 8667,
      "303": 8668,
      "thost": 8669,
      "Ġthings": 8670,
      "139": 8671,
      "Ġcompression": 8672,
      "Matrix": 8673,
      "Ġmips": 8674,
      "{\\\\": 8675,
      "Step": 8676,
      "xEF": 8677,
      "Ġmagic": 8678,
      "ĠPY": 8679,
      ")>>": 8680,
      "Ġtests": 8681,
      "Dig": 8682,
      "Ġtun": 8683,
      "Session": 8684,
      "UG": 8685,
      "ASS": 8686,
      "Ġ90": 8687,
      "Ġdue": 8688,
      "Ġstderr": 8689,
      "sue": 8690,
      "Ġrp": 8691,
      "sectors": 8692,
      "ometry": 8693,
      "Enum": 8694,
      "ĠIntel": 8695,
      "uuid": 8696,
      "Ġstdout": 8697,
      "ĠHAL": 8698,
      "vlan": 8699,
      "SWIG": 8700,
      "Ġkzalloc": 8701,
      "schedule": 8702,
      "SIZ": 8703,
      "FATAL": 8704,
      "Ġwhole": 8705,
      "/****************************************************************": 8706,
      "ĠSkip": 8707,
      "162": 8708,
      "xFB": 8709,
      "xED": 8710,
      "ĠMII": 8711,
      "Full": 8712,
      "6666": 8713,
      "Ġbug": 8714,
      "Disable": 8715,
      "pwm": 8716,
      "cmap": 8717,
      "Ġtrail": 8718,
      "122": 8719,
      "Ġct": 8720,
      "ĠDV": 8721,
      "Ġ150": 8722,
      "RefN": 8723,
      "iocb": 8724,
      "ĠIORE": 8725,
      "*/))": 8726,
      "Ġwl": 8727,
      "ĠSELECT": 8728,
      "JSAMPLE": 8729,
      "SETUP": 8730,
      "urther": 8731,
[...]
